{"[UNK]":0,"[SOS]":1,"[SEP]":2,"[EOS]":3,"[PAD]":4,"!":5,"\"":6,"#":7,"$":8,"%":9,"&":10,"'":11,"(":12,")":13,"*":14,"+":15,",":16,"-":17,".":18,"/":19,"0":20,"1":21,"2":22,"3":23,"4":24,"5":25,"6":26,"7":27,"8":28,"9":29,":":30,";":31,"=":32,">":33,"?":34,"@":35,"[":36,"\\":37,"]":38,"^":39,"_":40,"`":41,"a":42,"b":43,"c":44,"d":45,"e":46,"f":47,"g":48,"h":49,"i":50,"j":51,"k":52,"l":53,"m":54,"n":55,"o":56,"p":57,"q":58,"r":59,"s":60,"t":61,"u":62,"v":63,"w":64,"x":65,"y":66,"z":67,"¡":68,"¢":69,"£":70,"¤":71,"¥":72,"§":73,"¨":74,"©":75,"ª":76,"«":77,"¬":78,"®":79,"¯":80,"°":81,"±":82,"²":83,"³":84,"´":85,"¶":86,"¸":87,"¹":88,"º":89,"»":90,"¼":91,"½":92,"¿":93,"Â":94,"Ã":95,"Ä":96,"Å":97,"Î":98,"Ð":99,"Ó":100,"à":101,"â":102,"ä":103,"è":104,"é":105,"ï":106,"Ċ":107,"Ġ":108,"Ģ":109,"ģ":110,"Ĥ":111,"ĥ":112,"Ħ":113,"ħ":114,"ĩ":115,"Ī":116,"Ĭ":117,"į":118,"ĳ":119,"Ĵ":120,"ĵ":121,"Ķ":122,"ĸ":123,"Ĺ":124,"ĺ":125,"Ļ":126,"ļ":127,"ľ":128,"Ŀ":129,"ŀ":130,"Ł":131,"ł":132,"Ń":133,"en":134,"er":135,"Ġt":136,"in":137,"Ġa":138,"Ġd":139,"Ġw":140,"ch":141,"Ġs":142,"Ġth":143,"Ġi":144,"es":145,"nd":146,"Ġm":147,"ie":148,"Ġb":149,"at":150,"on":151,"Ġh":152,"Ġthe":153,"re":154,"Ġg":155,"as":156,"Ġu":157,"Ġe":158,"an":159,"Ġo":160,"st":161,"Ġf":162,"it":163,"ll":164,"Ġn":165,"Ġin":166,"Ġp":167,"ou":168,"ich":169,"or":170,"ar":171,"Ġl":172,"ing":173,"Ġc":174,"Ġv":175,"Ġand":176,"is":177,"Ġk":178,"te":179,"Ġto":180,"Ġein":181,"le":182,"ir":183,"Ġund":184,"al":185,"Ġz":186,"Ġof":187,"Ġbe":188,"Ã¼":189,"Ġdie":190,"Ġwe":191,"om":192,"Ġdas":193,"ig":194,"Ġy":195,"ed":196,"un":197,"Ã¤":198,"ut":199,"ur":200,"Ġthat":201,"et":202,"us":203,"ent":204,"Ġha":205,"ion":206,"ro":207,"Ġyou":208,"Ġso":209,"Ġwir":210,"Ġsie":211,"em":212,"ra":213,"Ġit":214,"Ġwh":215,"el":216,"ere":217,"ic":218,"Ġder":219,"Ġich":220,"Ġan":221,"Ġdi":222,"Ġzu":223,"Ġse":224,"Ġis":225,"ve":226,"ten":227,"Ġj":228,"Ġist":229,"hr":230,"Ã¶":231,"Ġst":232,"Ġes":233,"il":234,"ow":235,"Ġre":236,"Ġver":237,"ter":238,"de":239,"ot":240,"icht":241,"Ġun":242,"am":243,"Ġab":244,"gen":245,"ach":246,"Ġer":247,"'s":248,"ier":249,"lich":250,"ind":251,"ge":252,"ben":253,"Ġwas":254,"sch":255,"Ġal":256,"Ġau":257,"Ġon":258,"Ġme":259,"ke":260,"all":261,"Ġthis":262,"Ġdies":263,"ol":264,"im":265,"ct":266,"ay":267,"Ġsch":268,"Ġr":269,"ung":270,"Ġden":271,"Ġge":272,"den":273,"ver":274,"Ġall":275,"Ġals":276,"Ġfor":277,"se":278,"Ġ-":279,"um":280,"Ã¼r":281,"ck":282,"Ġnicht":283,"nen":284,"ld":285,"Ġle":286,"and":287,"be":288,"op":289,"ber":290,"Ġ\"":291,"Ġne":292,"Ġpro":293,"Ġdo":294,"Ġauf":295,"Ġdass":296,"Ġvon":297,"ation":298,"Ġeine":299,"ce":300,"Ġman":301,"Ġim":302,"Ġ--":303,"Ġmit":304,"au":305,"ht":306,"der":307,"ess":308,"th":309,"Ġthey":310,"Ġwie":311,"Ġhe":312,"ann":313,"Ġli":314,"ff":315,"ine":316,"est":317,"ill":318,"ag":319,"Ġsp":320,"ÃŁ":321,"ith":322,"Ġgo":323,"ly":324,"Ġare":325,"Ġwar":326,"Ġmo":327,"sen":328,"Ġuns":329,"ally":330,"id":331,"hen":332,"Ġar":333,"Ġwith":334,"isch":335,"Ġhave":336,"Ġch":337,"Ġwhat":338,"men":339,"Ġas":340,"Ġbut":341,"ul":342,"Ġsich":343,"enn":344,"Ġwor":345,"ell":346,"kt":347,"Ġcan":348,"ist":349,"aus":350,"uch":351,"we":352,"Ġcom":353,"Ã¼ber":354,"Ġaus":355,"he":356,"ft":357,"ust":358,"Ġat":359,"Ġfr":360,"out":361,"ers":362,"Ġor":363,"ern":364,"os":365,"Ġex":366,"ab":367,"ant":368,"Ġum":369,"Ġsind":370,"Ġaber":371,"ib":372,"ĠfÃ¼r":373,"ad":374,"Ã¶n":375,"Ġih":376,"und":377,"'t":378,"Ġhaben":379,"Ġ1":380,"Ġwenn":381,"Ġthere":382,"Ġnot":383,"ould":384,"pp":385,"Ġhat":386,"Ġabout":387,"Ġges":388,"Ġalso":389,"Ġwer":390,"Ġde":391,"oo":392,"Ġsom":393,"end":394,"ĠÃ¼ber":395,"ze":396,"00":397,"Ġte":398,"Ġdes":399,"Ġda":400,"Ġvie":401,"iv":402,"ort":403,"ik":404,"Ġmy":405,"ĠkÃ¶n":406,"og":407,"Ġdiese":408,"art":409,"Ġsa":410,"Ġma":411,"qu":412,"ahr":413,"Ġdem":414,"her":415,"Ġno":416,"ies":417,"Ġpe":418,"hl":419,"Ġone":420,"ight":421,"ese":422,"Ġtr":423,"Ġvor":424,"Ġcon":425,"Ġsh":426,"'re":427,".\"":428,"ien":429,"mer":430,"Ġpeop":431,"Ġpl":432,"ive":433,"Ġpeople":434,"ne":435,"Ġen":436,"Ġwo":437,"Ġbec":438,"ate":439,"Ġent":440,"ink":441,"Ġlike":442,"igen":443,"ity":444,"Ġmen":445,"Ġus":446,"Ġif":447,"etz":448,"Ġher":449,"ute":450,"Ġgr":451,"Ġfrom":452,"Ġkn":453,"ste":454,"ure":455,"Ġnow":456,"Ġour":457,"ein":458,"ang":459,"ap":460,"Ġeinen":461,"Ġjust":462,"Ġget":463,"Ġnach":464,"Ġthese":465,"Ġgen":466,"Ġout":467,"ause":468,"ast":469,"ook":470,"od":471,"Ġknow":472,"ĠkÃ¶nnen":473,"Ġhier":474,"Ġoder":475,"lt":476,"Ġze":477,"Ġinter":478,"Ġthing":479,"Ġmach":480,"ieren":481,"Ġthem":482,"Ġwhen":483,"ted":484,"Ġwerden":485,"Ġmensch":486,"Ġbecause":487,"Ġ2":488,"ear":489,"Ġvery":490,"Ġwho":491,"iert":492,"tw":493,"ild":494,"ken":495,"fe":496,"oug":497,"Ġsein":498,"Ġup":499,"Ġthink":500,"ungen":501,"Ġdar":502,"Ġmein":503,"lle":504,"ass":505,"per":506,"Ġauch":507,"Ġkann":508,"Ġam":509,"âĢ":510,"iz":511,"Ġby":512,"Ġsome":513,"one":514,"Ġhow":515,"Ġkind":516,"Ġsee":517,"ound":518,"ite":519,"ige":520,"Ġeiner":521,"Ġgoing":522,"Ġact":523,"ah":524,"Ġgl":525,"ick":526,"Ġcomp":527,"Ġste":528,"chen":529,"our":530,"ĠâĢ":531,"ain":532,"fen":533,"for":534,"Ġdann":535,"Ġever":536,"scha":537,"Ġco":538,"Ġwill":539,"Ġnur":540,"Ġpr":541,"Ġihr":542,"Ġeinem":543,"Ġyour":544,"Ã¤t":545,"ibt":546,"zen":547,"sten":548,"ack":549,"Ġtim":550,"eren":551,"Ġro":552,"Ã¤nd":553,"Ġmore":554,"Ġyear":555,"Ġsehr":556,"Ġetw":557,"ame":558,"Ġgro":559,"Ġhad":560,"Ġwird":561,"Ġhere":562,"pt":563,"olog":564,"Ġwhich":565,"age":566,"ans":567,"ial":568,"Ġbr":569,"ard":570,"ide":571,"Ġmus":572,"Ġwould":573,"Ġlook":574,"to":575,"Ġqu":576,"Ġmich":577,"ischen":578,"zu":579,"Ġunter":580,"ru":581,"pl":582,"Ã¼ck":583,"ble":584,"ert":585,"ank":586,"reat":587,"ĠâĢĵ":588,"Ġmenschen":589,"Ġfe":590,"Ġsu":591,"urch":592,"Ġfra":593,"ise":594,"Ġkon":595,"Ã¶r":596,"Ġreally":597,"Ġtheir":598,"itt":599,"Ġfa":600,"Ġwere":601,"Ġihnen":602,"Ġkom":603,"Ġgibt":604,"ous":605,"are":606,"keit":607,"Ġper":608,"Ġbes":609,"ually":610,"Ġthen":611,"Ã¤ch":612,"ose":613,"Ġwork":614,"Ġbl":615,"Ġleben":616,"Ġra":617,"hing":618,"issen":619,"iel":620,"wo":621,"'ve":622,"hal":623,"Ġwur":624,"Ġworld":625,"Ġgesch":626,"Ġway":627,"Ġjahr":628,"du":629,"Ġev":630,"Ġta":631,"Ġevery":632,"Ġviel":633,"ud":634,"Ġnoch":635,"Ġjed":636,"Ġbet":637,"'m":638,"Ġsehen":639,"Ġhas":640,"Ġfl":641,"if":642,"Ġwelt":643,"chn":644,"Ġetwas":645,"Ġdieser":646,"llen":647,"Ġdon":648,"ip":649,"heit":650,"ment":651,"Ġke":652,"ther":653,"Ġtime":654,"Ġdurch":655,"ign":656,"ĠmÃ¶":657,"Ġmir":658,"ions":659,"Ġbei":660,"schaft":661,"ue":662,"Ġhabe":663,"ong":664,"ough":665,"ater":666,"ia":667,"Ġ,":668,"Ġbra":669,"Ġihre":670,"Ġactually":671,"me":672,"Ġag":673,"Ġsy":674,"nt":675,"Ġmehr":676,"Ġob":677,"Ġsay":678,"sp":679,"Ġind":680,"Ġinto":681,"Ġproble":682,"ect":683,"Ġwhere":684,"Ġsel":685,"Ġzur":686,"Ġide":687,"Ã¤n":688,"Ġnew":689,"sel":690,"Ġaf":691,"Ġcould":692,"Ġwant":693,"beit":694,"Ġ.":695,"Ġwissen":696,"alk":697,"Ġsc":698,"Ġtra":699,"Ġthings":700,"ore":701,"etzt":702,"ens":703,"Ġsag":704,"mal":705,"Ġyears":706,"ob":707,"Ġalle":708,"Ġsomet":709,"Ġpo":710,"Ġother":711,"Ġph":712,"Ġdid":713,"ĠgroÃŁ":714,"Ġbeg":715,"stem":716,"ische":717,"Ġzwe":718,"Ġfir":719,"Ġcl":720,"lichen":721,"rei":722,"cht":723,"Ġany":724,"Ġeinf":725,"Ġgan":726,"Ġwirk":727,"Ġart":728,"ult":729,"Ã¤r":730,"Ġlo":731,"Ġtechn":732,"ug":733,"Ġzum":734,"form":735,"lie":736,"che":737,"Ġpart":738,"ple":739,"Ġright":740,"Ġgot":741,"ical":742,"Ġmake":743,"liche":744,"Ġbeen":745,"Ġzeit":746,"Ġhapp":747,"ph":748,"ak":749,"Ġdiff":750,"hn":751,"Ġnat":752,"Ġmill":753,"Ġwell":754,"ĠwÃ¼r":755,"Ġmeine":756,"Ã¼s":757,"inge":758,"ĠfÃ¼":759,"Ġweil":760,"ac":761,"Ġwirklich":762,"Ġunser":763,"Ġproblem":764,"Ġpers":765,"ace":766,"Ġbu":767,"Ġneed":768,"Ġover":769,"Ġsaid":770,"rie":771,"ry":772,"ile":773,"wer":774,"Ġshe":775,"Ġfind":776,"Ġsomething":777,"Ġmachen":778,"chte":779,"Ġwurde":780,"Ġspe":781,"Ġtwo":782,"Ġdieses":783,"pr":784,"Ã¤hr":785,"ice":786,"Ġfirst":787,"Ġeinfach":788,"mt":789,"fÃ¼":790,"ree":791,"Ġback":792,"ory":793,"Ġvers":794,"Ġtun":795,"fl":796,"ond":797,"assen":798,"Ġthose":799,"ommen":800,"gt":801,"ient":802,"Ġres":803,"iter":804,"able":805,"Ġpre":806,"Ġmar":807,"Ġimmer":808,"Ġlie":809,"stell":810,"Ġverb":811,"Ġdam":812,"ges":813,"ger":814,"ungs":815,"Ġnun":816,"Ġdis":817,"ange":818,"Ġmuch":819,"Ġimp":820,"Ġkle":821,"ount":822,"Ġcall":823,"inn":824,"bst":825,"Ġdr":826,"000":827,"Ġthan":828,"iver":829,"Ġlitt":830,"Ġjetzt":831,"Ġunsere":832,"elt":833,"Ġ3":834,"Ġad":835,"aten":836,"Ġlittle":837,"Ġho":838,"own":839,"Ġbis":840,"Ġstud":841,"Ġgew":842,"ys":843,"ome":844,"Ġlot":845,"?\"":846,"Ġstar":847,"ingen":848,"bl":849,"ations":850,"Ġarbeit":851,"Ġhand":852,"ffen":853,"cent":854,"Ġmost":855,"Ġac":856,"Ġgem":857,"Ġreal":858,"hmen":859,"Ġger":860,"Ġhin":861,"way":862,"Ġtechnolog":863,"Ġgut":864,"Ġtalk":865,"erst":866,"Ġsystem":867,"ves":868,"Ġkl":869,"iger":870,"Ġhatte":871,"ats":872,"Ġlife":873,"Ġem":874,"Ġkeine":875,"eln":876,"Ġdenn":877,"iÃŁ":878,"vel":879,"Ġviele":880,"ĠmÃ¼s":881,"Ġdu":882,"Ġonly":883,"ase":884,"gan":885,"Ġeven":886,"ody":887,"Ġselbst":888,"erg":889,"ving":890,"Ġhum":891,"nte":892,"Ġhis":893,"Ġleute":894,"leich":895,"ition":896,"Ġgeb":897,"hlen":898,"Ġreg":899,"glich":900,"ath":901,"ale":902,"Ġzus":903,"schie":904,"als":905,"Ġsagen":906,"Ġhel":907,"Ġtake":908,"red":909,"ated":910,"Ġpol":911,"Ġgra":912,"Ġday":913,"Ġland":914,"ktion":915,"Ġsoll":916,"Ġmal":917,"Ġdiesem":918,"ely":919,"tern":920,"gr":921,"ance":922,"Ġmany":923,"Ġperson":924,"Ġgood":925,"uchen":926,"Ġcont":927,"bar":928,"Ġbef":929,"ood":930,"Ġgel":931,"Ġzwei":932,"Ġdiesen":933,"Ġthr":934,"Ġwieder":935,"Ġdinge":936,"Ġlet":937,"Ġeines":938,"Ġpass":939,"ĠmÃ¼ssen":940,"Ġdoes":941,"Ġmon":942,"Ġbin":943,"Ġwaren":944,"uen":945,"ents":946,"erent":947,"Ġ19":948,"Ġgeh":949,"Ġele":950,"Ġalles":951,"Ġsagte":952,"Ġdifferent":953,"Ġprodu":954,"aut":955,"igkeit":956,"Ġsol":957,"Ġstr":958,"ok":959,"ish":960,"wn":961,"Ġmed":962,"Ġjahren":963,"Ġfre":964,"Ġentw":965,"Ġir":966,"int":967,"Ġteil":968,"oll":969,"ord":970,"unden":971,"Ġkein":972,"Ġput":973,"Ġglau":974,"Ġandere":975,"auf":976,"Ġdown":977,"ser":978,"ichte":979,"Ġdesign":980,"Ġnie":981,"Ġthrough":982,"gend":983,"get":984,"Ġexper":985,"Ġ20":986,"Ġaround":987,"other":988,"gl":989,"br":990,"xt":991,"Ġpar":992,"ict":993,"Ġsm":994,"acht":995,"Ġbest":996,"Ġdamit":997,"Ġbek":998,"ammen":999,"Ġmay":1000,"Ġmillion":1001,"ty":1002,"Ġanderen":1003,"Ġfun":1004,"Ġschw":1005,"Ġshow":1006,"ution":1007,"Ġbo":1008,"Ġcar":1009,"ram":1010,"act":1011,"Ġok":1012,"urn":1013,"'ll":1014,"Ġ5":1015,"ors":1016,"ichtig":1017,"cess":1018,"ahre":1019,"itÃ¤t":1020,"ÃŁen":1021,"ĠwÃ¼rde":1022,"day":1023,"Ġaut":1024,"Ġwhy":1025,"Ġerf":1026,"lleicht":1027,"Ġheraus":1028,"Ġtell":1029,"Ġoff":1030,"Ġbeing":1031,"Ġvielleicht":1032,"Ġzusammen":1033,"ible":1034,"Ġ10":1035,"net":1036,"pe":1037,"ner":1038,"Ġinv":1039,"Ġcomm":1040,"auen":1041,"ience":1042,"ought":1043,"ri":1044,"ha":1045,"vor":1046,"Ġplan":1047,"Ġhal":1048,"Ġfam":1049,"tel":1050,"Ġuse":1051,"Ġins":1052,"Ġben":1053,"ren":1054,"Ġwen":1055,"igh":1056,"Ġgreat":1057,"Ġcome":1058,"Ġinform":1059,"Ġbig":1060,"Ġinc":1061,"Ġapp":1062,"Ġsame":1063,"Ġtats":1064,"Ġbas":1065,"ious":1066,"Ġmin":1067,"ons":1068,"Ġmet":1069,"ary":1070,"Ġtry":1071,"igt":1072,"Ġhappen":1073,"Ġnor":1074,"Ġgeht":1075,"Ġgu":1076,"Ġsim":1077,"Ġpu":1078,"Ġjahre":1079,"Ġpos":1080,"iss":1081,"Ġlang":1082,"ces":1083,"Ġpa":1084,"ject":1085,"Ġamer":1086,"Ġpat":1087,"Ġzw":1088,"Ġtrans":1089,"Ġmom":1090,"isten":1091,"Ġbit":1092,"Ġfact":1093,"Ġschl":1094,"Ġthree":1095,"ian":1096,"Ġstart":1097,"oc":1098,"ful":1099,"ower":1100,"Ġdoing":1101,"king":1102,"Ġend":1103,"Ġcount":1104,"geb":1105,"Ġ4":1106,"ction":1107,"ĠzurÃ¼ck":1108,"Ġstat":1109,"Ġwahr":1110,"Ġgleich":1111,"Ġrel":1112,"nis":1113,"Ġhuman":1114,"Ġdav":1115,"ss":1116,"Ġkam":1117,"Ġja":1118,"Ġweiter":1119,"Ġmuss":1120,"Ġbi":1121,"Ġsur":1122,"ric":1123,"tra":1124,"Ġenerg":1125,"ically":1126,"Ġcomput":1127,"ual":1128,"halten":1129,"Ġuniver":1130,"Ġdec":1131,"tz":1132,"Ġentwick":1133,"Ġoh":1134,"arn":1135,"Ġschon":1136,"Ġagain":1137,"Ġsec":1138,"Ġgrund":1139,"Ġfamil":1140,"ism":1141,"Ġheute":1142,"Ġganz":1143,"utz":1144,"old":1145,"Ġklein":1146,"Ġfin":1147,"Ġthank":1148,"Ġwel":1149,"ting":1150,"ep":1151,"Ġel":1152,"ved":1153,"Ġgef":1154,"ade":1155,"ire":1156,"Ġchild":1157,"ize":1158,"Ã¼n":1159,"Ã¤chlich":1160,"Ã¤re":1161,"Ġpercent":1162,"tet":1163,"uss":1164,"zent":1165,"thing":1166,"body":1167,"Ġinformation":1168,"Ġeinz":1169,"Ġinst":1170,"Ġko":1171,"ĠmÃ¶chte":1172,"ellen":1173,"Ġcalled":1174,"Ġgenau":1175,"isp":1176,"Ġbuild":1177,"Ġrem":1178,"'d":1179,"Ġkr":1180,"Ġdoll":1181,"Ã¶ÃŁ":1182,"self":1183,"Ã¤u":1184,"ĠÃ¶":1185,"Ġgegen":1186,"pro":1187,"Ġlong":1188,"bt":1189,"Ġhim":1190,"Ġafter":1191,"omen":1192,"Ġdollar":1193,"Ġtoday":1194,"iden":1195,"Ġorgan":1196,"ler":1197,"Ġform":1198,"Ġeinige":1199,"Ġtag":1200,"nten":1201,"ics":1202,"ks":1203,"Ġbere":1204,"ucht":1205,"Ġmacht":1206,"teil":1207,"esen":1208,"Ġmade":1209,"ating":1210,"Ġwr":1211,"ĠtatsÃ¤chlich":1212,"Ġbild":1213,"Ġquest":1214,"Ġear":1215,"essen":1216,"Ġown":1217,"Ġsoc":1218,"kl":1219,"ffe":1220,"Ġshould":1221,"Ġbeisp":1222,"..":1223,"Ġimport":1224,"Ã¤h":1225,"Ġdavon":1226,"Ġfar":1227,"its":1228,"ĠmÃ¶glich":1229,"Ġwarum":1230,"entlich":1231,"Ġjem":1232,"pen":1233,"Ġletz":1234,"Ġkinder":1235,"Ġlast":1236,"Ġlearn":1237,"hren":1238,"tell":1239,"Ġdan":1240,"Ġfall":1241,"con":1242,"je":1243,"ts":1244,"angen":1245,"ahl":1246,"ities":1247,"Ġverw":1248,"Ġdrei":1249,"Ġdort":1250,"iten":1251,"Ġplay":1252,"Ġbewe":1253,"Ġdenken":1254,"Ġbede":1255,"ven":1256,"sy":1257,"Ġturn":1258,"Ġmean":1259,"ool":1260,"Ġunderst":1261,"sche":1262,"inden":1263,"Ġcour":1264,"Ġeigen":1265,"ierte":1266,"Ġspiel":1267,"Ġzie":1268,"Ġhatten":1269,"Ġanother":1270,"ational":1271,"Ġbrain":1272,"zie":1273,"Ġthought":1274,"Ġdidn":1275,"Ġchange":1276,"ĠnatÃ¼r":1277,"Ġmoment":1278,"Ġla":1279,"Ġpaar":1280,"Ġsit":1281,"chten":1282,"ĠverÃ¤nd":1283,"Ġgener":1284,"Ġidea":1285,"les":1286,"Ġfeel":1287,"ings":1288,"wh":1289,"Ġihn":1290,"bs":1291,"Ġimportant":1292,"ĠgrÃ¶ÃŁ":1293,"Ġbelie":1294,"Ġsl":1295,"halb":1296,"Ġter":1297,"Ġweg":1298,"Ġstill":1299,"Ġcreat":1300,"uten":1301,"ular":1302,"Ġverl":1303,"Ġgeschichte":1304,"Ġnum":1305,"ope":1306,"ĠweiÃŁ":1307,"ĠdarÃ¼ber":1308,"Ġgehen":1309,"mlich":1310,"rechen":1311,"Ġwollen":1312,"ix":1313,"Ġask":1314,"ĠkÃ¶nnte":1315,"Ġits":1316,"Ġbesch":1317,"Ġsond":1318,"Ġverste":1319,"gar":1320,"Ġstarted":1321,"gel":1322,"atz":1323,"Ġbefore":1324,"alt":1325,"Ġrec":1326,"Ġexam":1327,"Ġsk":1328,"Ġmor":1329,"ichten":1330,"no":1331,"Ġgive":1332,"Ġser":1333,"Ġmeiner":1334,"Ġbeh":1335,"Ġstand":1336,"Ã¤d":1337,"ork":1338,"Ġans":1339,"Ġwent":1340,"Ġimag":1341,"Ġbeispiel":1342,"weise":1343,"ids":1344,"Ġwerde":1345,"Ġ200":1346,"ock":1347,"sum":1348,"io":1349,"Ġwoll":1350,"Ġnever":1351,"az":1352,"pf":1353,"Ġschool":1354,"Ġplanet":1355,"ility":1356,"Ġerst":1357,"Ġjeder":1358,"oren":1359,"ma":1360,"ache":1361,"Ġber":1362,"irn":1363,"Ġunderstand":1364,"Ġcourse":1365,"Ġfound":1366,"str":1367,"Ġstory":1368,"Ġpower":1369,"Ġchin":1370,"reich":1371,"Ġlassen":1372,"Ġable":1373,"ps":1374,"Ġseine":1375,"Ġsondern":1376,"kte":1377,"Ġcent":1378,"Ġpoint":1379,"Ġtre":1380,"Ġbess":1381,"Ġhigh":1382,"Ġerz":1383,"bei":1384,"ennen":1385,"Ġbetter":1386,"Ġmight":1387,"Ġschn":1388,"Ġvielen":1389,"Ġbot":1390,"Ġwurden":1391,"Ġsort":1392,"Ġpolit":1393,"olution":1394,"Ġihren":1395,"Ġmag":1396,"ital":1397,"ĠwÃ¤hr":1398,"Ġcomputer":1399,"Ġfu":1400,"ied":1401,"Ġnext":1402,"ider":1403,"Ġfil":1404,"Ġdazu":1405,"gram":1406,"Ġbill":1407,"bo":1408,"Ġsicher":1409,"Ġinteress":1410,"utzen":1411,"ists":1412,"gef":1413,"Ġgab":1414,"nehmen":1415,"Ġdat":1416,"schieden":1417,"schein":1418,"kommen":1419,"ĠnatÃ¼rlich":1420,"ĠwÃ¤re":1421,"stand":1422,"fÃ¼r":1423,"Ġwichtig":1424,"anz":1425,"Ġfunktion":1426,"Ġbus":1427,"Ġexp":1428,"Ġvis":1429,"ogra":1430,"kes":1431,"Ġjemand":1432,"yp":1433,"Ġeach":1434,"att":1435,"Ġago":1436,"Ġhund":1437,"Ġglob":1438,"land":1439,"ĠwÃ¤hrend":1440,"Ġtoget":1441,"Ġcr":1442,"Ġtogether":1443,"Ġkommen":1444,"schen":1445,"Ġeff":1446,"Ġstu":1447,"agen":1448,"Ġunserer":1449,"Ġsen":1450,"cken":1451,"Ġdoch":1452,",\"":1453,"Ġsecond":1454,"ward":1455,"ds":1456,"Ġcame":1457,"Ġpubl":1458,"amm":1459,"ander":1460,"stellen":1461,"ather":1462,"ont":1463,"Ġvom":1464,"Ġhelp":1465,"co":1466,"Ġ6":1467,"ins":1468,"Ġsogar":1469,"iven":1470,"Ġspec":1471,"Ġdenke":1472,"Ġnam":1473,"ĠÃ¤":1474,"ĠhÃ¤t":1475,"velop":1476,"Ġirgend":1477,"Ġneue":1478,"Ġcommun":1479,"Ġnumber":1480,"Ġplace":1481,"Ġlebens":1482,"Ġfrage":1483,"Ġzwischen":1484,"ues":1485,"cted":1486,"ĠnÃ¤ch":1487,"Ġersten":1488,"Ġted":1489,"Ġwater":1490,"Ġfour":1491,"Ã¼nd":1492,"ative":1493,"ster":1494,"Ġfew":1495,"Ġeinmal":1496,"Ġnatur":1497,"ween":1498,"Ġfinden":1499,"Ġcomple":1500,"Ġtechnology":1501,"ited":1502,"Ġphys":1503,"Ġgeben":1504,"Ġexpl":1505,"Ġokay":1506,"Ġdevelop":1507,"Ġnichts":1508,"Ġgerade":1509,"ehen":1510,"rik":1511,"Ġgemacht":1512,"iness":1513,"Ġfol":1514,"Ġdenen":1515,"Ġused":1516,"Ġohne":1517,"alth":1518,"Ġstra":1519,"imm":1520,"Ġglaube":1521,"Ġkur":1522,"read":1523,"Ġvide":1524,"Ġbetween":1525,"mit":1526,"Ġmat":1527,"Ġchar":1528,"Ġ'":1529,"Ġkommt":1530,"ced":1531,"Ġerw":1532,"arbeit":1533,"Ġihrer":1534,"Ġbro":1535,"ures":1536,"erung":1537,"arch":1538,"ized":1539,"Ġabs":1540,"Ġweit":1541,"Ġinterest":1542,"ways":1543,"Ġquestion":1544,"Ġdra":1545,"anted":1546,"ĠerzÃ¤":1547,"Ġsmall":1548,"Ġletzten":1549,"achen":1550,"geben":1551,"ĠdafÃ¼r":1552,"wir":1553,"Ġmater":1554,"Ġlooking":1555,"ms":1556,"Ġdone":1557,"hrt":1558,"Ġpatient":1559,"Ġtoo":1560,"els":1561,"Ġwissenschaft":1562,"Ġold":1563,"Ġ15":1564,"Ġjo":1565,"Ġdata":1566,"Ġeng":1567,"ĠlÃ¶":1568,"ierung":1569,"Ġdoesn":1570,"Ġ30":1571,"Ġscha":1572,"Ġinternet":1573,"ium":1574,"Ġstru":1575,"Ġlar":1576,"Ġmaybe":1577,"aufen":1578,"Ġexample":1579,"Ġlive":1580,"ĠwÃ¼rden":1581,"Ġameric":1582,"Ġgehirn":1583,"Ġeig":1584,"Ġlove":1585,"ave":1586,"Ġ50":1587,"Ġcre":1588,"Ġgemein":1589,"Ġson":1590,"Ġje":1591,"Ġzeigen":1592,"Ġrun":1593,"man":1594,"ember":1595,"ific":1596,"gs":1597,"Ġdach":1598,"Ã¤s":1599,"Ġdre":1600,"ationen":1601,"Ġcap":1602,"cy":1603,"Ġstre":1604,"Ġprozent":1605,"Ġwhole":1606,"zeit":1607,"rat":1608,"dem":1609,"Ġbring":1610,"Ã¶rt":1611,"Ġsuch":1612,"Ġpassiert":1613,"Ġpartic":1614,"Ġlight":1615,"Ġ100":1616,"ail":1617,"Ġsieht":1618,"Ġverstehen":1619,"Ġ9":1620,"Ġcor":1621,"Ġmind":1622,"los":1623,"Ġverschieden":1624,"led":1625,"gest":1626,"ably":1627,"vers":1628,"dr":1629,"mo":1630,"Ġhaus":1631,"Ġdaran":1632,"Ġstellen":1633,"Ġgrow":1634,"Ġdire":1635,"Ġged":1636,"Ġmark":1637,"Ġander":1638,"ement":1639,"fer":1640,"Ġrest":1641,"oney":1642,"Ġkonnte":1643,"Ġwasser":1644,"Ġchildren":1645,"unkt":1646,"Ġwomen":1647,"Ġwanted":1648,"gew":1649,"cept":1650,"Ġcell":1651,"Ġerste":1652,"Ġ8":1653,"Ġganze":1654,"Ġur":1655,"Ġvier":1656,"the":1657,"Ġprof":1658,"Ġprob":1659,"Ġglobal":1660,"Ã¶ren":1661,"Ġposs":1662,"Ġfast":1663,"Ġbegin":1664,"Ġjob":1665,"off":1666,"Ġfrauen":1667,"Ġschnell":1668,"cher":1669,"enden":1670,"Ġmillionen":1671,"tre":1672,"ule":1673,"conom":1674,"Ġanim":1675,"Ġ7":1676,"Ġalways":1677,"Ġvir":1678,"ters":1679,"Ġprogram":1680,"Ġmil":1681,"tro":1682,"Ġcare":1683,"Ġspra":1684,"Ġcolle":1685,"Ġetwa":1686,"Ġread":1687,"immt":1688,"selves":1689,"eter":1690,"tschaft":1691,"Ġanf":1692,"Ġmut":1693,"Ġless":1694,"Ġchang":1695,"Ġ[":1696,"allen":1697,"Ġproject":1698,"Ġidee":1699,"Ġeconom":1700,"Ġtrying":1701,"Ġgeld":1702,"Ġmod":1703,"Ġbesser":1704,"Ġwa":1705,"Ġdank":1706,"Ġbed":1707,"Ġnehmen":1708,"Ġtimes":1709,"Ġworking":1710,"Ġreas":1711,"Ġsupp":1712,"ahren":1713,"fin":1714,"Ġfive":1715,"ĠgroÃŁe":1716,"Ġcou":1717,"etzen":1718,"sam":1719,"Ġgar":1720,"Ġang":1721,"Ġaway":1722,"Ġsollten":1723,"ĠglÃ¼ck":1724,"ften":1725,"Ġdaten":1726,"aub":1727,"Ġdabei":1728,"Ġsing":1729,"Ġhealth":1730,"jekt":1731,"enten":1732,"Ġeverything":1733,"Ġfragen":1734,"Ġbelieve":1735,"Ã¤ng":1736,"Ġbook":1737,"ross":1738,"Ġarbeiten":1739,"Ġacc":1740,"Ġmot":1741,"ention":1742,"Ġkre":1743,"elle":1744,"na":1745,"Ġpict":1746,"Ġset":1747,"ĠkÃ¶nnten":1748,"ness":1749,"Ġsollte":1750,"ppe":1751,"Ġlab":1752,"Ġspace":1753,"gehen":1754,"Ġziemlich":1755,"Ġopen":1756,"Ġafric":1757,"Ġsign":1758,"Ã¼t":1759,"uer":1760,"agt":1761,"ÃŁer":1762,"under":1763,"zeug":1764,"ives":1765,"Ġcountry":1766,"ĠhÃ¶":1767,"Ġmeinen":1768,"ernen":1769,"Ġmeinem":1770,"Ġraum":1771,"ines":1772,"Ġmaterial":1773,"Ġbew":1774,"Ġsprechen":1775,"Ġhard":1776,"Ġcompan":1777,"Ġcam":1778,"Ġmoney":1779,"schl":1780,"Ġexperim":1781,"Ġfut":1782,"schied":1783,"iar":1784,"sh":1785,"Ġkids":1786,"raft":1787,"ĠkÃ¶r":1788,"Ġmeisten":1789,"Ġcity":1790,"Ġmas":1791,"Ġgre":1792,"Ġbre":1793,"stÃ¤nd":1794,"Ġerinn":1795,"ischer":1796,"Ġmeans":1797,"ĠheiÃŁ":1798,"Ġsagt":1799,"Ġsoz":1800,"Ġdarauf":1801,"ief":1802,"Ġresp":1803,"Ġpop":1804,"vir":1805,"par":1806,"Ġbekommen":1807,"Ġarch":1808,"mÃ¶":1809,"Ġhar":1810,"vern":1811,"Ġwollte":1812,"licher":1813,"fr":1814,"uge":1815,"Ġusing":1816,"Ġeigentlich":1817,"isen":1818,"lung":1819,"Ġende":1820,"wie":1821,"Ġthinking":1822,"Ġtook":1823,"Ġpra":1824,"unde":1825,"Ã¤lt":1826,"anken":1827,"ries":1828,"Ġnet":1829,"utet":1830,"Ġenergy":1831,"Ġeur":1832,"Ġna":1833,"Ġlu":1834,"Ġcle":1835,"Ġwalk":1836,"Ġging":1837,"sehen":1838,"Ã¤ren":1839,"Ġhoch":1840,"ates":1841,"Ġhome":1842,"gung":1843,"tt":1844,"Ġricht":1845,"ĠauÃŁer":1846,"Ġbeste":1847,"iend":1848,"kun":1849,"ogen":1850,"atch":1851,"Ġfood":1852,"ivid":1853,"Ġpres":1854,"Ġatt":1855,"legen":1856,"Ġfriend":1857,"Ġfas":1858,"Ġseit":1859,"Ġprocess":1860,"Ã¼h":1861,"Ġinno":1862,"nf":1863,"Ġteach":1864,"Ġwelche":1865,"Ġlos":1866,"Ã¤ndern":1867,"Ġsin":1868,"Ġmust":1869,"Ġweniger":1870,"adt":1871,"Ġhist":1872,"Ġcol":1873,"ktiv":1874,"dern":1875,"Ġinteresting":1876,"fÃ¼hl":1877,"Ġcreate":1878,"Ġair":1879,"Ġverg":1880,"ession":1881,"Ġschle":1882,"Ġleft":1883,"sc":1884,"Ġris":1885,"Ġgovern":1886,"Ġhalf":1887,"scheinlich":1888,"Ġant":1889,"Ġkleinen":1890,"Ġenough":1891,"Ġgetting":1892,"Ġsense":1893,"llt":1894,"Ġfilm":1895,"vie":1896,"rop":1897,"Ġquite":1898,"Ã¤ter":1899,"richt":1900,"Ġneur":1901,"Ġhead":1902,"Ġglauben":1903,"Ġnormal":1904,"Ġbecome":1905,"Ġindivid":1906,"Ġbab":1907,"Ġamerik":1908,"Ġsta":1909,"Ġjeden":1910,"Ġtop":1911,"annt":1912,"\".":1913,"ilt":1914,"Ġrecht":1915,"ruck":1916,"Ġdanke":1917,"Ġbil":1918,"ouse":1919,"Ġunder":1920,"Ġungl":1921,"Ġvideo":1922,"gesch":1923,"fall":1924,"kr":1925,"Ġcur":1926,"reiben":1927,"ograph":1928,"Ġfuture":1929,"fte":1930,"ird":1931,"Ġcomes":1932,"ierten":1933,"kunft":1934,"Ġinnov":1935,"cle":1936,"gh":1937,"Ġstop":1938,"Ġprobably":1939,"nder":1940,"Ġearth":1941,"ald":1942,"Ġversuch":1943,"Ġyork":1944,"Ġbuch":1945,"Ġeben":1946,"ktur":1947,"erne":1948,"Ġbedeutet":1949,"ertain":1950,"Ġelect":1951,"Ġsache":1952,"Ã¤ft":1953,"Ġenergie":1954,"Ġconne":1955,"ĠnÃ¤":1956,"Ġentsche":1957,"rum":1958,"Ġgest":1959,"iting":1960,"Ġgrou":1961,"Ġscience":1962,"ware":1963,"Ġtest":1964,"ĠgroÃŁen":1965,"ĠfÃ¼nf":1966,"ĠmÃ¶glichkeit":1967,"ga":1968,"Ġarm":1969,"Ġbusiness":1970,"Ġchina":1971,"Ġrob":1972,"sych":1973,"ories":1974,"row":1975,"Ġsocial":1976,"Ġlernen":1977,"Ġroom":1978,"ever":1979,"Ġwunder":1980,"Ġid":1981,"Ġpie":1982,"Ġtalking":1983,"ĠschÃ¶n":1984,"ennt":1985,"Ġrad":1986,"Ġbiolog":1987,"cer":1988,"Ġunseren":1989,"Ġface":1990,"Ġmath":1991,"Ġganzen":1992,"Ġinvest":1993,"Ġunivers":1994,"ulation":1995,"Ġtechnologie":1996,"Ġhappened":1997,"nah":1998,"Ġantw":1999,"Ġche":2000,"Ġbrauchen":2001,"Ġstuff":2002,"usst":2003,"Ġjedes":2004,"Ġindust":2005,"Ġ...":2006,"Ġwithout":2007,"Ġchr":2008,"Ġmaking":2009,"cke":2010,"hlt":2011,"Ġsw":2012,"Ġprote":2013,"Ġbuilding":2014,"ments":2015,"Ġphot":2016,"iere":2017,"ĠÃ¶ff":2018,"Ġcontro":2019,"Ġoffen":2020,"Ġmonth":2021,"Ġwahrscheinlich":2022,"port":2023,"Ġbringen":2024,"Ġkleine":2025,"ets":2026,"aces":2027,"viron":2028,"Ġgesehen":2029,"line":2030,"Ã¤us":2031,"Ġihm":2032,"Ġteam":2033,"Ġamaz":2034,"Ġvoll":2035,"inen":2036,"Ġihrem":2037,"duc":2038,"Ġpret":2039,"Ġdachte":2040,"ultur":2041,"Ġdollars":2042,"Ġmann":2043,"Ġbody":2044,"Ġenviron":2045,"ior":2046,"zt":2047,"Ġengl":2048,"Ġpretty":2049,"ying":2050,"Ġeas":2051,"Ġru":2052,"Ġsub":2053,"Ġkomple":2054,"Ġbetra":2055,"halt":2056,"Ġkeep":2057,"Ġsym":2058,"alen":2059,"Ġweise":2060,"ĠkÃ¶rper":2061,"fort":2062,"kten":2063,"Ġfig":2064,"Ġwonder":2065,"Ġabsol":2066,"Ġanything":2067,"Ġyoun":2068,"Ġafrik":2069,"ift":2070,"Ġpsych":2071,"cture":2072,"Ġsound":2073,"Ġeins":2074,"Ġ18":2075,"ĠÃ¼":2076,"Ġbad":2077,"ime":2078,"Ġwee":2079,"ices":2080,"Ġseite":2081,"ially":2082,"Ġelse":2083,"Ġside":2084,"Ġunterschied":2085,"Ġwes":2086,"Ġversuchen":2087,"Ġfal":2088,"ged":2089,"Ġopp":2090,"Ġbeaut":2091,"ionen":2092,"ĠmÃ¤n":2093,"Ġret":2094,"ane":2095,"Ġtyp":2096,"Ġwind":2097,"ately":2098,"Ġversch":2099,"Ã¤nder":2100,"\",":2101,"Ġsex":2102,"Ġseem":2103,"achsen":2104,"Ġfest":2105,"Ġval":2106,"Ġbesond":2107,"ches":2108,"Ġpap":2109,"Ġcoming":2110,"Ġwenig":2111,"lly":2112,"Ġbeim":2113,"Ã¤um":2114,"Ġreason":2115,"Ġfort":2116,"ning":2117,"Ġkop":2118,"iges":2119,"Ġhinter":2120,"hin":2121,"ister":2122,"Ġgru":2123,"eten":2124,"Ġbar":2125,"Ġzukunft":2126,"ckt":2127,"Ġfrau":2128,"Ġverk":2129,"iff":2130,"urs":2131,"Ġ40":2132,"Ġtold":2133,"Ġass":2134,"dition":2135,"Ġallow":2136,"ĠspÃ¤ter":2137,"Ġgesagt":2138,"Ġsix":2139,"Ġvo":2140,"Ġhope":2141,"uring":2142,"Ġgesund":2143,"och":2144,"itive":2145,"Ġlives":2146,"Ġchem":2147,"Ġimagine":2148,"quen":2149,"Ġmiss":2150,"Ġhil":2151,"Ġmenge":2152,"Ġsimple":2153,"Ġmid":2154,"Ġkar":2155,"where":2156,"Ġonce":2157,"Ġ12":2158,"Ġsays":2159,"Ġkeinen":2160,"Ġnutzen":2161,"Ġstadt":2162,"Ġcountries":2163,"Ġproblems":2164,"Ġacross":2165,"leben":2166,"ernt":2167,"oh":2168,"Ġgesell":2169,"Ġbasically":2170,"Ġwirtschaft":2171,"Ġint":2172,"Ġgoes":2173,"Ġred":2174,"lieÃŁ":2175,"Ġterr":2176,"Ġunglaub":2177,"Ġscient":2178,"Ġdig":2179,"Ġessen":2180,"ĠhÃ¤tte":2181,"Ġmakes":2182,"Ġafrica":2183,"Ġlater":2184,"tem":2185,"erence":2186,"Ġindem":2187,"Ġmusik":2188,"Ġble":2189,"unter":2190,"Ġremember":2191,"irl":2192,"wohl":2193,"Ġprin":2194,"Ġseen":2195,"schaften":2196,"Ġsocie":2197,"Ġeduc":2198,"anc":2199,"Ġfund":2200,"esearch":2201,"Ġsuper":2202,"ismus":2203,"Ġsitu":2204,"Ġlevel":2205,"Ġmove":2206,"cl":2207,"Ġresearch":2208,"Ġhour":2209,"Ġoft":2210,"anden":2211,"Ġpicture":2212,"ĠheiÃŁt":2213,"Ġenvironment":2214,"ether":2215,"cover":2216,"Ġtem":2217,"Ġey":2218,"denken":2219,"Ġliving":2220,"Ġextre":2221,"Ġkurz":2222,"Ġrev":2223,"Ġhappens":2224,"Ġexperience":2225,"Ġyet":2226,"ousand":2227,"Ġmusic":2228,"most":2229,"Ġaugen":2230,"Ġopt":2231,"Ġparticular":2232,"ho":2233,"Ġgute":2234,"Ġjede":2235,"Ã¼tz":2236,"ily":2237,"Ġlink":2238,"Ġtrain":2239,"itten":2240,"ulture":2241,"Ġlea":2242,"Ġsaw":2243,"ppen":2244,"ots":2245,"einander":2246,"tellt":2247,"Ġhaving":2248,"Ġexist":2249,"rieben":2250,"Ġthousand":2251,"Ġasked":2252,"Ġeffect":2253,"ator":2254,"Ġunt":2255,"Ġcase":2256,"imes":2257,"stellung":2258,"Ġlicht":2259,"Ġarchite":2260,"ided":2261,"Ġanders":2262,"Ġtro":2263,"aps":2264,"Ġmilliar":2265,"Ġerfol":2266,"Ġentde":2267,"Ġlangu":2268,"Ġways":2269,"Ġyoung":2270,"Ġrelig":2271,"Ã¤higkeit":2272,"Ġort":2273,"Ġeigenen":2274,"Ġfunktioniert":2275,"ization":2276,"Ġident":2277,"Ġwhile":2278,"Ġleg":2279,"Ġfamily":2280,"ality":2281,"Ġkonnten":2282,"Ġschaffen":2283,"nung":2284,"Ġresult":2285,"Ġsou":2286,"Ġeing":2287,"Ġoper":2288,"Ġsor":2289,"emat":2290,"ente":2291,"Ġaller":2292,"orn":2293,"Ġline":2294,"Ġwhether":2295,"Ġbillion":2296,"Ġwohl":2297,"Ġperfe":2298,"gefÃ¤hr":2299,"Ġcomplete":2300,"ala":2301,"Ġcertain":2302,"Ġrichtig":2303,"was":2304,"Ġfot":2305,"Ġshare":2306,"Ġdays":2307,"Ġinside":2308,"mun":2309,"ants":2310,"Ġanswer":2311,"Ġself":2312,"Ġsah":2313,"Ġdefin":2314,"Ġ25":2315,"Ġequ":2316,"Ġcal":2317,"Ġallen":2318,"Ġsingle":2319,"sicht":2320,"Ġkrie":2321,"Ġalmost":2322,"oss":2323,"up":2324,"Ã¤l":2325,"Ġinstit":2326,"Ġwatch":2327,"Ġsure":2328,"Ġmutter":2329,"Ã¤m":2330,"Ã¶l":2331,"reichen":2332,"ape":2333,"Ġnothing":2334,"Ġhear":2335,"Ġherz":2336,"ready":2337,"ĠungefÃ¤hr":2338,"iving":2339,"Ġdel":2340,"Ġerkl":2341,"zeich":2342,"Ġtot":2343,"Ġstates":2344,"dle":2345,"welt":2346,"Ġschwier":2347,"Ġboth":2348,"hrer":2349,"ident":2350,"ron":2351,"zahl":2352,"Ġmass":2353,"Ġeverybody":2354,"oot":2355,"erein":2356,"Ġschauen":2357,"Ġsaying":2358,"ene":2359,"Ġinsp":2360,"ton":2361,"Ġpriv":2362,"Ġspielen":2363,"Ġbel":2364,"Ġstim":2365,"Ġalready":2366,"Ġname":2367,"Ġerde":2368,"Ġsuc":2369,"Ġemot":2370,"Ġpublic":2371,"af":2372,"Ġgirl":2373,"Ġpossible":2374,"Ġschwer":2375,"Ġprobleme":2376,"Ġevolution":2377,"Ġideas":2378,"uf":2379,"Ġwithin":2380,"Ġseiner":2381,"Ġeg":2382,"stru":2383,"Ġverd":2384,"ub":2385,"Ġpain":2386,"Ġdiscover":2387,"Ġsat":2388,"Ġgesundheit":2389,"ark":2390,"ĠerzÃ¤hlen":2391,"Ġextra":2392,"Ġklar":2393,"ritt":2394,"gang":2395,"so":2396,"Ġflie":2397,"Ġdev":2398,"Ġbevor":2399,"Ġloc":2400,"Ġguy":2401,"Ġmathemat":2402,"Ġvar":2403,"Ġcost":2404,"ĠnÃ¤chsten":2405,"Ġexperiment":2406,"Ġwom":2407,"Ġref":2408,"isches":2409,"Ġnational":2410,"Ġwrong":2411,"Ġmole":2412,"Ġgenug":2413,"hip":2414,"bra":2415,"ury":2416,"Ġexact":2417,"ament":2418,"min":2419,"Ġyes":2420,"ateg":2421,"Ġhelfen":2422,"Ã¼nst":2423,"mittel":2424,"akt":2425,"Ġneuen":2426,"Ġspeak":2427,"hol":2428,"li":2429,"Ġbisschen":2430,"Ġalt":2431,"Ġherum":2432,"Ġlooked":2433,"Ġincred":2434,"utes":2435,"Ġunserem":2436,"Ġsei":2437,"Ġdarum":2438,"Ġerl":2439,"Ġelekt":2440,"unst":2441,"Ġintell":2442,"Ġtw":2443,"Ġlange":2444,"Ġschul":2445,"Ġtele":2446,"Ġintern":2447,"Ġtreat":2448,"Ġsech":2449,"Ġneu":2450,"Ġbegan":2451,"Ġcontin":2452,"Ġhundred":2453,"Ġmem":2454,"Ġheart":2455,"Ġsomeone":2456,"Ġmarket":2457,"Ġpot":2458,"Ġkennen":2459,"Ġliebe":2460,"Ġinner":2461,"Ġkne":2462,"Ġoften":2463,"ogn":2464,"Ġtrue":2465,"Ġhistory":2466,"Ġfrag":2467,"Ġproduct":2468,"Ġwicht":2469,"Ġcontrol":2470,"zus":2471,"Ġkill":2472,"Ġamazing":2473,"Ġdich":2474,"chmal":2475,"Ġmess":2476,"lichkeit":2477,"Ġdise":2478,"Ġorder":2479,"Ġage":2480,"Ġanal":2481,"Ġadv":2482,"Ġhau":2483,"Ġmatter":2484,"Ġbeha":2485,"Ġmyself":2486,"com":2487,"Ġbauen":2488,"Ġmanchmal":2489,"Ġfront":2490,"unch":2491,"Ġlooks":2492,"Ġcommunity":2493,"spr":2494,"side":2495,"yn":2496,"stra":2497,"Ġfing":2498,"Ġmic":2499,"Ġkunst":2500,"Ġbeginn":2501,"Ġeinzel":2502,"Ġprojekt":2503,"Ġdna":2504,"Ġwin":2505,"Ġnein":2506,"Ġheard":2507,"Ġwords":2508,"Ġbeautif":2509,"Ġwus":2510,"Ġiss":2511,"ahrung":2512,"Ġaud":2513,"osed":2514,"Ġbegann":2515,"Ġorganis":2516,"ĠkÃ¼":2517,"Ġunternehmen":2518,"gangen":2519,"Ġzeigt":2520,"Ġsens":2521,"Ġcond":2522,"esten":2523,"Ġchallen":2524,"Ġrevolution":2525,"vo":2526,"ield":2527,"Ġmode":2528,"ĠÃ¼berall":2529,"Ġnah":2530,"Ġerk":2531,"Ġbau":2532,"Ġkrank":2533,"stead":2534,"Ġed":2535,"Ġjun":2536,"Ġexc":2537,"Ġeuch":2538,"eah":2539,"Ġsometimes":2540,"Ġideen":2541,"Ġlaw":2542,"Ġgesellschaft":2543,"ases":2544,"ivity":2545,"Ġtradition":2546,"Ġern":2547,"Ġusa":2548,"Ġreden":2549,"liches":2550,"Ġhy":2551,"Ġnu":2552,"Ġinstead":2553,"Ã¶t":2554,"Ġleuten":2555,"Ġarg":2556,"Ġlanguage":2557,"Ġcancer":2558,"Ġgroup":2559,"Ġunited":2560,"Ġrich":2561,"ĠâĢĶ":2562,"Ġniem":2563,"Ġnature":2564,"met":2565,"ages":2566,"ĠsÃ¼":2567,"Ġcra":2568,"Ġcouple":2569,"Ġgovernment":2570,"less":2571,"Ġnight":2572,"imate":2573,"Ġinformationen":2574,"Ġcells":2575,"zess":2576,"Ġuniverse":2577,"Ġliter":2578,"Ġcons":2579,"heiten":2580,"Ġhouse":2581,"ash":2582,"vious":2583,"itz":2584,"Ġisn":2585,"ystem":2586,"Ġsoft":2587,"Ġwert":2588,"Ġstehen":2589,"Ġbuilt":2590,"ĠgroÃŁart":2591,"Ġsince":2592,"era":2593,"kennen":2594,"Ã¤dchen":2595,"finden":2596,"Ġliegt":2597,"Ġmodel":2598,"Ġerfolg":2599,"Ġclass":2600,"Ġstatt":2601,"Ġpiece":2602,"ielt":2603,"Ġinteres":2604,"ĠfÃ¤higkeit":2605,"Ġfigure":2606,"Ġuntil":2607,"wor":2608,"Ġentire":2609,"forder":2610,"ugen":2611,"Ġhol":2612,"ones":2613,"ÃŁe":2614,"Ġkontro":2615,"Ġmonths":2616,"ret":2617,"Ġverhalten":2618,"Ġries":2619,"Ġmilliarden":2620,"Ġfrei":2621,"Ġpunkt":2622,"Ġspend":2623,"Ġbeautiful":2624,"Ġpay":2625,"Ġgesam":2626,"Ġmiddle":2627,"Ġdau":2628,"thers":2629,"Ġhor":2630,"Ġword":2631,"Ġdep":2632,"Ġsomebody":2633,"ired":2634,"Ġfoll":2635,"Ġdir":2636,"Ã¤che":2637,"Ġengine":2638,"Ġamerikan":2639,"ians":2640,"Ġseinen":2641,"Ġworks":2642,"Ġnennen":2643,"hung":2644,"Ġforsch":2645,"Ġdeshalb":2646,"Ġgott":2647,"Ġschule":2648,"iker":2649,"Ġverbind":2650,"ĠbÃ¼":2651,"Ġmeet":2652,"Ġtas":2653,"Ġincre":2654,"Ġanderes":2655,"osph":2656,"Ġgreen":2657,"ieht":2658,"Ġlin":2659,"Ġrepr":2660,"ĠgehÃ¶rt":2661,"bed":2662,"ker":2663,"Ġarten":2664,"Ġweb":2665,"Ġbehand":2666,"Ġsinn":2667,"ĠfrÃ¼":2668,"utzt":2669,"ahlen":2670,"Ġtat":2671,"Ġdet":2672,"schn":2673,"Ġcho":2674,"Ġfollow":2675,"bes":2676,"por":2677,"ĠverÃ¤ndern":2678,"Ġkopf":2679,"Ġsociety":2680,"Ġspecies":2681,"ipp":2682,"Ġange":2683,"ĠÃ¤hn":2684,"glichen":2685,"Ġjour":2686,"Ġbewusst":2687,"med":2688,"Ġkor":2689,"ential":2690,"Ġplaneten":2691,"Ġcompany":2692,"Ġgod":2693,"ĠgrÃ¼nd":2694,"Ã¼cken":2695,"llig":2696,"ivil":2697,"Ġvol":2698,"Ġlarge":2699,"ĠmÃ¤dchen":2700,"asst":2701,"hand":2702,"ination":2703,"Ġsagten":2704,"Ġquick":2705,"Ġ60":2706,"air":2707,"des":2708,"Ġsituation":2709,"Ġexactly":2710,"Ġfant":2711,"Ġstate":2712,"av":2713,"fol":2714,"cc":2715,"ument":2716,"Ġty":2717,"atur":2718,"gem":2719,"ony":2720,"Ġspr":2721,"mals":2722,"Ġzer":2723,"Ġappro":2724,"oy":2725,"Ġnetz":2726,"ingt":2727,"Ġphil":2728,"Ġsechs":2729,"Ġwasn":2730,"ctor":2731,"fft":2732,"app":2733,"Ġbesonders":2734,"Ġthough":2735,"Ġeducation":2736,"undert":2737,"hle":2738,"hau":2739,"Ġschein":2740,"Ġobject":2741,"Ġcompletely":2742,"Ġcir":2743,"zept":2744,"Ġtaking":2745,"Ġdecided":2746,"Ġsuccess":2747,"ende":2748,"Ġlau":2749,"Ġplaces":2750,"chan":2751,"Ġgame":2752,"iele":2753,"icken":2754,"Ġerh":2755,"wend":2756,"ĠhÃ¶ren":2757,"Ġonline":2758,"Ġeveryone":2759,"system":2760,"Ġhalten":2761,"Ġoben":2762,"ision":2763,"ders":2764,"Ġcool":2765,"Ġmusste":2766,"ote":2767,"ering":2768,"Ġ199":2769,"Ġextrem":2770,"innen":2771,"Ġdest":2772,"gende":2773,"nisse":2774,"Ġwoman":2775,"ging":2776,"asse":2777,"Ġprov":2778,"ĠlÃ¶s":2779,"Ġview":2780,"Ġdarin":2781,"Ġantwort":2782,"Ġpast":2783,"Ġtool":2784,"Ġverm":2785,"ĠgefÃ¼hl":2786,"ude":2787,"voll":2788,"Ġwon":2789,"Ġbereits":2790,"Ġbehav":2791,"kon":2792,"Ġfly":2793,"eld":2794,"Ġerreichen":2795,"ina":2796,"Ġdist":2797,"Ġmov":2798,"Ġyeah":2799,"Ġitself":2800,"work":2801,"erte":2802,"Ġentwickelt":2803,"Ġbehind":2804,"Ġmicro":2805,"aum":2806,"ively":2807,"fu":2808,"chter":2809,"Ġclear":2810,"ides":2811,"ibly":2812,"Ġindia":2813,"Ġoce":2814,"ommt":2815,"Ġstudents":2816,"Ġniemand":2817,"Ġstories":2818,"Ġlabor":2819,"Ġster":2820,"Ġjahrh":2821,"Ġafrika":2822,"Ġanst":2823,"Ġdeal":2824,"Ġourselves":2825,"bild":2826,"face":2827,"well":2828,"Ġwest":2829,"Ġnon":2830,"ilen":2831,"cing":2832,"wand":2833,"Ã¶ff":2834,"weit":2835,"ability":2836,"Ġthemselves":2837,"Ġkinds":2838,"Ġverr":2839,"Ġlearned":2840,"Ġsystems":2841,"Ġsteht":2842,"Ġnews":2843,"Ġfle":2844,"Ġinte":2845,"Ġrather":2846,"Ġgeschichten":2847,"ocus":2848,"ĠhÃ¤tten":2849,"Ġalong":2850,"Ġnamens":2851,"Ġamerica":2852,"Ã¶s":2853,"Ġconf":2854,"Ġhappening":2855,"Ġirgendwie":2856,"alten":2857,"ames":2858,"Ġerkennen":2859,"heim":2860,"Ġbecame":2861,"Ġsun":2862,"Ġgerne":2863,"Ġmer":2864,"Ġmother":2865,"Ġober":2866,"Ġredu":2867,"Ġgoog":2868,"acter":2869,"Ġbenutzen":2870,"Ġthird":2871,"racht":2872,"Ġgets":2873,"Ġverschiedene":2874,"Ġminuten":2875,"Ġturns":2876,"Ġ80":2877,"ja":2878,"ared":2879,"Ġflug":2880,"ĠfÃ¼hr":2881,"Ġstudy":2882,"Ġuniversum":2883,"igung":2884,"Ġminutes":2885,"Ġner":2886,"arten":2887,"ras":2888,"igten":2889,"ush":2890,"Ġmult":2891,"Ġfree":2892,"ortun":2893,"Ġseinem":2894,"grund":2895,"Ġsouth":2896,"Ġknew":2897,"bare":2898,"Ġdro":2899,"Ġhuge":2900,"Ġinde":2901,"ĠvÃ¶":2902,"Ġbeob":2903,"Ġentf":2904,"Ġteilen":2905,"Ġfocus":2906,"Ġmachte":2907,"Ġfriends":2908,"Ġopportun":2909,"Ġpred":2910,"Ġgeneration":2911,"Ġwand":2912,"Ġcoll":2913,"gn":2914,"ional":2915,"Ġfreund":2916,"eng":2917,"Ġaff":2918,"Ġwort":2919,"Ġsozial":2920,"Ġentscheid":2921,"Ġhoff":2922,"Ġfamilie":2923,"Ġbezie":2924,"gress":2925,"iol":2926,"Ġanimals":2927,"Ġhours":2928,"Ġill":2929,"Ġple":2930,"istan":2931,"osp":2932,"itte":2933,"Ġindien":2934,"Ġcomplex":2935,"ĠstÃ¤d":2936,"Ġagainst":2937,"Ġsoftware":2938,"mm":2939,"Ġones":2940,"Ġnatural":2941,"Ġinnovation":2942,"Ġkap":2943,"fÃ¤":2944,"haps":2945,"bel":2946,"izin":2947,"immer":2948,"ource":2949,"Ġperhaps":2950,"ption":2951,"itting":2952,"rib":2953,"une":2954,"Ġhappy":2955,"omes":2956,"ral":2957,"zy":2958,"Ġstunden":2959,"achten":2960,"neh":2961,"rieb":2962,"Ġauto":2963,"Ġlead":2964,"Ġcouldn":2965,"Ġbaby":2966,"Ġbilder":2967,"Ġkosten":2968,"Ġmoral":2969,"Ġeinge":2970,"Ġwegen":2971,"Ġmeas":2972,"Ġblack":2973,"Ġhaupt":2974,"Ġgruppe":2975,"anzen":2976,"Ġbesten":2977,"Ġbraucht":2978,"aur":2979,"Ġkil":2980,"Ġgenet":2981,"Ġsprache":2982,"Ġtaus":2983,"ahn":2984,"rÃ¤":2985,"amp":2986,"Ġworked":2987,"Ġgrand":2988,"Ġquestions":2989,"ĠmÃ¤nner":2990,"Ġlisten":2991,"Ġorig":2992,"Ġcreated":2993,"Ġbott":2994,"Ġguys":2995,"Ġinnerhalb":2996,"Ġmob":2997,"Ġjedem":2998,"Ġangst":2999,"Ġseven":3000,"Ġothers":3001,"icult":3002,"Ġadd":3003,"Ġconnect":3004,"Ġstell":3005,"Ġeinzige":3006,"ichen":3007,"Ġdifficult":3008,"press":3009,"gestellt":3010,"ished":3011,"wards":3012,"Ġak":3013,"iet":3014,"annte":3015,"Ġverein":3016,"Ġauss":3017,"Ġlots":3018,"Ġbank":3019,"Ã¤nger":3020,"aun":3021,"punkt":3022,"Ġmittel":3023,"Ġsau":3024,"Ġziel":3025,"endet":3026,"ologie":3027,"Ġwall":3028,"Ġsum":3029,"Ġschre":3030,"Ġdigital":3031,"Ġdeep":3032,"Ġvorstellen":3033,"ĠnÃ¤mlich":3034,"Ã¤cht":3035,"Ġinvol":3036,"lieÃŁlich":3037,"ĠgebÃ¤u":3038,"Ġbestimm":3039,"Ġgoogle":3040,"bere":3041,"Ġball":3042,"unk":3043,"Ġleast":3044,"Ġchance":3045,"Ġdeath":3046,"Ġamount":3047,"Ġearly":3048,"Ġinteressant":3049,"Ġlim":3050,"Ġserv":3051,"Ġkomplex":3052,"aden":3053,"stoff":3054,"istic":3055,"Ġunters":3056,"Ġluft":3057,"ĠkÃ¼nst":3058,"Ġnorth":3059,"sk":3060,"Ġfull":3061,"Ġaktiv":3062,"ĠfÃ¤":3063,"Ġergeb":3064,"ither":3065,"Ġfinally":3066,"haupt":3067,"Ġav":3068,"Ã¶hn":3069,"schnitt":3070,"cul":3071,"Ġsqu":3072,"fÃ¼hrt":3073,"Ġhold":3074,"ett":3075,"Ġrelations":3076,"werk":3077,"Ġdiag":3078,"Ġverschiedenen":3079,"Ġdisease":3080,"Ġbeginnen":3081,"Ġmasch":3082,"druck":3083,"iqu":3084,"Ġsyn":3085,"Ġobwohl":3086,"Ġbewegen":3087,"Ġeight":3088,"Ġpopulation":3089,"Ġmachine":3090,"50":3091,"Ġarea":3092,"Ġbeiden":3093,"Ġgave":3094,"Ġcy":3095,"Ġrecent":3096,"Ġrobo":3097,"bringen":3098,"Ġgleiche":3099,"Ġtut":3100,"Ġlog":3101,"ager":3102,"Ġdamals":3103,"Ġcenter":3104,"Ġamerican":3105,"Ġoil":3106,"Ġkultur":3107,"Ġbemer":3108,"Ġ11":3109,"Ġobvious":3110,"pid":3111,"Ġvater":3112,"let":3113,"Ġ16":3114,"Ġwollten":3115,"Ã¼tzen":3116,"Ġkreat":3117,"Ġeinigen":3118,"Ġjap":3119,"Ġsage":3120,"Ġpoor":3121,"Ġentwickeln":3122,"Ġtreffen":3123,"Ġumwelt":3124,"Ġoutside":3125,"ĠfÃ¼hren":3126,"Ġtransform":3127,"Ġdad":3128,"ump":3129,"kre":3130,"Ã¤tz":3131,"zug":3132,"Ġjahrhundert":3133,"ples":3134,"Ġimpro":3135,"Ġbir":3136,"Ġtext":3137,"by":3138,"Ġfield":3139,"Ġemp":3140,"Ġeth":3141,"view":3142,"war":3143,"Ġap":3144,"Ġpick":3145,"Ġevent":3146,"Ġgewalt":3147,"anten":3148,"ustellen":3149,"Ġpersonal":3150,"Ġprogramm":3151,"itet":3152,"tete":3153,"Ġthousands":3154,"onen":3155,"Ġerhalten":3156,"Ġdaher":3157,"Ġunterst":3158,"Ġjapan":3159,"Ġduring":3160,"Ġsachen":3161,"Ġinteract":3162,"Ġunglaublich":3163,"Ġpost":3164,"fra":3165,"ortra":3166,"Ġlearning":3167,"Ġdisc":3168,"Ã¤sst":3169,"Ġdru":3170,"ante":3171,"Ġfantast":3172,"ĠÃ¤ndern":3173,"Ġsand":3174,"Ġcut":3175,"utions":3176,"cks":3177,"Ġdifference":3178,"Ġbat":3179,"Ġmoving":3180,"Ġmedizin":3181,"ĠstÃ¼ck":3182,"Ġabsolute":3183,"Ġinspir":3184,"!\"":3185,"Ġsud":3186,"Ġbehavior":3187,"pect":3188,"Ġcann":3189,"Ġspez":3190,"itions":3191,"anger":3192,"Ġbedeut":3193,"richten":3194,"akter":3195,"apt":3196,"Ġpatienten":3197,"entlichen":3198,"zeugen":3199,"Ġhause":3200,"lo":3201,"Ġyourself":3202,"ison":3203,"Ã¤ten":3204,"Ġmechan":3205,"Ġimage":3206,"Ġweek":3207,"wort":3208,"ĠÃ¼berhaupt":3209,"Ġpark":3210,"alax":3211,"igte":3212,"hlte":3213,"Ġzwar":3214,"Ġach":3215,"ature":3216,"ienen":3217,"Ġregierung":3218,"Ġmedia":3219,"ef":3220,"iben":3221,"Ġtit":3222,"Ġclose":3223,"Ġschwar":3224,"erweise":3225,"Ġhiv":3226,"Ġled":3227,"ĠverÃ¤ndert":3228,"Ġchanged":3229,"Ġeher":3230,"Ġshort":3231,"pekt":3232,"Ġbitte":3233,"Ġverwenden":3234,"Ġmaj":3235,"Ġtaken":3236,"Ġsold":3237,"Ġhands":3238,"Ġblue":3239,"Ġsimp":3240,"aktion":3241,"put":3242,"Ġdor":3243,"okrat":3244,"Ġgiven":3245,"Ġenor":3246,"Ġfeed":3247,"Ġtakes":3248,"Ġpattern":3249,"Ġterms":3250,"gra":3251,"inal":3252,"Ġneg":3253,"Ġkindern":3254,"Ġcommon":3255,"Ġve":3256,"ĠverfÃ¼":3257,"ology":3258,"Ġcentury":3259,"Ġexplain":3260,"Ġjohn":3261,"Ġgalax":3262,"Ġrobot":3263,"Ġpfl":3264,"Ġkid":3265,"Ġ14":3266,"ikum":3267,"Ġmorgen":3268,"pfen":3269,"hler":3270,"Ġwonderful":3271,"bre":3272,"Ġfern":3273,"Ġprim":3274,"Ġversucht":3275,"Ġrecord":3276,"Ġult":3277,"Ġmenschlichen":3278,"ĠpersÃ¶n":3279,"Ã¤ume":3280,"res":3281,"Ġfand":3282,"Ġstreet":3283,"Ġcompanies":3284,"Ġsend":3285,"Ġleave":3286,"Ġeasy":3287,"Ġocc":3288,"Ġanfang":3289,"Ġwhatever":3290,"Ġseeing":3291,"how":3292,"hÃ¤ng":3293,"uld":3294,"Ġess":3295,"what":3296,"Ġerstaun":3297,"Ġcities":3298,"oph":3299,"Ġneeds":3300,"vÃ¶l":3301,"Ġtau":3302,"Ġhab":3303,"Ġdemoc":3304,"Ġkommun":3305,"Ġkrebs":3306,"Ġeurope":3307,"tend":3308,"ney":3309,"ards":3310,"Ġeltern":3311,"Ġ90":3312,"Ġvirt":3313,"Ġpresent":3314,"Ġocean":3315,"Ġdom":3316,"oud":3317,"beite":3318,"Ġeyes":3319,"Ġgetan":3320,"Ġsolar":3321,"Ġsam":3322,"Ġaufga":3323,"Ġtrotz":3324,"Ġmik":3325,"Ġzent":3326,"Ġgleichen":3327,"Ġaudience":3328,"Ġrelationship":3329,"ence":3330,"Ġculture":3331,"Ġdesc":3332,"Ġverbess":3333,"Ġfalls":3334,"Ġbeginning":3335,"Ġlow":3336,"Ġlage":3337,"Ġherausforder":3338,"Ġinternational":3339,"Ġsan":3340,"ased":3341,"Ġfundament":3342,"verage":3343,"Ġneben":3344,"Ġwerk":3345,"Ġincl":3346,"Ġbox":3347,"zieren":3348,"oth":3349,"Ġschreiben":3350,"Ġallem":3351,"ĠnÃ¤chste":3352,"text":3353,"Ġreach":3354,"Ġbreak":3355,"ĠgebÃ¤ude":3356,"hnt":3357,"ling":3358,"po":3359,"onnen":3360,"Ġvertra":3361,"lossen":3362,"Ġroboter":3363,"ĠwÃ¤":3364,"Ġlonger":3365,"Ġpract":3366,"Ġx":3367,"ktor":3368,"Ġkont":3369,"Ġbrauch":3370,"Ġturned":3371,"Ġwider":3372,"Ġ17":3373,"iken":3374,"haft":3375,"Ġlocal":3376,"Ġsimply":3377,"mar":3378,"amer":3379,"Ġwochen":3380,"Ġstep":3381,"Ġcommunic":3382,"Ġrei":3383,"Ġbuy":3384,"Ġsolche":3385,"Ġvorher":3386,"Ġinterested":3387,"Ġment":3388,"Ġparts":3389,"Ġmajor":3390,"sw":3391,"Ġentwicklung":3392,"Ġtier":3393,"ĠlÃ¤nder":3394,"Ġju":3395,"lic":3396,"Ġsicht":3397,"Ġox":3398,"Ġprozess":3399,"Ġdingen":3400,"Ġerre":3401,"Ġkamen":3402,"Ġjunge":3403,"Ġerscha":3404,"Ġbereit":3405,"Ġmilit":3406,"kÃ¼":3407,"lin":3408,"Ġaccess":3409,"Ġindividu":3410,"ake":3411,"Ġfore":3412,"Ġnear":3413,"enne":3414,"ĠprÃ¤s":3415,"Ġground":3416,"go":3417,"Ġprot":3418,"Ġcannot":3419,"uren":3420,"genommen":3421,"auso":3422,"Ġord":3423,"Ġmuse":3424,"Ã¤ngt":3425,"Ġconsum":3426,"Ġmeines":3427,"Ġpress":3428,"ently":3429,"Ġrealized":3430,"Ġstruktur":3431,"Ġgedanken":3432,"Ġtief":3433,"iti":3434,"cker":3435,"baren":3436,"haus":3437,"Ġlehrer":3438,"opp":3439,"hor":3440,"Ġrele":3441,"urt":3442,"zin":3443,"Ġgenauso":3444,"spiel":3445,"Ġexpect":3446,"Ġfalsch":3447,"Ġnachdem":3448,"nahme":3449,"of":3450,"Ġhig":3451,"raum":3452,"Ġarbeite":3453,"Ġperform":3454,"Ġverh":3455,"Ġtried":3456,"Ġregion":3457,"Ġweitere":3458,"ledge":3459,"Ġschlecht":3460,"Ġintelligen":3461,"mel":3462,"Ġunten":3463,"Ġtru":3464,"Ġscre":3465,"Ġneeded":3466,"Ġbereich":3467,"...":3468,"Ġzahl":3469,"iziert":3470,"Ġmussten":3471,"ĠgeschÃ¤ft":3472,"Ġpowerful":3473,"Ġsieben":3474,"Ġstay":3475,"serv":3476,"pression":3477,"bor":3478,"Ġviol":3479,"Ã¼cke":3480,"oms":3481,"Ġsurpr":3482,"Ġletzte":3483,"mÃ¶glich":3484,"Ġrisk":3485,"ĠmÃ¶glichkeiten":3486,"Ġbetrachten":3487,"year":3488,"Ġfahr":3489,"imp":3490,"Ġleiden":3491,"Ġneues":3492,"Ġverbre":3493,"Ġsize":3494,"ana":3495,"ising":3496,"Ġkey":3497,"Ġsek":3498,"ĠÃ¼berras":3499,"Ġconv":3500,"Ġ198":3501,"Ġerfahrung":3502,"mas":3503,"ĠÃ¤r":3504,"Ġfert":3505,"fully":3506,"bau":3507,"Ġsil":3508,"Ġet":3509,"sein":3510,"Ġworden":3511,"Ġgene":3512,"Ġscale":3513,"ĠfÃ¼hlen":3514,"Ġtages":3515,"Ġpublikum":3516,"Ġfolgen":3517,"Ġvirus":3518,"ĠschlieÃŁlich":3519,"inary":3520,"reg":3521,"Ġconc":3522,"Ġposition":3523,"Ġrecogn":3524,"Ġeurop":3525,"orie":3526,"Ġjedoch":3527,"Ġanderer":3528,"Ġgemeinsam":3529,"Ġdream":3530,"Ġerinnern":3531,"Ġcirc":3532,"Ġgol":3533,"Ġgone":3534,"Ġdemokrat":3535,"Ã¤nde":3536,"Ġklim":3537,"Ġslow":3538,"Ġspecial":3539,"Ġbringt":3540,"Ġdirect":3541,"Ġkraft":3542,"Ġ201":3543,"Ġcop":3544,"Ã¶tz":3545,"ibility":3546,"Ġterror":3547,"Ġperfect":3548,"ball":3549,"Ġmount":3550,"sto":3551,"omat":3552,"Ġmenschliche":3553,"Ġstrateg":3554,"book":3555,"you":3556,"Ġfoot":3557,"ends":3558,"Ġplast":3559,"ources":3560,"flÃ¤che":3561,"Ġgrunde":3562,"Ġindividual":3563,"Ġhom":3564,"Ġfather":3565,"antwort":3566,"Ġthema":3567,"Ġsurv":3568,"Ġsudden":3569,"Ġbud":3570,"ĠrÃ¼ck":3571,"Ġgeist":3572,"Ġplatz":3573,"reifen":3574,"idence":3575,"Ġeconomic":3576,"itter":3577,"ised":3578,"tens":3579,"Ġmain":3580,"Ġeigene":3581,"Ġquickly":3582,"bte":3583,"Ġfear":3584,"Ġverstand":3585,"Ġ13":3586,"Ġraus":3587,"Ġafgh":3588,"ried":3589,"Ġgeneral":3590,"Ġdirekt":3591,"Ġsupport":3592,"Ġpaper":3593,"aring":3594,"Ġlesen":3595,"Ġability":3596,"Ġlik":3597,"Ġstellt":3598,"das":3599,"hood":3600,"lam":3601,"Ġbege":3602,"Ġprop":3603,"ĠÃ¶l":3604,"Ġforce":3605,"ĠplÃ¶tz":3606,"Ġgren":3607,"ĠbÃ¼r":3608,"Ġoptim":3609,"Ġeither":3610,"Ġrein":3611,"Ġmeer":3612,"Ġumgeb":3613,"Ġwouldn":3614,"ci":3615,"lungs":3616,"Ġsn":3617,"ama":3618,"Ġalter":3619,"ĠÃ¼br":3620,"ĠvÃ¶llig":3621,"ban":3622,"Ġrepl":3623,"Ġce":3624,"Ġwhite":3625,"elte":3626,"Ġdeut":3627,"Ġenc":3628,"zentr":3629,"ĠtÃ¶":3630,"Ġansch":3631,"Ġzehn":3632,"Ġ21":3633,"Ġtiere":3634,"Ġsal":3635,"Ġsamm":3636,"Ġhervor":3637,"ips":3638,"Ġbekam":3639,"Ġvision":3640,"ĠlÃ¤sst":3641,"Ġdanach":3642,"Ġtemper":3643,"Ġwusste":3644,"Ġconsider":3645,"cin":3646,"Ġreality":3647,"Ġerlau":3648,"Ġopportunity":3649,"Ġtage":3650,"Ġderen":3651,"Ġhumans":3652,"Ġvalue":3653,"rab":3654,"Ġphone":3655,"Ġboden":3656,"Ġafghan":3657,"wind":3658,"Ġdessen":3659,"Ġhon":3660,"izieren":3661,"Ġparents":3662,"Ġsicherheit":3663,"Ġstructure":3664,"Ġentscheiden":3665,"Ġther":3666,"Ġfish":3667,"usion":3668,"Ġspent":3669,"Ġblock":3670,"fÃ¼hren":3671,"ĠwÃ¤ren":3672,"Ġhit":3673,"Ġsollen":3674,"kraft":3675,"Ġsitting":3676,"Ġ70":3677,"Ġweeks":3678,"Ġhilfe":3679,"Ġmuseum":3680,"bon":3681,"annten":3682,"iale":3683,"Ġstaaten":3684,"icks":3685,"lieÃŁen":3686,"Ġstrong":3687,"Ġfelt":3688,"Ġjungen":3689,"Ġrequ":3690,"Ġfarm":3691,"Ġphotograph":3692,"jÃ¤hr":3693,"Ġ%":3694,"ined":3695,"Ġhosp":3696,"immen":3697,"Ġdark":3698,"Ġgewor":3699,"Ġshows":3700,"Ġmorning":3701,"Ġcollect":3702,"falls":3703,"Ġmikro":3704,"zip":3705,"Ġtin":3706,"Ġanzu":3707,"Ġbrit":3708,"Ġzweite":3709,"Ġeconomy":3710,"ived":3711,"Ġchanges":3712,"Ġgas":3713,"Ġmarkt":3714,"Ġpull":3715,"ĠsÃ¼d":3716,"Ġdetail":3717,"Ġmeasure":3718,"bauen":3719,"Ġacht":3720,"Ġwach":3721,"Ġsong":3722,"ites":3723,"Ġwelches":3724,"Ġvisual":3725,"Ġapproach":3726,"Ġakt":3727,"Ġinfr":3728,"ars":3729,"Ġmeist":3730,"abil":3731,"Ġgesicht":3732,"Ġgescha":3733,"arbeitet":3734,"erungen":3735,"Ġkat":3736,"itzen":3737,"Ġarbeits":3738,"Ġpolitical":3739,"Ġsea":3740,"Ġmanche":3741,"Ġwoche":3742,"Ġlost":3743,"Ġfreunde":3744,"Ġjobs":3745,"Ġcamp":3746,"Ġrespons":3747,"Ġblood":3748,"Ġincredible":3749,"ils":3750,"Ġmanag":3751,"Ġmodern":3752,"Ġop":3753,"stum":3754,"Ġbeein":3755,"uth":3756,"Ġverwand":3757,"Ġfunktionieren":3758,"Ġdraw":3759,"Ġanimal":3760,"Ġsterben":3761,"chsel":3762,"Ġsuchen":3763,"Ġbom":3764,"Ġrock":3765,"Ġfeet":3766,"ĠlÃ¶sen":3767,"Ġvill":3768,"ilar":3769,"Ġknown":3770,"Ġbleiben":3771,"Ġmodell":3772,"die":3773,"isse":3774,"Ġzahlen":3775,"Ġatm":3776,"Ġentste":3777,"Ġbesteht":3778,"Ġschwierig":3779,"wÃ¤r":3780,"Ġign":3781,"Ġzuerst":3782,"Ġgemeinschaft":3783,"ĠplÃ¶tzlich":3784,"Ġeffe":3785,"izing":3786,"Ġbrought":3787,"Ġverbunden":3788,"Ġkranken":3789,"Ġgrowth":3790,"vent":3791,"Ġcode":3792,"Ġfragte":3793,"Ġaltern":3794,"weg":3795,"Ġbased":3796,"Ġbottom":3797,"rote":3798,"Ġschwe":3799,"acy":3800,"Ġguten":3801,"nahmen":3802,"Ġeis":3803,"elbe":3804,"ustain":3805,"ziehen":3806,"ators":3807,"Ġkonzentr":3808,"Ġflow":3809,"Ġelectric":3810,"Ġpotential":3811,"fahren":3812,"Ġzerst":3813,"Ġschritt":3814,"Ġborn":3815,"Ġoze":3816,"ouch":3817,"nal":3818,"Ġhast":3819,"Ġhall":3820,"Ġverantwort":3821,"Ġsmart":3822,"Ġautos":3823,"Ġsurface":3824,"wirk":3825,"Ġcollege":3826,"Ġnation":3827,"Ġnice":3828,"Ġrot":3829,"Ġtransport":3830,"Ġuniversity":3831,"Ġeinges":3832,"Ġfliegen":3833,"Ġeat":3834,"eder":3835,"Ġareas":3836,"Ã¤chst":3837,"Ġanyone":3838,"ĠbeschÃ¤ft":3839,"Ġfight":3840,"Ġpath":3841,"Ġzuvor":3842,"Ġstage":3843,"bert":3844,"Ġfavor":3845,"Ġfamilien":3846,"Ġvergleich":3847,"uÃŁen":3848,"Ġpf":3849,"Ġkaufen":3850,"Ġknowledge":3851,"Ġmonate":3852,"Ġinstrum":3853,"sichtlich":3854,"Ġchallenge":3855,"Ġbez":3856,"Ġwebs":3857,"Ġreich":3858,"Ġprom":3859,"Ġrand":3860,"ynam":3861,"ght":3862,"hÃ¶ren":3863,"Ġice":3864,"Ġlaufen":3865,"Ġzellen":3866,"Ġaussehen":3867,"Ġcomputers":3868,"ograf":3869,"ĠermÃ¶":3870,"ĠfÃ¼hrt":3871,"Ġimpact":3872,"Ġlangsam":3873,"Ġbooks":3874,"ĠlÃ¶sung":3875,"licht":3876,"uit":3877,"Ġcaus":3878,"Ġunbe":3879,"ierend":3880,"alle":3881,"ival":3882,"ains":3883,"Ġnamen":3884,"Ġattention":3885,"Ġbur":3886,"ĠbenÃ¶t":3887,"Ġpal":3888,"isieren":3889,"Ġforward":3890,"ops":3891,"Ġvoice":3892,"hy":3893,"spro":3894,"Ġstatist":3895,"Ġdeveloped":3896,"ĠglÃ¼cklich":3897,"Ġcivil":3898,"alien":3899,"Ã¼ckt":3900,"Ġversion":3901,"produ":3902,"Ġwrite":3903,"Ġlas":3904,"iction":3905,"Ġkolle":3906,"Ġcolor":3907,"Ġaverage":3908,"Ġrom":3909,"astru":3910,"Ġrealize":3911,"jekte":3912,"ifor":3913,"Ġemer":3914,"Ġmoder":3915,"Ġmedic":3916,"Ġfeeling":3917,"Ġbor":3918,"ĠbevÃ¶l":3919,"Ġclos":3920,"Ġcars":3921,"Ġstarting":3922,"Ġpun":3923,"letz":3924,"Ġausge":3925,"Ġblut":3926,"ĠdrauÃŁen":3927,"Ġmotiv":3928,"isst":3929,"zeuge":3930,"Ġtechnologies":3931,"Ġphysical":3932,"Ġmiles":3933,"Ġlinks":3934,"ĠerklÃ¤r":3935,"pers":3936,"Ġbal":3937,"Ġfem":3938,"Ġinse":3939,"Ġallein":3940,"ills":3941,"abor":3942,"Ġdaraus":3943,"Ġclimate":3944,"Ġprodukt":3945,"Ġmeaning":3946,"ĠgrÃ¶ÃŁte":3947,"Ġrepres":3948,"Ġding":3949,"ouble":3950,"ĠlÃ¤ndern":3951,"Ġspir":3952,"ored":3953,"ĠgrÃ¶ÃŁer":3954,"omet":3955,"use":3956,"ades":3957,"Ġgelernt":3958,"igkeiten":3959,"Ġengag":3960,"Ġwrote":3961,"ndon":3962,"Ġgiving":3963,"Ġfire":3964,"elten":3965,"Ġleicht":3966,"Ġnacht":3967,"Ġstelle":3968,"Ġsimilar":3969,"Ġgefunden":3970,"Ġserious":3971,"Ġpatients":3972,"Ġnetwork":3973,"Ġerschaffen":3974,"Ġnord":3975,"Ġpack":3976,"Ġcomb":3977,"Ġdevelopment":3978,"Ġgrowing":3979,"Ġscientists":3980,"bol":3981,"Ġwahl":3982,"Ġhung":3983,"ĠhÃ¶r":3984,"Ġdead":3985,"zeigt":3986,"Ġsug":3987,"wa":3988,"Ġhine":3989,"cts":3990,"auft":3991,"prochen":3992,"entially":3993,"ĠstÃ¤r":3994,"Ġrep":3995,"Ġmap":3996,"Ġconcept":3997,"Ġihres":3998,"Ġunseres":3999,"Ġdein":4000,"Ġrefle":4001,"ox":4002,"Ġerle":4003,"gegen":4004,"Ġaren":4005,"Ġcrit":4006,"Ġegal":4007,"Ġbist":4008,"Ã¤ÃŁ":4009,"Ġstudent":4010,"Ã¤uf":4011,"Ã¤uft":4012,"ĠbÃ¼rger":4013,"kerung":4014,"ove":4015,"Ġfur":4016,"Ġpan":4017,"gefÃ¼hl":4018,"Ġneigh":4019,"Ġmache":4020,"Ġflu":4021,"clear":4022,"Ġliterally":4023,"Ġscheint":4024,".,":4025,"Ġersch":4026,"Ġnachdenken":4027,"Ġhundreds":4028,"zw":4029,"ieten":4030,"schr":4031,"Ã¤tze":4032,"Ġstress":4033,"Ġ500":4034,"Ġimages":4035,"Ġenglish":4036,"Ġabsolutely":4037,"ife":4038,"pre":4039,"arm":4040,"Ġsehe":4041,"Ġmitt":4042,"Ġspread":4043,"Ġ24":4044,"pec":4045,"ĠgegenÃ¼ber":4046,"Ġentdeck":4047,"Ġinfrastru":4048,"iforn":4049,"Ġfair":4050,"Ġminute":4051,"Ġbewegung":4052,"Ġunderstanding":4053,"jen":4054,"Ġtom":4055,"Ġmiteinander":4056,"stein":4057,"Ġgebaut":4058,"lagen":4059,"uh":4060,"zz":4061,"Ġzug":4062,"Ġnumbers":4063,"Ġelektr":4064,"Ġtype":4065,"Ġmovement":4066,"Ġsle":4067,"oun":4068,"Ġvergangen":4069,"Ġantwor":4070,"Ġwild":4071,"Ġbeide":4072,"ĠmÃ¶chten":4073,"Ġgewesen":4074,"Ġjemals":4075,"ĠgrÃ¶ÃŁten":4076,"Ġseems":4077,"Ġkrieg":4078,"zellen":4079,"Ġtal":4080,"Ġgele":4081,"Ġqual":4082,"Ġplaying":4083,"Ġstimme":4084,"Ġanstatt":4085,"Ġsustain":4086,"ances":4087,"Ġpur":4088,"Ġroad":4089,"Ġwissenschaftler":4090,"Ġsprach":4091,"Ġtools":4092,"Ġintegr":4093,"Ġbeeinfl":4094,"mut":4095,"ester":4096,"Ġec":4097,"Ġnimmt":4098,"idge":4099,"ĠÃ¼berleben":4100,"Ġrunning":4101,"iant":4102,"Ġsoon":4103,"Ġrate":4104,"head":4105,"Ġboy":4106,"Ġgeworden":4107,"inos":4108,"Ġinstitution":4109,"Ġrecently":4110,"Ġmars":4111,"Ġpassieren":4112,"Ġcurr":4113,"Ġverbindung":4114,"iod":4115,"Ġwachsen":4116,"Ġsequen":4117,"Ġaufzu":4118,"Ġworth":4119,"Ġlondon":4120,"Ġverbra":4121,"Ġbekannt":4122,"Ġherauszu":4123,"Ġnahm":4124,"hnen":4125,"alter":4126,"Ġtruth":4127,"Ġdurchschnitt":4128,"Ġtelling":4129,"Ġbeginnt":4130,"ĠerklÃ¤ren":4131,"oon":4132,"Ġblind":4133,"phone":4134,"blick":4135,"Ġguess":4136,"Ġpositive":4137,"Ġanfangen":4138,"Ġkontroll":4139,"bten":4140,"Ġton":4141,"Ġsell":4142,"Ġtatsache":4143,"Ġgives":4144,"Ġdynam":4145,"Ġnobody":4146,"Ġ197":4147,"zeitig":4148,"unehmen":4149,"gliche":4150,"Ġtheory":4151,"Ġehr":4152,"Ġexcept":4153,"Ġblog":4154,"Ġ196":4155,"wirtschaft":4156,"Ġissue":4157,"Ġherr":4158,"aben":4159,"fahr":4160,"la":4161,"Ġlern":4162,"Ġperiod":4163,"Ġ300":4164,"ĠmÃ¤nn":4165,"Ġreihe":4166,"atten":4167,"Ġnutz":4168,"Ġvortra":4169,"gewÃ¶hn":4170,"Ġindustry":4171,"Ġjournal":4172,"ex":4173,"iation":4174,"Ġinfl":4175,"ĠverÃ¶ff":4176,"ified":4177,"Ġtoll":4178,"Ã¤ss":4179,"indet":4180,"Ġalone":4181,"Ġwahrheit":4182,"Ġavail":4183,"Ġamong":4184,"Ġdisk":4185,"Ġphilos":4186,"ules":4187,"Ġsave":4188,"zogen":4189,"ĠhÃ¼":4190,"Ġsofort":4191,"icy":4192,"Ġjung":4193,"Ġregen":4194,"Ġerd":4195,"imens":4196,"Ġflo":4197,"Ġtechnik":4198,"Ġmillions":4199,"Ġstudenten":4200,"Ġmeth":4201,"Ġdeveloping":4202,"Ġrichtung":4203,"Ġatmosph":4204,"lang":4205,"uelle":4206,"Ġarr":4207,"Ġteile":4208,"ploy":4209,"Ġfail":4210,"Ġniemals":4211,"ered":4212,"Ġaufge":4213,"Ġexperien":4214,"Ġmuster":4215,"uell":4216,"organ":4217,"oper":4218,"Ġempf":4219,"Ġkleiner":4220,"Ġchrist":4221,"Ġdiscovered":4222,"Ġtable":4223,"Ġecht":4224,"isiert":4225,"Ġcompass":4226,"forsch":4227,"Ġblick":4228,"Ġeye":4229,"asing":4230,"wegen":4231,"ustr":4232,"Ġvorh":4233,"Ã¤lfte":4234,"Ġaufre":4235,"Ġbekommt":4236,"Ġstandard":4237,"ĠfuÃŁ":4238,"ĠfrÃ¼her":4239,"Ġafghanistan":4240,"Ġira":4241,"Ġgames":4242,"Ġsever":4243,"Ġreligion":4244,"Ġinclud":4245,"Ġumgebung":4246,"Ġfro":4247,"Ġlay":4248,"Ġca":4249,"Ġanzahl":4250,"Ġproper":4251,"Ġshape":4252,"Ġobviously":4253,"Ġjen":4254,"ctions":4255,"Ġfrank":4256,"Ġtechnologien":4257,"ĠkÃ¼nstler":4258,"setzen":4259,"ieg":4260,"Ġlif":4261,"Ġroll":4262,"Ġmedien":4263,"Ġlad":4264,"Ġanybody":4265,"hnung":4266,"Ġkleines":4267,"Ġsonst":4268,"Ġsonnen":4269,"ĠÃ¼b":4270,"Ġkrankheit":4271,"gemein":4272,"pecially":4273,"ko":4274,"merks":4275,"Ġernst":4276,"Ġklima":4277,"ube":4278,"Ġtum":4279,"Ġfanden":4280,"Ġtod":4281,"Ġann":4282,"Ġespecially":4283,"Ġrede":4284,"ĠfrÃ¼h":4285,"Ġcover":4286,"iled":4287,"Ġstark":4288,"Ġnine":4289,"mens":4290,"Ġverbr":4291,"ĠstraÃŁen":4292,"itze":4293,"ĠschÃ¼":4294,"Ġknows":4295,"Ġshowed":4296,"Ġbenef":4297,"Ġgirls":4298,"wissen":4299,"Ġtouch":4300,"Ġhaven":4301,"Ġpeace":4302,"Ġtravel":4303,"Ġmedik":4304,"Ġfinger":4305,"Ġanw":4306,"Ġisland":4307,"Ġmedical":4308,"Ġiran":4309,"zeugt":4310,"Ġtie":4311,"ativ":4312,"Ġaufmerks":4313,"Ġentsp":4314,"stellt":4315,"Ġtalked":4316,"Ġnorm":4317,"ĠgefÃ¤hr":4318,"Ġcreating":4319,"Ġachie":4320,"Ġconsc":4321,"Ġlieben":4322,"Ġverloren":4323,"Ġpictures":4324,"Ġfahren":4325,"rael":4326,"kehr":4327,"seite":4328,"Ġasking":4329,"Ġdef":4330,"Ġeinfl":4331,"Ġhinaus":4332,"Ġverwendet":4333,"Ġentfernt":4334,"Ġaufgabe":4335,"oes":4336,"zer":4337,"Ġband":4338,"Ġdistr":4339,"Ġest":4340,"Ġdeb":4341,"wohn":4342,"Ġproduce":4343,"rift":4344,"Ġwriting":4345,"Ġprinzip":4346,"Ġstellte":4347,"Ġislam":4348,"Ġgenannt":4349,"Ġsuff":4350,"Ġfindet":4351,"Ġsubject":4352,"Ġincredibly":4353,"fre":4354,"itÃ¤ten":4355,"ows":4356,"auer":4357,"ĠmaÃŁ":4358,"Ġfinanz":4359,"Ġabsolut":4360,"Ġdunk":4361,"Ġhot":4362,"Ġnar":4363,"Ã¤fte":4364,"ĠÃ¼berw":4365,"Ġinvolved":4366,"Ġarab":4367,"Ġdram":4368,"Ġalten":4369,"Ġconvers":4370,"Ġresources":4371,"Ġdrive":4372,"Ġmeter":4373,"Ġauszu":4374,"Ġsolution":4375,"Ġbenutzt":4376,"Ġmetho":4377,"Ġprofess":4378,"Ġrichtige":4379,"Ġenorm":4380,"gor":4381,"Ġfab":4382,"Ġreise":4383,"Ġinterview":4384,"Ġattack":4385,"Ġtotal":4386,"Ġavailable":4387,"Ġcompassion":4388,"Ġtar":4389,"teten":4390,"urity":4391,"sequen":4392,"Ã¤nge":4393,"Ġsky":4394,"Ġaufmerksam":4395,"Ġstimmt":4396,"Ġconst":4397,"Ġerfolgreich":4398,"mon":4399,"Ġletzt":4400,"Ġdien":4401,"Ġvern":4402,"Ġvorstellung":4403,"Ġbecomes":4404,"Ġevol":4405,"Ġpartner":4406,"Ġregel":4407,"Ġdesigned":4408,"Ġcarbon":4409,"Ġverschw":4410,"mus":4411,"ented":4412,"Ġmis":4413,"Ġintro":4414,"Ġpreis":4415,"teilt":4416,"Ġkomplett":4417,"Ġpil":4418,"Ġmex":4419,"Ġgezeigt":4420,"Ġdemon":4421,"Ã¤ngen":4422,"Ġbildung":4423,"Ġchinese":4424,"ĠstÃ¤dte":4425,"agieren":4426,"Ġspeed":4427,"Ġbigger":4428,"Ġinteressiert":4429,"aÃŁ":4430,"Ġfehler":4431,"Ġprofession":4432,"yond":4433,"stre":4434,"Ġfoto":4435,"band":4436,"wood":4437,"Ġwashing":4438,"Ġgegeben":4439,"Ġtrust":4440,"ichtet":4441,"ĠgrÃ¶ÃŁe":4442,"Ġjemanden":4443,"Ġchanging":4444,"onom":4445,"ĠhÃ¤lfte":4446,"rel":4447,"utage":4448,"Ġanc":4449,"Ġmitte":4450,"iko":4451,"Ġsoziale":4452,"Ġamerika":4453,"Ġkal":4454,"ragen":4455,"Ã¤ndig":4456,"Ġoffice":4457,"Ġmetap":4458,"Ġchoice":4459,"Ġbedeutung":4460,"gorith":4461,"cial":4462,"Ġgingen":4463,"Ġfix":4464,"itation":4465,"Ġport":4466,"Ġzun":4467,"Ġbeyond":4468,"racy":4469,"Ġschrieb":4470,"Ġforest":4471,"umb":4472,"Ġleist":4473,"plan":4474,"Ġweltweit":4475,"Ġdesigner":4476,"Ġcapt":4477,"Ġforschung":4478,"Ġpflanzen":4479,"wass":4480,"zustellen":4481,"Ġnecess":4482,"Ġhundert":4483,"Ġradio":4484,"Ġissues":4485,"Ġwebsite":4486,"ties":4487,"Ġheim":4488,"Ġrolle":4489,"Ġbrill":4490,"Ġputting":4491,"Ġversuche":4492,"son":4493,"ĠtÃ¼r":4494,"Ġgold":4495,"Ġlaut":4496,"Ġkan":4497,"roffen":4498,"osystem":4499,"Ġnachzu":4500,"Ġmeinung":4501,"ĠmÃ¶gen":4502,"Ġhoffe":4503,"Ġreasons":4504,"ique":4505,"dlich":4506,"kel":4507,"kam":4508,"ierungen":4509,"Ġhell":4510,"ify":4511,"Ġgeboren":4512,"Ġziehen":4513,"Ġoffensichtlich":4514,"lage":4515,"Ġeast":4516,"aren":4517,"Ġaustr":4518,"Ġformen":4519,"Ġplant":4520,"utzutage":4521,"ĠverÃ¤nderung":4522,"mung":4523,"Ġlate":4524,"Ġstick":4525,"Ġdavid":4526,"win":4527,"isierung":4528,"Ġheutzutage":4529,"Ġzeige":4530,"Ġaction":4531,"Ġbasis":4532,"Ġmaterials":4533,"Ġdevice":4534,"Ġerreicht":4535,"Ġdemonstr":4536,"setz":4537,"Ġwish":4538,"Ġsche":4539,"Ġhistor":4540,"ĠÃ¼brigen":4541,"Ġseveral":4542,"ales":4543,"Ġplease":4544,"hÃ¶r":4545,"Ġinf":4546,"Ġcart":4547,"Ġdimens":4548,"Ġisrael":4549,"Ġruss":4550,"Ġdeg":4551,"Ġentwicklungs":4552,"fon":4553,"Ġwann":4554,"Ġbald":4555,"teile":4556,"Ġlist":4557,"Ġzeich":4558,"Ġkompl":4559,"Ġhappiness":4560,"Ġlief":4561,"Ġsymbol":4562,"Ġcertainly":4563,"Ġpen":4564,"arily":4565,"Ġreact":4566,"krank":4567,"Ġherausforderung":4568,"Ġfirma":4569,"Ġlok":4570,"Ġtiny":4571,"Ġsetzen":4572,"Ġrules":4573,"Ġbrachte":4574,"Ġeinfache":4575,"Ġfaszin":4576,"Ġbetrachte":4577,"Ġmaschine":4578,"Ġsleep":4579,"come":4580,"do":4581,"ike":4582,"ĠlÃ¤nger":4583,"inder":4584,"iple":4585,"Ġhinzu":4586,"Ġsolve":4587,"Ġtraining":4588,"Ġpredict":4589,"Ġconscious":4590,"Ġinfe":4591,"uchs":4592,"Ġumf":4593,"Ġfunction":4594,"Ġgroups":4595,"Ġprotect":4596,"tr":4597,"Ġske":4598,"Ġinn":4599,"Ġgenommen":4600,"Ġgraph":4601,"gte":4602,"orge":4603,"Ġtowards":4604,"Ġschmer":4605,"Ġcompet":4606,"Ġsounds":4607,"lassen":4608,"Ġmr":4609,"Ġdied":4610,"ussen":4611,"Ġriver":4612,"ada":4613,"Ġurspr":4614,"Ġhinein":4615,"ĠkÃ¤m":4616,"Ã¶rter":4617,"Ġcharacter":4618,"Ġerwachsen":4619,"ship":4620,"Ġfacebook":4621,"Ġvereinigten":4622,"back":4623,"icher":4624,"Ġken":4625,"aul":4626,"Ġlived":4627,"Ġquad":4628,"inner":4629,"Ġstrom":4630,"Ġmotor":4631,"Ġchris":4632,"Ġsuddenly":4633,"Ġhospital":4634,"ziert":4635,"Ġere":4636,"itor":4637,"anda":4638,"abet":4639,"Ġgeschrieben":4640,"Ġbestimmt":4641,"Ġschneller":4642,"ĠÃ¤hnlich":4643,"Ġindeed":4644,"Ġspirit":4645,"Ġfurther":4646,"lim":4647,"adem":4648,"oose":4649,"Ġvoraus":4650,"Ġgeschieht":4651,"ĠrealitÃ¤t":4652,"Ġgleichzeitig":4653,"Ġschools":4654,"Ġsorgen":4655,"ĠunterstÃ¼tz":4656,"Ġdomin":4657,"Ġdruck":4658,"ĠmÃ¼":4659,"Ġansehen":4660,"vert":4661,"ibr":4662,"Ã¤ndert":4663,"Ġjahrze":4664,"Ġevidence":4665,"Ġirgende":4666,"Ġoxy":4667,"Ġscreen":4668,"ped":4669,"viel":4670,"Ġfisch":4671,"itch":4672,"Ġimpl":4673,"Ġspan":4674,"Ġsecurity":4675,"Ġtrotzdem":4676,"Ġeuropa":4677,"Ġsuggest":4678,"iate":4679,"kn":4680,"krie":4681,"Ġ?":4682,"ĠÂ":4683,"Ġsob":4684,"bew":4685,"Ġnormalerweise":4686,"Ġmessage":4687,"jenigen":4688,"Ġgern":4689,"Ġgang":4690,"pped":4691,"ously":4692,"Ġbrand":4693,"akes":4694,"arbeiten":4695,"Ġprojects":4696,"Ġwalking":4697,"Ġrechts":4698,"Ġparticularly":4699,"Ġbatter":4700,"Ġwachstum":4701,"este":4702,"ishing":4703,"entliche":4704,"iers":4705,"Ġtragen":4706,"Ġliegen":4707,"fel":4708,"hre":4709,"Ġsport":4710,"ikel":4711,"Ġtraum":4712,"Ġcapital":4713,"Ġeinfluss":4714,"ming":4715,"Ġcross":4716,"ellow":4717,"fÃ¼hr":4718,"ĠÃ¶k":4719,"ĠstraÃŁe":4720,"Ġeinzelne":4721,"Ġergebnis":4722,"satz":4723,"Ġtend":4724,"Ġsource":4725,"ston":4726,"Ġvac":4727,"unately":4728,"Ġmachten":4729,"ford":4730,"Ġaw":4731,"Ġbakter":4732,"Ġnennt":4733,"aly":4734,"Ġerschein":4735,"indern":4736,"Ġonto":4737,"Ġzweit":4738,"Ġpassion":4739,"ffee":4740,"Ġextraord":4741,"ror":4742,"Ġsent":4743,"ichter":4744,"Ġnotice":4745,"Ġgrad":4746,"Ġerkennt":4747,"ĠfÃ¤higkeiten":4748,"Ġgesamte":4749,"Ġdanger":4750,"Ġbacter":4751,"urg":4752,"Ġdiv":4753,"Ġalgorith":4754,"Ġneun":4755,"Ġgesprochen":4756,"Ã¤tzen":4757,"Ġkomp":4758,"Ġparad":4759,"Ġsonne":4760,"Ġintellig":4761,"bildung":4762,"ieso":4763,"Ġeverywhere":4764,"Ġanyway":4765,"Ġbasic":4766,"Ġbewegt":4767,"Ġdramat":4768,"ipl":4769,"Ġtv":4770,"esh":4771,"rad":4772,"Ġvert":4773,"Ġscientific":4774,"Ġmist":4775,"ctors":4776,"abhÃ¤ng":4777,"Ġstarts":4778,"here":4779,"ores":4780,"Ġangel":4781,"Ã¼ssel":4782,"Ġprakt":4783,"Ġbuchst":4784,"Ġtotally":4785,"Ġargument":4786,"Ġfundamental":4787,"Ġhyp":4788,"Ġbee":4789,"ĠmitgefÃ¼hl":4790,"Ġstudie":4791,"Ġwichtiger":4792,"Ġlikely":4793,"Ġherauszufinden":4794,"iber":4795,"Ġsus":4796,"Ġanges":4797,"Ġsearch":4798,"Ġvergessen":4799,"Ġbegannen":4800,"Ġmine":4801,"Ġlag":4802,"ometer":4803,"Ġcarry":4804,"kop":4805,"Ġsepar":4806,"Ġdeine":4807,"flict":4808,"Ġexamples":4809,"Ġcoun":4810,"ĠauÃŁerdem":4811,"Ġentscheidungen":4812,"Ġvillage":4813,"lauf":4814,"sa":4815,"zte":4816,"Ġking":4817,"Ġschau":4818,"Ġgeheim":4819,"Ġquality":4820,"pfer":4821,"Ġcheck":4822,"Ġwichtige":4823,"more":4824,"ĠĊ":4825,"Ġdete":4826,"Ġdachten":4827,"Ġcamera":4828,"Ġteachers":4829,"ultural":4830,"Ġmission":4831,"Ġeinzelnen":4832,"ength":4833,"Ġdadurch":4834,"lungen":4835,"tter":4836,"uellen":4837,"Ġcat":4838,"Ġcit":4839,"Ġverurs":4840,"ĠgefÃ¼":4841,"Ġkonzept":4842,"lied":4843,"erstoff":4844,"ĠoberflÃ¤che":4845,"Ġsquare":4846,"ĠÃ¼brigens":4847,"Ġsele":4848,"Ġmovie":4849,"Ġdeliver":4850,"cen":4851,"Ġdinos":4852,"Ġgearbeitet":4853,"Ġmoved":4854,"Ġready":4855,"Ġclean":4856,"Ġschulen":4857,"Ġhoffnung":4858,"Ġaufmerksamkeit":4859,"gru":4860,"Ã¶sen":4861,"Ġschaut":4862,"Ġtrack":4863,"Ġspezie":4864,"Ġgutes":4865,"Ġelement":4866,"ĠbÃ¼ro":4867,"Ġapart":4868,"kom":4869,"room":4870,"ragt":4871,"Ġnachrichten":4872,"ological":4873,"Ġobjekt":4874,"Ġshowing":4875,"Ġfinde":4876,"Ġindustrie":4877,"Ġmemory":4878,"Ġbeobachten":4879,"Ġdemocracy":4880,"Ġphilosoph":4881,"Ġlose":4882,"rage":4883,"Ġnuclear":4884,"Ġbirth":4885,"ny":4886,"Ġwol":4887,"Ġseiten":4888,"ĠverstÃ¤nd":4889,"Ġverfol":4890,"Ġrat":4891,"Ġress":4892,"Ġprogress":4893,"Ġnahe":4894,"Ġwussten":4895,"legt":4896,"Ġimmed":4897,"Ġcontext":4898,"Ġenth":4899,"Ġkannst":4900,"Ġcomplic":4901,"Ġregeln":4902,"Ġbiggest":4903,"Ġcentral":4904,"Ġeffic":4905,"Ġmodels":4906,"Ġcrazy":4907,"Ġbeziehung":4908,"Ġkreativ":4909,"Ġetc":4910,"bi":4911,"fs":4912,"Ġnachhalt":4913,"Ġirgendw":4914,"Ġrestaur":4915,"Ġexciting":4916,"Ġextremely":4917,"Ġneighbor":4918,"mp":4919,"ural":4920,"schw":4921,"Ġblau":4922,"Ġrain":4923,"Ġpoll":4924,"Ġpolitik":4925,"Ġindustr":4926,"Ġzero":4927,"nehmer":4928,"Ġfertig":4929,"icle":4930,"esehen":4931,"Ġplants":4932,"Ġeventually":4933,"amerik":4934,"Ġdemokratie":4935,"Ġozean":4936,"Ġrepresent":4937,"Ġactiv":4938,"Ġcreative":4939,"Ġcris":4940,"Ġ150":4941,"Ġparticip":4942,"Ġharv":4943,"Ġemotion":4944,"Ġnerv":4945,"Ġvortrag":4946,"oten":4947,"Ġbreat":4948,"Ġbaum":4949,"Ġep":4950,"irm":4951,"etic":4952,"Ġrece":4953,"Ġfeuer":4954,"spe":4955,"Ġprec":4956,"teilen":4957,"Ġtrees":4958,"Ġsozialen":4959,"Ġanschauen":4960,"Ġignor":4961,"lter":4962,"Ġniger":4963,"ami":4964,"ĠmÃ¶glichen":4965,"Ġ400":4966,"Ġverlassen":4967,"Ġchemical":4968,"Ġjourney":4969,"feren":4970,"ĠgroÃŁer":4971,"Ġfreed":4972,"gendes":4973,"Ġsupposed":4974,"Ġleader":4975,"like":4976,"Ġbestimmten":4977,"Ġbemerken":4978,"tte":4979,"ieden":4980,"Ġburn":4981,"aster":4982,"antly":4983,"Ġwants":4984,"Ġpassierte":4985,"ĠÃ¶ffentlich":4986,"zeichnet":4987,"rate":4988,"ĠsÃ¤":4989,"recht":4990,"ickt":4991,"Ġauswirk":4992,"Ġmonat":4993,"Ġgruppen":4994,"ĠgrÃ¼nde":4995,"Ġdorf":4996,"fore":4997,"ĠstÃ¤ndig":4998,"Ġwaste":4999,"Ġdoor":5000,"Ġusually":5001,"Ġtransl":5002,"ĠbevÃ¶lkerung":5003,"isions":5004,"Ã¤chen":5005,"indest":5006,"Ġtrick":5007,"ĠgroÃŁes":5008,"Ġimposs":5009,"ĠgerÃ¤t":5010,"Ġversuchte":5011,"ĠbÃ¼cher":5012,"rÃ¼":5013,"vention":5014,"sth":5015,"Ġbein":5016,"ĠÃ¤lter":5017,"Ġessentially":5018,"Ġcitiz":5019,"ery":5020,"Ġzugang":5021,"Ġheut":5022,"ables":5023,"Ġsomehow":5024,"Ġfirmen":5025,"Ġurban":5026,"Ġindividuals":5027,"Ġprotot":5028,"gleich":5029,"wert":5030,"Ġsahen":5031,"Ġsafe":5032,"ourcen":5033,"Ġorganization":5034,"Ġskin":5035,"ĠnÃ¤her":5036,"Ġanaly":5037,"Ġkontrolle":5038,"Ġwashington":5039,"Ġsobald":5040,"onse":5041,"Ġjud":5042,"Ġconflict":5043,"Ġsitzen":5044,"hungen":5045,"Ġsad":5046,"Ġfill":5047,"Ġnan":5048,"Ġliber":5049,"ĠspaÃŁ":5050,"Ġarme":5051,"Ġsomewhere":5052,"Ġmonaten":5053,"Ġlargest":5054,"Ġreturn":5055,"zusch":5056,"ham":5057,"Ġbang":5058,"Ġlapt":5059,"Ġgoal":5060,"iding":5061,"Ġtrial":5062,"aking":5063,"Ġgrew":5064,"round":5065,"verty":5066,"Ġgesetz":5067,"Ġteen":5068,"Ġselts":5069,"Ġtranspar":5070,"Ġinteressante":5071,"Ġkarte":5072,"Ġingen":5073,"Ġreaktion":5074,"Ġdog":5075,"Ġactivity":5076,"Ġmagaz":5077,"schluss":5078,"dro":5079,"asen":5080,"Ã¤gt":5081,"Ġmeant":5082,"Ġzeug":5083,"Ġzumindest":5084,"Ġirgendwo":5085,"Ġresponse":5086,"Ġteacher":5087,"Ġhigher":5088,"miss":5089,"Ġbase":5090,"ley":5091,"Ġreport":5092,"Ġabend":5093,"Ġdenkt":5094,"Ġgehe":5095,"essed":5096,"Ġatom":5097,"Ġdepression":5098,"Ġquant":5099,"Ġperspect":5100,"Ġwait":5101,"schlag":5102,"Ġsatell":5103,"Ġobjects":5104,"Ġschreck":5105,"Ġpush":5106,"tex":5107,"oming":5108,"Ġnachbar":5109,"Ġstudien":5110,"Ġaccount":5111,"Ġluck":5112,"Ġrichtigen":5113,"Ġpapier":5114,"Ġprivate":5115,"Ġviolence":5116,"ses":5117,"ĠwÃ¶rter":5118,"Ġlower":5119,"eless":5120,"Ġ2000":5121,"Ġzweiten":5122,"Ġbessere":5123,"Ġconnected":5124,"Ġbleibt":5125,"Ġfavorite":5126,"Ġimpossible":5127,"asa":5128,"Ġaufgrund":5129,"Ġchoose":5130,"Ġgeschehen":5131,"Ġpoverty":5132,"Ġwatching":5133,"Ġcollabor":5134,"Ġservice":5135,"windigkeit":5136,"Ġtaten":5137,"Ġthreat":5138,"Ġberg":5139,"Ġfoss":5140,"Ġlat":5141,"Ġcause":5142,"ilities":5143,"Ġdoctor":5144,"Ġassum":5145,"weisen":5146,"Ġgebiet":5147,"Ġkeiner":5148,"Ġverlieren":5149,"Ġdefinition":5150,"Ġgrenzen":5151,"30":5152,"over":5153,"wÃ¼r":5154,"Ġuhr":5155,"Ġunfort":5156,"Ġerg":5157,"Ġspre":5158,"ikation":5159,"nete":5160,"Ġrole":5161,"Ġlandes":5162,"Ġappear":5163,"Ġsorts":5164,"wasser":5165,"Ġswe":5166,"Ġbon":5167,"Ġbunch":5168,"ativen":5169,"ĠhÃ¤uf":5170,"Ġcook":5171,"Ġzivil":5172,"Ġworse":5173,"Ġplat":5174,"Ġglass":5175,"front":5176,"Ġcontinue":5177,"Ġmental":5178,"Ġtur":5179,"Ġker":5180,"Ġorte":5181,"Ġmenschheit":5182,"Ġfaster":5183,"Ġprofessor":5184,"mann":5185,"Ġmember":5186,"Ġgift":5187,"ĠkÃ¼r":5188,"ott":5189,"uchten":5190,"Ġconstru":5191,"Ġadult":5192,"Ġthanks":5193,"Ġphysik":5194,"yle":5195,"chend":5196,"Ġpet":5197,"Ġsohn":5198,"Ġclin":5199,"Ġnamed":5200,"Ġresults":5201,"dom":5202,"ober":5203,"Ġabove":5204,"odies":5205,"werfen":5206,"Ġbuildings":5207,"Ġbeispiele":5208,"ĠberÃ¼":5209,"Ġminds":5210,"tember":5211,"masch":5212,"Ġcrisis":5213,"Ġaids":5214,"Ġangef":5215,"Ġinstall":5216,"Ġanalys":5217,"ios":5218,"lei":5219,"edia":5220,"Ġstamm":5221,"amin":5222,"Ġleider":5223,"abl":5224,"Ġmale":5225,"Ġenj":5226,"Ġproduzieren":5227,"Ã¤umen":5228,"Ġtel":5229,"Ġwife":5230,"Ġhop":5231,"Ġdiejenigen":5232,"erei":5233,"Ġverletz":5234,"Ġexpress":5235,"Ġarmut":5236,"Ġleaders":5237,"Ġerlaubt":5238,"ĠschÃ¼ler":5239,"Ġextraordinary":5240,"ding":5241,"kle":5242,"lern":5243,"pfl":5244,"Ã¤hlt":5245,"ements":5246,"umm":5247,"Ġtagen":5248,"Ġvielf":5249,"Ġstanding":5250,"ĠuniversitÃ¤t":5251,"Ġafrikan":5252,"Ġrichard":5253,"Ġelectricity":5254,"Ġmedicine":5255,"Ġnachzudenken":5256,"ai":5257,"bil":5258,"machen":5259,"stet":5260,"Ġfine":5261,"orben":5262,"ĠzufÃ¤":5263,"Ġdoc":5264,"Ġorten":5265,"Ġbegri":5266,"Ġcontent":5267,"Ġpoints":5268,"Ġafrican":5269,"Ġsignal":5270,"ĠhÃ¶her":5271,"Ġbilden":5272,"ĠÂ»":5273,"ued":5274,"Ġmention":5275,"atory":5276,"Ġblo":5277,"Ġboard":5278,"Ġolder":5279,"Ġallowed":5280,"pend":5281,"ufen":5282,"Ġstol":5283,"ulate":5284,"Ġvorstell":5285,"Ġtrag":5286,"Ġlarger":5287,"Ġtwitter":5288,"Ġconcern":5289,"aw":5290,"gere":5291,"zig":5292,"itung":5293,"isation":5294,"Ġgewe":5295,"ensive":5296,"Ġgewinnen":5297,"Ġauthor":5298,"Ġbrains":5299,"ĠerzÃ¤hlt":5300,"Ġverbessern":5301,"ka":5302,"Â«":5303,"Ġwhe":5304,"Ġdahin":5305,"Ġshown":5306,"Ġremark":5307,"Ġsignific":5308,"Ġcalcul":5309,"ĠmolekÃ¼":5310,"ĠerhÃ¶":5311,"bung":5312,"yl":5313,"Ġwik":5314,"Ġfit":5315,"Ġine":5316,"Ġfranc":5317,"Ġpersonen":5318,"Ġmagic":5319,"ĠhÃ¶ch":5320,"Ġsymmet":5321,"Ġsuccessful":5322,"Ġarbeitete":5323,"Ġcomplicated":5324,"Ġfreedom":5325,"Ġphen":5326,"Ġhaut":5327,"Ġalth":5328,"Ġgesp":5329,"Ġamb":5330,"Ġstudies":5331,"Ġmagnet":5332,"Ġproducts":5333,"Ġtausende":5334,"Ġaussieht":5335,"Ġdiscuss":5336,"Ġspezies":5337,"Ġsekunden":5338,"wick":5339,"Ġpage":5340,"Ġgekommen":5341,"Ġgenes":5342,"ounds":5343,"Ġautomat":5344,"Ġcommunities":5345,"Ġdrug":5346,"Ġvict":5347,"Ġkern":5348,"Ã¶st":5349,"ĠauÃŁen":5350,"Ġkonfl":5351,"Ġverbinden":5352,"Ġbehau":5353,"Ġprofit":5354,"Ġkilled":5355,"Ġleidenschaft":5356,"Ġvergangenheit":5357,"dig":5358,"Ġ$":5359,"Ġten":5360,"Ġtown":5361,"ctive":5362,"Ġrund":5363,"Ġworte":5364,"weis":5365,"Ġtherefore":5366,"ĠgrÃ¼":5367,"Ġtrade":5368,"Ġdritte":5369,"Ġ35":5370,"Ġbabies":5371,"Ġebene":5372,"ĠgroÃŁartig":5373,"Ġcrow":5374,"ĠunmÃ¶glich":5375,"umen":5376,"Ġattra":5377,"Ġgespr":5378,"ĠgroÃŁartige":5379,"Ġintelle":5380,"Ġaffect":5381,"Ġsynth":5382,"Ġconvin":5383,"Ġincluding":5384,"Ġalthough":5385,"uern":5386,"Ġsite":5387,"Ġgere":5388,"artet":5389,"Ġsod":5390,"ologen":5391,"ruption":5392,"Ġfinding":5393,"Ġgebracht":5394,"Ġtells":5395,"Ġfinanc":5396,"Ġforms":5397,"Ġpresident":5398,"legenheit":5399,"Ġbiology":5400,"Ġinfluen":5401,"kommt":5402,"ov":5403,"wart":5404,"ĠunabhÃ¤ng":5405,"imin":5406,"iste":5407,"Ġnachricht":5408,"Ġarbeitet":5409,"Ġseries":5410,"Ġpieces":5411,"Ġvoller":5412,"Ġvari":5413,"Ġmobil":5414,"ĠprÃ¤sent":5415,"bu":5416,"rÃ¤n":5417,"ubl":5418,"Ġtree":5419,"ĠwÃ¼n":5420,"Ġnenne":5421,"Ġcases":5422,"Ġlehr":5423,"Ġsecret":5424,"Ġconditions":5425,"ĠernÃ¤hr":5426,"Ġincreasing":5427,"Ġtaught":5428,"iately":5429,"Ġnut":5430,"Ġka":5431,"Ġentsch":5432,"Ġpolicy":5433,"Ġfamilies":5434,"Ã¼nft":5435,"mode":5436,"Ġengland":5437,"Ġkrankheiten":5438,"Ġclearly":5439,"Ġoriginal":5440,"Ġimprov":5441,"Ġintrodu":5442,"Ġah":5443,"Ġastr":5444,"techn":5445,"Ġverst":5446,"Ġerzeugen":5447,"Ġdenk":5448,"Ġimm":5449,"Ġdarwin":5450,"ĠflÃ¼":5451,"Ġsprachen":5452,"Ġreading":5453,"Ġretten":5454,"Ġallows":5455,"Ġemotional":5456,"Ġtraditional":5457,"buch":5458,"lier":5459,"Ġkaum":5460,"Ġalte":5461,"ums":5462,"Ġheil":5463,"Ġshift":5464,"Ġupon":5465,"Ġbrief":5466,"Ġbefinden":5467,"Ġended":5468,"Ġstraight":5469,"Ġwestern":5470,"Ġgesamten":5471,"Ġentscheidung":5472,"ius":5473,"Ġvul":5474,"Ġwechsel":5475,"Ġsowohl":5476,"izations":5477,"Ġhowever":5478,"Ġrights":5479,"Ġwirklichkeit":5480,"Ġposit":5481,"Ġrunter":5482,"will":5483,"ĠwÃ¼":5484,"Ġgal":5485,"Ġcold":5486,"Ġbezug":5487,"Ġabstra":5488,"Ġactual":5489,"Ġkomb":5490,"Ġsurger":5491,"Ã¼hne":5492,"Ġmolec":5493,"Ġintelligent":5494,"schritt":5495,"Ġalive":5496,"Ġprison":5497,"Ġparty":5498,"Ġstars":5499,"Ġentweder":5500,"Ġzusammenh":5501,"pected":5502,"Ġsmaller":5503,"Ġexcited":5504,"Ġafford":5505,"Ġintens":5506,"Ġtoile":5507,"Ġangeb":5508,"inken":5509,"ured":5510,"Ġaddr":5511,"ghter":5512,"Ġmeeting":5513,"Ġperspective":5514,"20":5515,"dessen":5516,"ĠÃ¤u":5517,"ĠtÃ¤":5518,"Ġepid":5519,"unt":5520,"Ġwohn":5521,"board":5522,"Ġmassive":5523,"Ġlinie":5524,"Ġmountain":5525,"Ġtherap":5526,"Ġantworten":5527,"Ġressourcen":5528,"dimens":5529,"ingu":5530,"Ġmond":5531,"Ġdecision":5532,"Ġchines":5533,"attle":5534,"Ġdepend":5535,"stoffe":5536,"Ġdistrib":5537,"Ġindustrial":5538,"zwe":5539,"Ã¼gen":5540,"verse":5541,"ulpt":5542,"uster":5543,"Ġmachines":5544,"Ġkept":5545,"Ġtraf":5546,"Ġsolchen":5547,"Ġgefragt":5548,"Ġeffort":5549,"Ġtruly":5550,"Ġcritical":5551,"Ġpurp":5552,"Ġfrancis":5553,"mÃ¤ÃŁ":5554,"pret":5555,"lebr":5556,"ierter":5557,"nein":5558,"astrop":5559,"Ġlaunch":5560,"Ġseconds":5561,"ĠfÃ¼hrte":5562,"Ġbestimmte":5563,"Ġfantastic":5564,"Ġoccur":5565,"Ġphenomen":5566,"anke":5567,"Ġstock":5568,"Ġrid":5569,"Ġext":5570,"Ġdesp":5571,"assung":5572,"werke":5573,"Ġeinzig":5574,"Ġwritten":5575,"Ġcolleag":5576,"Ġrespond":5577,"Ġebenso":5578,"Ġtreatment":5579,"Ġincrease":5580,"Ġingenie":5581,"col":5582,"hi":5583,"Ġwieso":5584,"Ġmessen":5585,"iegel":5586,"ĠhÃ¤nde":5587,"Ġcard":5588,"Ġzit":5589,"Ġran":5590,"Ġlebt":5591,"Ġhimself":5592,"Ġbeweg":5593,"Ġflugzeug":5594,"hyth":5595,"Ġmedikam":5596,"Ġdeter":5597,"itude":5598,"arf":5599,"Ġlust":5600,"Ġham":5601,"icians":5602,"imal":5603,"Ġindian":5604,"Ġclim":5605,"Ġregierungen":5606,"Ġpolice":5607,"Ġbeings":5608,"Ġcheap":5609,"Ġamerikaner":5610,"Ġbewusstsein":5611,"Ġdescri":5612,"Ġrecognize":5613,"ises":5614,"altet":5615,"Ġweight":5616,"Ġnotwend":5617,"Ġprice":5618,"Ġerfahren":5619,"Ġ45":5620,"licherweise":5621,"Ġentdecken":5622,"Ġriesige":5623,"Ġveh":5624,"Ġmilitary":5625,"Ġmethod":5626,"Ġepidem":5627,"Ġtheorie":5628,"aria":5629,"Ġles":5630,"Ġabge":5631,"play":5632,"ĠberÃ¼h":5633,"Ġmathematik":5634,"Ġamerikanischen":5635,"Ġvertrauen":5636,"Ġsammeln":5637,"ech":5638,"vision":5639,"esse":5640,"Ã¤hlen":5641,"Ġallgemein":5642,"Ġspect":5643,"Ġfrieden":5644,"Ġanywhere":5645,"Ġdritten":5646,"Ġgradu":5647,"Ġenvironmental":5648,"Ġfreiheit":5649,"Ġprovide":5650,"Ġdrugs":5651,"ĠgeschÃ¤fts":5652,"impan":5653,"Ġverstanden":5654,"Ġconversation":5655,"Ġunfortunately":5656,"pfe":5657,"Ġlines":5658,"Ġdasselbe":5659,"Ġentschieden":5660,"Ġmuslim":5661,"Ġbisher":5662,"Ġgerman":5663,"Ġthroughout":5664,"riere":5665,"Ġgreater":5666,"Ġkrit":5667,"Ġspecific":5668,"Ġsinne":5669,"Ġassoc":5670,"holen":5671,"Ġuntersuchen":5672,"Ġmaschinen":5673,"Ġehrlich":5674,"Ġteles":5675,"Ġisol":5676,"Ġstore":5677,"Ġwarten":5678,"ĠprÃ¤":5679,"Ġanymore":5680,"ĠgefÃ¤ng":5681,"Ġslight":5682,"Ġskills":5683,"Ġexpensive":5684,"ca":5685,"hil":5686,"Ġpassen":5687,"iced":5688,"Ġerleben":5689,"Ġleisten":5690,"Ġcha":5691,"isms":5692,"Ġearlier":5693,"Ġbedro":5694,"Ġrobots":5695,"Ã¤usch":5696,"Ġelektron":5697,"Ġpatterns":5698,"Ġintelligence":5699,"pol":5700,"time":5701,"stes":5702,"ĠfÃ¶r":5703,"Ġinnen":5704,"Ġcru":5705,"Ġkol":5706,"seit":5707,"osm":5708,"Ġkonsum":5709,"Ġfallen":5710,"Ġvideos":5711,"Ġhilft":5712,"Ġbacteria":5713,"Ġthrow":5714,"Ġeinander":5715,"Ġweib":5716,"indung":5717,"ĠschÃ¶":5718,"hey":5719,"Ġhandeln":5720,"Ġsolutions":5721,"Ġniedr":5722,"Ġkampf":5723,"program":5724,"Ġnetwor":5725,"Ġmobile":5726,"kar":5727,"Ġmel":5728,"ossen":5729,"Ġfac":5730,"glicht":5731,"Ġtelefon":5732,"Ġbeobach":5733,"Ġschmerz":5734,"Ġsodass":5735,"uck":5736,"wers":5737,"Ġod":5738,"ĠlÃ¤uft":5739,"Ġuner":5740,"Ġspiele":5741,"ulf":5742,"Ġsubst":5743,"Ġtax":5744,"Ġmont":5745,"Ġsimpl":5746,"Ġschlimm":5747,"Ġwelcher":5748,"Ġhimmel":5749,"altung":5750,"Ġexplor":5751,"ĠhÃ¶he":5752,"Ġarchitecture":5753,"Ġbudget":5754,"ĠermÃ¶glicht":5755,"ĠursprÃ¼n":5756,"Ġbakterien":5757,"iat":5758,"ration":5759,"Ġtanz":5760,"Ġdivers":5761,"erences":5762,"Ġgebra":5763,"Ġgeburt":5764,"Ġcontrib":5765,"Ġbenutz":5766,"Ġfinal":5767,"Ġamericans":5768,"afrik":5769,"ĠgrÃ¼nden":5770,"gal":5771,"ners":5772,"Ġmad":5773,"Ġtheater":5774,"Ġpak":5775,"Ġkore":5776,"Ġarzt":5777,"Ġworry":5778,"ĠÃ¼bertra":5779,"Ã¤hig":5780,"Ã¤user":5781,"Ġservices":5782,"Ġkrankenhaus":5783,"ingungen":5784,"Ġsep":5785,"indust":5786,"seits":5787,"Ġnummer":5788,"ĠauÃŁerhalb":5789,"Ġstaat":5790,"Ġpainting":5791,"Ġletztes":5792,"Ġimmediately":5793,"hm":5794,"Ġfangen":5795,"ittel":5796,"org":5797,"ĠlÃ¤ch":5798,"Ġunf":5799,"Ġabsch":5800,"ille":5801,"Ġspielt":5802,"abel":5803,"Ġgestellt":5804,"Ġshot":5805,"platz":5806,"Ġemploy":5807,"ergie":5808,"Ġfamiliar":5809,"stÃ¤ndig":5810,"Ġintu":5811,"Ġpractice":5812,"Ġmethode":5813,"hem":5814,"mat":5815,"Ġnone":5816,"ims":5817,"Ġexisten":5818,"Ġdeswegen":5819,"Ġherunter":5820,"uted":5821,"Ġzeigte":5822,"Ġwilling":5823,"Ġfluss":5824,"grÃ¶ÃŁ":5825,"Ġgreatest":5826,"Ġglobalen":5827,"Ġhealthy":5828,"Ġprinc":5829,"Ġcosts":5830,"Ġordnung":5831,"Ġauswirkungen":5832,"vant":5833,"Ġtour":5834,"ino":5835,"ica":5836,"ilien":5837,"Ġrise":5838,"Ġentstand":5839,"Ġgenome":5840,"Ġinterpret":5841,"Ġuntersche":5842,"Ġherausfinden":5843,"Ġwaiting":5844,"Ġergebnisse":5845,"Ġbetrachtet":5846,"kur":5847,"oke":5848,"ĠdÃ¼r":5849,"Ã¤te":5850,"etze":5851,"Ġverme":5852,"Ġrange":5853,"antwor":5854,"Ġherstellen":5855,"ierende":5856,"Ġbefindet":5857,"Ġexpand":5858,"ĠerzÃ¤hlte":5859,"Ġrespect":5860,"ĠÃ¶ffentlichen":5861,"Ġentdeckt":5862,"ĠverrÃ¼ckt":5863,"Ġcelebr":5864,"ĠhÃ¶rte":5865,"mark":5866,"Ġtor":5867,"Ġeinkommen":5868,"throp":5869,"Ġdarf":5870,"Ġfamous":5871,"Ġhumanity":5872,"Ġeffiz":5873,"Ġerstens":5874,"Ġlistening":5875,"Ġdetails":5876,"bet":5877,"zimmer":5878,"Ġmig":5879,"Ġban":5880,"lex":5881,"Ã¤nden":5882,"Ġbrust":5883,"gesetzt":5884,"Ġhotel":5885,"Ġsysteme":5886,"Ġgrav":5887,"Ġbeauty":5888,"Ġplastic":5889,"Ġgeschaffen":5890,"ĠzunÃ¤chst":5891,"industrie":5892,"frie":5893,"iell":5894,"Ġhart":5895,"ĠhÃ¤lt":5896,"stud":5897,"Ġzustand":5898,"ffic":5899,"Ġbecoming":5900,"stelle":5901,"Ġhandelt":5902,"arbeiter":5903,"Ġenglisch":5904,"mitteln":5905,"Ġengineering":5906,"Ġinstrument":5907,"Ġcurrent":5908,"Ġseptember":5909,"ec":5910,"Ġbodies":5911,"Ġnahrung":5912,"ara":5913,"ĠkÃ¤":5914,"ico":5915,"Ġanwend":5916,"scht":5917,"Ġschne":5918,"mend":5919,"Ġzeitpunkt":5920,"ĠÃ¶kon":5921,"Ġelectron":5922,"Ġfotos":5923,"Ġgenetic":5924,"ĠunterstÃ¼tzen":5925,"Ġereign":5926,"passen":5927,"Ġgh":5928,"Ġfen":5929,"Ġkm":5930,"Ġeinzu":5931,"Ġjump":5932,"Ġauft":5933,"acity":5934,"schiede":5935,"Ġstrange":5936,"Ġkamera":5937,"Ġdecisions":5938,"teilung":5939,"Ġphysics":5940,"Ġbestehen":5941,"Ġgovernments":5942,"Ġphotos":5943,"Ġgolf":5944,"Ġfinancial":5945,"Ġbib":5946,"ette":5947,"rochen":5948,"Ġlegs":5949,"Ġcomfort":5950,"Ġweren":5951,"Ġame":5952,"ĠphÃ¤n":5953,"Ġliebl":5954,"Ġklin":5955,"Ġincome":5956,"Ã¼tter":5957,"Ġfotograf":5958,"Ġaddress":5959,"ĠmÃ¤cht":5960,"Ġhem":5961,"Ġcry":5962,"leist":5963,"ams":5964,"Ġforget":5965,"Ã¼ss":5966,"Ġmalaria":5967,"Ġgrundlegen":5968,"Ġverkaufen":5969,"Ġvarious":5970,"Ġinteresse":5971,"Ġultim":5972,"ĠwÃ¤hlen":5973,"Ġalternative":5974,"nam":5975,"zunehmen":5976,"ining":5977,"repr":5978,"osition":5979,"Ġmyster":5980,"iesen":5981,"Ġshar":5982,"Ġloved":5983,"Ġemail":5984,"Ġiron":5985,"ssystem":5986,"Ġneurons":5987,"Ġwundersch":5988,"Ġwunderbar":5989,"Ġkollegen":5990,"Ġtumor":5991,"frieden":5992,"Ġhang":5993,"Ġiniti":5994,"Ġmehrere":5995,"Ġproduction":5996,"Ġremind":5997,"ĠerwÃ¤h":5998,"Ġelectr":5999,"Ġcitizens":6000,"Ġenjoy":6001,"ikt":6002,"sweise":6003,"inter":6004,"Ġweap":6005,"Ġrule":6006,"Ġmanip":6007,"barkeit":6008,"Ġfarbe":6009,"Ġhunderte":6010,"Ġfolgendes":6011,"ĠauÃŁergewÃ¶hn":6012,"Ġlevels":6013,"volle":6014,"Ġtask":6015,"blich":6016,"nungen":6017,"ieÃŁ":6018,"entwick":6019,"iling":6020,"ctures":6021,"Ġimmun":6022,"Ġausl":6023,"Ġfrustr":6024,"Ġreser":6025,"Ġdrink":6026,"Ġdriving":6027,"grÃ¼nd":6028,"Ġberuf":6029,"Ġtypes":6030,"Ġvalues":6031,"Ġeffective":6032,"bit":6033,"iot":6034,"len":6035,"Ġnasa":6036,"aries":6037,"alog":6038,"ago":6039,"ĠkÃ¶nig":6040,"Ġgetroffen":6041,"Ġartikel":6042,"ivers":6043,"Ġfuel":6044,"Ġkreis":6045,"Ġwalked":6046,"Ġfascin":6047,"Ġorganisation":6048,"Ġnetzwerk":6049,"Ã¤tzlich":6050,"Ġperformance":6051,"Ġencou":6052,"hme":6053,"zÃ¼":6054,"Ã©":6055,"Ġug":6056,"ĠschÃ¼tzen":6057,"âĢĻ":6058,"plant":6059,"Ġselben":6060,"ients":6061,"Ġklasse":6062,"Ġsurve":6063,"Ġeinzigen":6064,"Ġbedeuten":6065,"ĠverÃ¤nderungen":6066,"Ġcreativity":6067,"Ġteaching":6068,"Ġanti":6069,"Ġwinter":6070,"Ġtarget":6071,"Ġneighborhood":6072,"Ġmix":6073,"anter":6074,"stÃ¼ck":6075,"Ġeinstein":6076,"Ġwett":6077,"Ġgebe":6078,"Ġforth":6079,"Ġleid":6080,"antic":6081,"Ġerfahr":6082,"Ġgehirns":6083,"Ġhydro":6084,"Ġbehandlung":6085,"Ġfollowing":6086,"Ġharvard":6087,"Ġangefangen":6088,"Ġ000":6089,"Ġhous":6090,"Ġhair":6091,"Ġerne":6092,"Ġhey":6093,"Ġprior":6094,"Ġlandsc":6095,"ript":6096,"Ġapple":6097,"Ġfoundation":6098,"Ġschlechte":6099,"Ġfortschritt":6100,"ĠlÃ¶sungen":6101,"Ġzweitens":6102,"Ġtiss":6103,"Ġwesen":6104,"sta":6105,"Ġerfor":6106,"Ġshap":6107,"Ġuses":6108,"stehen":6109,"Ġraise":6110,"Ġagric":6111,"ground":6112,"Ġinvented":6113,"Ġterm":6114,"Ã¤sent":6115,"Ġdirection":6116,"ĠbedÃ¼r":6117,"Ġcaliforn":6118,"Ġstimmen":6119,"Ġflying":6120,"Ġschwarz":6121,"Ġeffekt":6122,"Ġdangerous":6123,"ferenz":6124,"erk":6125,"ĠbÃ¼hne":6126,"atives":6127,"Ġhirn":6128,"orgen":6129,"Ġdoctors":6130,"ceed":6131,"Ġdemand":6132,"ained":6133,"Ġnieder":6134,"Ġinvent":6135,"Ġdecade":6136,"Ġwichtigste":6137,"Ġstrug":6138,"Ġerinnere":6139,"Ġsexual":6140,"Ġsorry":6141,"Ġfloor":6142,"ĠverstÃ¤ndnis":6143,"Ġsurgery":6144,"Ġtisch":6145,"Ġschicken":6146,"Ġmyth":6147,"Ġsaving":6148,"Ġherzen":6149,"Ġjahres":6150,"Ġjemandem":6151,"Ġdiagram":6152,"Ġbehaup":6153,"dings":6154,"Ġwald":6155,"anning":6156,"Ġheld":6157,"Ġslide":6158,"Ġmaterie":6159,"Ġpopular":6160,"Ġsummer":6161,"tes":6162,"Ġdance":6163,"Ġhus":6164,"reten":6165,"ĠnÃ¼tz":6166,"Ġhack":6167,"Ġjan":6168,"Ġstunde":6169,"Ġunge":6170,"ags":6171,"Ġhole":6172,"Ġlandwirtschaft":6173,"Ġfrem":6174,"Ġwenige":6175,"Ġ99":6176,"stÃ¤nde":6177,"Ġakzept":6178,"Ġvirtual":6179,"Ġdescrib":6180,"Ġrandom":6181,"ull":6182,"zul":6183,"Ġtes":6184,"Ġille":6185,"esth":6186,"ieÃŁen":6187,"Ġbaut":6188,"rees":6189,"Ġcultural":6190,"Ġunver":6191,"schirm":6192,"key":6193,"Ġchair":6194,"Ġnote":6195,"Ġapply":6196,"Ġbio":6197,"maÃŁ":6198,"Ġgedacht":6199,"Ġcareer":6200,"Ġnegative":6201,"Ġbegeist":6202,"ael":6203,"iest":6204,"ĠhÃ¶rt":6205,"orien":6206,"Ġcust":6207,"Ġschm":6208,"Ġgeorge":6209,"Ġworten":6210,"Ġatl":6211,"hlung":6212,"rifft":6213,"nost":6214,"maÃŁen":6215,"Ġerwarten":6216,"Ġsuche":6217,"Ġebenfalls":6218,"Ġarchitektur":6219,"Ġerstaunlich":6220,"bÃ¼":6221,"wise":6222,"Ġaid":6223,"bewer":6224,"Ġarmen":6225,"Ġgras":6226,"Ġguter":6227,"redit":6228,"Ġfarben":6229,"Ġpolitics":6230,"gefunden":6231,"Ġdiagn":6232,"Ġhonest":6233,"reprene":6234,"bahn":6235,"hib":6236,"Ġdrop":6237,"Ġvalle":6238,"Ġgek":6239,"uls":6240,"Ġselten":6241,"Ġdisapp":6242,"Ġuseful":6243,"Ġglobale":6244,"Ġunglaubliche":6245,"Ġgesundheits":6246,"Ġhyper":6247,"Ġstattdessen":6248,"Ġkilometer":6249,"Ġremarkable":6250,"cies":6251,"pack":6252,"Ġaware":6253,"Ġinj":6254,"Ġjene":6255,"gefÃ¼hrt":6256,"Ġmanuf":6257,"Ġausw":6258,"Ġtrouble":6259,"Ġartist":6260,"ĠfÃ¼hlte":6261,"Ġdecide":6262,"Ġdecades":6263,"Ġconnection":6264,"ĠÃ¶ffnen":6265,"Ġnahmen":6266,"Ġbeziehungen":6267,"Ġverbringen":6268,"Ġpakistan":6269,"Ġcalifornia":6270,"Ġmc":6271,"Ġpaul":6272,"Ġspricht":6273,"Ġausdruck":6274,"Ġgros":6275,"Ġaccept":6276,"Ġboys":6277,"Ġganzes":6278,"Ġinstitutions":6279,"Ġdesto":6280,"Ġuntersuch":6281,"brechen":6282,"han":6283,"Ġahead":6284,"Ġwis":6285,"Ġwood":6286,"Ġfat":6287,"ires":6288,"Ġbezahl":6289,"Ġwealth":6290,"Ġabzu":6291,"Ġdok":6292,"anne":6293,"Ġliste":6294,"weil":6295,"Ġaussch":6296,"Ġconcl":6297,"Ġbru":6298,"Ġbiom":6299,"Ġcharles":6300,"Ġprotein":6301,"ĠmilitÃ¤r":6302,"Ġbalance":6303,"Ġenormous":6304,"ĠphÃ¤nomen":6305,"car":6306,"iated":6307,"prÃ¼":6308,"Ġbestand":6309,"Ġautom":6310,"Ġbroad":6311,"Ġunterschiedliche":6312,"Ġlaws":6313,"ĠkÃ¼rz":6314,"ochen":6315,"rig":6316,"zust":6317,"chem":6318,"Ġhinge":6319,"Ġechte":6320,"Ġosten":6321,"Ġvent":6322,"Ġcommer":6323,"Ġframe":6324,"liegen":6325,"Ġpolize":6326,"Ġschlag":6327,"Ġunderstood":6328,"Ġsocieties":6329,"Ġcondition":6330,"Ġtemperature":6331,"wÃ¤rts":6332,"ym":6333,"ĠmÃ¤r":6334,"ieb":6335,"Ġcatch":6336,"iles":6337,"Ġrechte":6338,"Ġoffic":6339,"Ġinstance":6340,"ĠfÃ¤llt":6341,"Ġkonzentrieren":6342,"Ġheutigen":6343,"Ġmanufact":6344,"ulieren":6345,"Ġtriff":6346,"ielten":6347,"Ġbiologie":6348,"haltung":6349,"Ġsympt":6350,"Ġerfahrungen":6351,"Ġsenten":6352,"Ġbienen":6353,"Ġzo":6354,"Ġschrift":6355,"Ġforces":6356,"Ġentreprene":6357,"Ġkomme":6358,"keiten":6359,"Ġeinfachen":6360,"Ġmostly":6361,"ktionen":6362,"Ġ194":6363,"Ġcommit":6364,"haben":6365,"Ġstatus":6366,"Ġexperiments":6367,"Ġtests":6368,"ĠverfÃ¼g":6369,"Ġbomb":6370,"Ġjahrzehn":6371,"ĠkreativitÃ¤t":6372,"Ġfrancisco":6373,"ĠgefÃ¤ngnis":6374,"ya":6375,"Ġmassen":6376,"iegen":6377,"Ġunique":6378,"ierungs":6379,"seh":6380,"Ġmax":6381,"Ġglam":6382,"Ġprint":6383,"Ġgross":6384,"Ġzeiten":6385,"Ġhelped":6386,"ception":6387,"Ġpossibly":6388,"Ġ75":6389,"gaben":6390,"Ġbirds":6391,"Ġkontakt":6392,"Ġpressure":6393,"Ġmanagement":6394,"piel":6395,"sichtig":6396,"tube":6397,"Ġheat":6398,"Ġsteve":6399,"Ġcloud":6400,"Ġrespekt":6401,"Ġeffects":6402,"Ġvermut":6403,"Ġjahrhunderts":6404,"Ġnetworks":6405,"aign":6406,"Ġ&":6407,"Ġtens":6408,"Ġip":6409,"stag":6410,"Ġkir":6411,"Ġrechten":6412,"gency":6413,"Ġauge":6414,"Ġprojekte":6415,"Ġspaces":6416,"Ġvorbei":6417,"Ġcompon":6418,"Ġideal":6419,"brit":6420,"Ġerfunden":6421,"Ġpatent":6422,"Ġcharakter":6423,"Ġempath":6424,"Ġsurvive":6425,"Ġklimawand":6426,"light":6427,"Ġwid":6428,"Ġwege":6429,"Ġjul":6430,"Ġveran":6431,"Ġgegangen":6432,"berg":6433,"Ġspitze":6434,"Ġwerte":6435,"ahrungs":6436,"Ġseines":6437,"Ġsurround":6438,"Ġstreets":6439,"Ġmaterialien":6440,"geschichte":6441,"Ġbiological":6442,"Ġoperation":6443,"Ġshared":6444,"Ġchallenges":6445,"Ġconference":6446,"Ġtitel":6447,"Ġdirectly":6448,"Ġcampaign":6449,"Ġwikip":6450,"eras":6451,"Ġpy":6452,"arian":6453,"Ġyoutube":6454,"ĠerfÃ¼":6455,"geht":6456,"Ġren":6457,"Ġchir":6458,"Ġdesert":6459,"spra":6460,"Ġgering":6461,"Ġhalb":6462,"Ġeigenschaften":6463,"Ġfeedback":6464,"ĠverfÃ¼gung":6465,"Ġkontin":6466,"Ġverantwortung":6467,"Ġpunkte":6468,"Ġdur":6469,"stadt":6470,"Ġbeteil":6471,"unsch":6472,"eth":6473,"annien":6474,"Ġtex":6475,"Ġwohin":6476,"Ġcoast":6477,"Ġkonstru":6478,"Ã¶rung":6479,"Ġendlich":6480,"Ġ600":6481,"ĠschÃ¶nheit":6482,"minister":6483,"Ġspeaking":6484,"Ġdiseases":6485,"ĠfrÃ¼hen":6486,"Ġcopy":6487,"Ġslightly":6488,"gten":6489,"sie":6490,"iete":6491,"orfen":6492,"usagen":6493,"Ã¶se":6494,"ennung":6495,"Ġworst":6496,"Ġwhose":6497,"Ġfreude":6498,"Ġdesigners":6499,"Ġfunny":6500,"Ġeigenes":6501,"Ġsicherlich":6502,"Ġwichtigsten":6503,"Ġbush":6504,"Ġprofound":6505,"Ġmaster":6506,"Ġterrible":6507,"load":6508,"ĠverhÃ¤lt":6509,"Ġinfrastructure":6510,"Ġaustral":6511,"ippe":6512,"ws":6513,"wenn":6514,"Ġahnung":6515,"atte":6516,"Ġzuh":6517,"ĠkÃ¶nnt":6518,"Ġprevent":6519,"Ġschluss":6520,"ĠnÃ¤chstes":6521,"Ġcapacity":6522,"Ġsozusagen":6523,"Ġcontroll":6524,"Ġherzustellen":6525,"Ġbelow":6526,"Ġbehandeln":6527,"Ġoxygen":6528,"Ġirgendwann":6529,"ĠÃ¤uÃŁ":6530,"Ġdouble":6531,"Ġgall":6532,"ancy":6533,"arter":6534,"raid":6535,"Ġseien":6536,"Ġunbed":6537,"Ġschr":6538,"ests":6539,"Ġmoon":6540,"Ġgeschah":6541,"Ġadapt":6542,"Ġ2008":6543,"Ġallerdings":6544,"Ġprivat":6545,"Ġtwice":6546,"Ġtelevision":6547,"ĠreprÃ¤sent":6548,"rÃ¤ge":6549,"Ġtrifft":6550,"rt":6551,"Ġschutz":6552,"Ġorg":6553,"Ġsommer":6554,"ĠgrÃ¼n":6555,"Ġafraid":6556,"Ġprodukte":6557,"ĠgrÃ¶ÃŁere":6558,"Ġmatch":6559,"Ġextreme":6560,"Ġmarketing":6561,"Ġflex":6562,"Ġkapital":6563,"warum":6564,"Ġentstehen":6565,"ibe":6566,"Ġgent":6567,"ammt":6568,"ĠabhÃ¤ng":6569,"Ġheav":6570,"Ġbub":6571,"Ġspekt":6572,"Ġadop":6573,"Ġzusch":6574,"Ġgehir":6575,"Ġtremend":6576,"Ġsupply":6577,"ĠhÃ¤ufig":6578,"ĠbedÃ¼rf":6579,"Ġvalley":6580,"lose":6581,"ĠbÃ¤ume":6582,"anced":6583,"Ġkulture":6584,"alitÃ¤t":6585,"Ġzelle":6586,"omos":6587,"Ġactive":6588,"Ġmichael":6589,"Ġemiss":6590,"Ġproduced":6591,"Ġschlaf":6592,"Ġrecy":6593,"Ġteams":6594,"Ġamazon":6595,"Ġsauerstoff":6596,"Ġjugend":6597,"Ġ2010":6598,"Ġkontrollieren":6599,"Ġhypoth":6600,"Ġdinosaur":6601,"Ġrestaurant":6602,"Ġeinzigart":6603,"\"-":6604,"ded":6605,"pa":6606,"Ġaster":6607,"ĠwÃ¤r":6608,"Ġtochter":6609,"Ġbeit":6610,"ray":6611,"ĠjÃ¼n":6612,"Ġstabil":6613,"deut":6614,"Ġunc":6615,"schutz":6616,"Ġrhyth":6617,"why":6618,"Ġimagination":6619,"Ġerstes":6620,"Ġjoy":6621,"treten":6622,"Ġinstitute":6623,"Ġdestro":6624,"Ġsnow":6625,"Ġsustainable":6626,"Ġlaptop":6627,"Ġpurpose":6628,"Ġwikipedia":6629,"bur":6630,"bank":6631,"far":6632,"right":6633,"Ġwire":6634,"ĠnÃ¶t":6635,"Ġbeat":6636,"Ġdipl":6637,"thin":6638,"mente":6639,"osc":6640,"Ġconserv":6641,"Ġgeschle":6642,"selben":6643,"Ġresist":6644,"Ġgeschafft":6645,"Ġcauses":6646,"Ġlernte":6647,"Ġatmosphere":6648,"ĠkÃ¤mpfen":6649,"modell":6650,"gle":6651,"pft":6652,"Ġdopp":6653,"Ġbought":6654,"Ġtolle":6655,"pping":6656,"Ġentlang":6657,"Ġcooper":6658,"Ã¼sse":6659,"Ã¤hrt":6660,"Ġeinfacher":6661,"Ġhighly":6662,"Ġwesten":6663,"Ġhaupts":6664,"markt":6665,"Ġcustom":6666,"britannien":6667,"ky":6668,"look":6669,"taus":6670,"inct":6671,"Ġsetz":6672,"Ġmur":6673,"Ġcro":6674,"Ġkennt":6675,"Ġbeantwor":6676,"Ġyellow":6677,"utt":6678,"Ġerzeugt":6679,"Ġgelegenheit":6680,"Ġque":6681,"Ġfreunden":6682,"Ġhalt":6683,"Ġpublished":6684,"Ġexplore":6685,"drÃ¼cken":6686,"ĠnÃ¤he":6687,"Ġkarriere":6688,"soft":6689,"Ġcloser":6690,"Ġrepubl":6691,"Ġbeeinflusst":6692,"Ġnigeria":6693,"Ġastero":6694,"ench":6695,"Ġwal":6696,"Ġinsel":6697,"icles":6698,"Ġreicht":6699,"Ġreform":6700,"Ġverf":6701,"Ġgeograph":6702,"hlten":6703,"Ġconsequen":6704,"Ġshock":6705,"izes":6706,"Ġbegonnen":6707,"prof":6708,"Ġorganizations":6709,"Ġanswers":6710,"Ġharm":6711,"Ġexistiert":6712,"ĠfÃ¤llen":6713,"ĠÃ¤rzte":6714,"Ġbrilliant":6715,"Ġirgendein":6716,"Ġspreche":6717,"Ġsick":6718,"Ġgig":6719,"Ġfok":6720,"Ġlack":6721,"Ġbele":6722,"cting":6723,"Ġlegen":6724,"osh":6725,"Ġworkers":6726,"ĠfÃ¼hlt":6727,"ĠgrÃ¶ÃŁeren":6728,"Ġlights":6729,"Ġprograms":6730,"Ġwaffen":6731,"ĠschÃ¶ne":6732,"Ġhoriz":6733,"Ġcyber":6734,"Ġerlauben":6735,"Ġinfrastruktur":6736,"Ġmedikamente":6737,"ete":6738,"uz":6739,"Ġ23":6740,"Ġgeschwindigkeit":6741,"Ġpoet":6742,"Ġartists":6743,"Ġmedium":6744,"Ġsmell":6745,"Ġappar":6746,"Ġplayed":6747,"Ġcorre":6748,"Ġcorner":6749,"Ġgarden":6750,"Ġchoices":6751,"cules":6752,"hilfe":6753,"afrika":6754,"Ġnahrungs":6755,"omas":6756,"Ġneug":6757,"Ġaufgenommen":6758,"Ġenter":6759,"Ġgenutzt":6760,"Ġklingt":6761,"Ġanalog":6762,"Ġfocused":6763,"Ġorigin":6764,"Ġancient":6765,"Ġzusammenhang":6766,"uing":6767,"chnen":6768,"Ġmand":6769,"outh":6770,"illion":6771,"istisch":6772,"Ġsomit":6773,"Ġbesuch":6774,"Ġdifferences":6775,"Ġgewicht":6776,"Ġklass":6777,"Ġkohlen":6778,"Ġscientist":6779,"Ġfernsehen":6780,"Ġwerkzeuge":6781,"Ġbrauchte":6782,"Ġfemale":6783,"Ġstolz":6784,"val":6785,"Ġgather":6786,"Ġflight":6787,"Ġspeech":6788,"ĠlieÃŁ":6789,"Ġweiterhin":6790,"Ġphoto":6791,"brauch":6792,"Ġdaughter":6793,"Ġmerk":6794,"ĠermÃ¶glichen":6795,"Ġdunkel":6796,"Ġconsciousness":6797,"Ġmagazine":6798,"Ġfenster":6799,"cr":6800,"Ġalex":6801,"Ġpig":6802,"Ġjer":6803,"Ġjack":6804,"Ġrough":6805,"Ġneuer":6806,"ierenden":6807,"Ġrapid":6808,"ĠfÃ¼hle":6809,"Ġapplic":6810,"proble":6811,"Ġansatz":6812,"Ġhelping":6813,"Ġstopped":6814,"Ġswitch":6815,"Ġdigit":6816,"Ġprivile":6817,"Ġevolved":6818,"Ġdegrees":6819,"Ġentwicklungsl":6820,"ĠgefÃ¼hle":6821,"ĠÃ¤ndert":6822,"Ġsatz":6823,"Ġeure":6824,"Ġnehme":6825,"Ġwarm":6826,"Ġchic":6827,"pper":6828,"Ġplus":6829,"Ġbridge":6830,"Ġphase":6831,"Ġpaid":6832,"ĠschlÃ¼ssel":6833,"Ġletztendlich":6834,"Ġeasily":6835,"Ġpsycholog":6836,"Ġdevices":6837,"ognitive":6838,"Ġspending":6839,"ĠstÃ¤dten":6840,"Ġsurprising":6841,"Ġexperiences":6842,"Ġachieve":6843,"ĠmÃ¼ll":6844,"Ġsignificant":6845,"ax":6846,"Ġeating":6847,"Ġsogen":6848,"Ġstan":6849,"Ġreagieren":6850,"imeter":6851,"Ġrational":6852,"verstÃ¤nd":6853,"Ġgenom":6854,"Ġglas":6855,"Ġunterschiede":6856,"aterial":6857,"ĠgroÃŁbritannien":6858,"Ġwiederum":6859,"Ġladen":6860,"Ġbringing":6861,"Ġresponsibility":6862,"Ġgun":6863,"Ã¤hn":6864,"Ġhabt":6865,"Ġstation":6866,"Ġaufw":6867,"Ġauth":6868,"Ġverwir":6869,"Ġ[\"":6870,"Ġoppos":6871,"Ġperfekt":6872,"Ġverhaltens":6873,"Ġpleas":6874,"Ġhabit":6875,"Ġtemperatur":6876,"Ġkompon":6877,"Ġcolleagues":6878,"di":6879,"Ġtieren":6880,"esis":6881,"onie":6882,"Ġfold":6883,"Ġnations":6884,"Ġlangen":6885,"Ġerstellen":6886,"ĠrÃ¼cken":6887,"Ġentschied":6888,"Ġselber":6889,"Ġtraur":6890,"Ġstudio":6891,"Ġgrab":6892,"Ġmarkets":6893,"mÃ¶gen":6894,"ktivitÃ¤t":6895,"Ġentfern":6896,"Ġstellten":6897,"Ġdorthin":6898,"Ġcommunicate":6899,"Ġvorhers":6900,"maschine":6901,"don":6902,"gin":6903,"Ġdying":6904,"Ġiphone":6905,"orgung":6906,"Ġven":6907,"Ġnoticed":6908,"Ġcoffee":6909,"Ġbitten":6910,"ratic":6911,"Ġrisiko":6912,"Ġhearing":6913,"Ġmolecules":6914,"Ġverbindungen":6915,"Ġbehandelt":6916,"Ġreduce":6917,"Ġhoffentlich":6918,"zwischen":6919,"Ġbegriff":6920,"gust":6921,"house":6922,"ĠÃ¤nder":6923,"erten":6924,"Ġfell":6925,"Ġkenne":6926,"ĠerÃ¶ff":6927,"izitÃ¤t":6928,"Ġrare":6929,"Ġrace":6930,"Ġagree":6931,"spre":6932,"Ã¤nglich":6933,"ĠgroÃŁteil":6934,"Ġstudying":6935,"Ġhandy":6936,"Ġnorden":6937,"Ġcreates":6938,"Ġpolitischen":6939,"Ġseemed":6940,"Ġtypen":6941,"Ġcomplexity":6942,"Ġimprove":6943,"Ġcommunication":6944,"ĠmÃ¤nnern":6945,"Ġangeles":6946,"Ġdiversity":6947,"can":6948,"glie":6949,"Ġdh":6950,"Ġgilt":6951,"Ġfurch":6952,"Ġvog":6953,"Ġbeach":6954,"ety":6955,"term":6956,"othe":6957,"Ġproz":6958,"Ġvorbere":6959,"Ġknowing":6960,"Ġstein":6961,"Ġacadem":6962,"okay":6963,"bruch":6964,"Ġpuzz":6965,"Ã¤hle":6966,"Ġfeels":6967,"Ġbrother":6968,"Ġeinsatz":6969,"Ġriesigen":6970,"Ġleads":6971,"ĠkomplexitÃ¤t":6972,"Ġforeign":6973,"Ġmetaphor":6974,"dien":6975,"feld":6976,"tten":6977,"atom":6978,"Ġvan":6979,"tech":6980,"aling":6981,"Ã¼ben":6982,"enty":6983,"cell":6984,"Ġaspect":6985,"heben":6986,"endes":6987,"Ġdavor":6988,"Ġhero":6989,"angt":6990,"Ġproduziert":6991,"Ġappl":6992,"Ġkostet":6993,"Ġinteressanter":6994,"Ġcorpor":6995,"Ġaccord":6996,"Ġinvestieren":6997,"Ġgesellschaften":6998,"Ġveget":6999,"Ġzentrum":7000,"Ġfarmers":7001,"Ġiraq":7002,"Ġvielfalt":7003,"Ġvulner":7004,"60":7005,"Ġmort":7006,"leun":7007,"abt":7008,"formen":7009,"Ġdennoch":7010,"Ġdifferently":7011,"Ġ2007":7012,"Ġpossibility":7013,"Ġbreast":7014,"Ġfash":7015,"zeichnen":7016,"Ġopportunities":7017,"Ġwandel":7018,"Ġinspiration":7019,"Ġrelationships":7020,"ĠprÃ¤sident":7021,"Ġintelligenz":7022,"Ġsekunde":7023,"ĠbeschÃ¤ftigt":7024,"wohner":7025,"krieg":7026,"Ġefficient":7027,"Ġlandscape":7028,"Ġerforschen":7029,"Ġgentle":7030,"ek":7031,"ih":7032,"water":7033,"Ġhind":7034,"Ġhielt":7035,"Ġoly":7036,"Ġvast":7037,"Ġeinsch":7038,"Ġrit":7039,"Ġdagegen":7040,"Ġsaf":7041,"Ġknochen":7042,"ĠgewÃ¶hn":7043,"Ġpassed":7044,"Ġpolitische":7045,"Ġchromos":7046,"Ġwinz":7047,"Ġholz":7048,"Ġnerven":7049,"Ġentsteht":7050,"pass":7051,"setzt":7052,"Ġ0":7053,"Ġmart":7054,"iety":7055,"Ġderzeit":7056,"Ġunsicht":7057,"Ġ22":7058,"Ġpresen":7059,"Ġgeme":7060,"Ġwahrneh":7061,"Ġexpon":7062,"Ġvisit":7063,"Ġdefinit":7064,"Ġinspired":7065,"Ġtausend":7066,"jÃ¤hrigen":7067,"Ġchicago":7068,"Ġolymp":7069,"Ġgps":7070,"Ġgaben":7071,"Ġkauf":7072,"Ġtodes":7073,"elf":7074,"dete":7075,"Ġdieselbe":7076,"Ġproto":7077,"ulations":7078,"Ġ27":7079,"Ġprize":7080,"Ġbran":7081,"Ġaddition":7082,"Ġmoments":7083,"Ġgefangen":7084,"Ġexplos":7085,"Ġnav":7086,"Ġwindow":7087,"Ġidentity":7088,"mmern":7089,"Ġnearly":7090,"Ġhunger":7091,"mutter":7092,"Ġ1960":7093,"dimensional":7094,"Ġdespite":7095,".'":7096,"Ġwunsch":7097,"Ġwirst":7098,"ĠsaÃŁ":7099,"sprechen":7100,"Ġloch":7101,"Ġpartners":7102,"Ġgotten":7103,"onds":7104,"Ġgewonnen":7105,"Ġstrength":7106,"gebaut":7107,"Ġmissing":7108,"Ġlinken":7109,"krebs":7110,"Ġmeistens":7111,"mission":7112,"dy":7113,"ias":7114,"zil":7115,"Ġavo":7116,"Ġshr":7117,"aner":7118,"ĠkÃ¶":7119,"Ġkunden":7120,"schte":7121,"Ġallt":7122,"ume":7123,"lder":7124,"istry":7125,"Ġshoot":7126,"Ġsharing":7127,"Ġgrunds":7128,"Ġbroken":7129,"Ġdrehen":7130,"Ġkurzem":7131,"Ġlegal":7132,"Ġcondu":7133,"pektive":7134,"test":7135,"atic":7136,"Ġfett":7137,"etwas":7138,"used":7139,"eler":7140,"Ġseas":7141,"idung":7142,"wechsel":7143,"Ġsteigen":7144,"aining":7145,"Ġparis":7146,"Ġkohle":7147,"Ġbeschreiben":7148,"gewicht":7149,"Ġinvestment":7150,"Ġmilliarde":7151,"Ġ250":7152,"estens":7153,"Ġhorr":7154,"Ġschwarze":7155,"Ġplastik":7156,"Ġameisen":7157,"Ġcommercial":7158,"Ġtremendous":7159,"Ġneugier":7160,"gro":7161,"macht":7162,"Ġwow":7163,"Ġsem":7164,"Ġthomas":7165,"nde":7166,"Ġbread":7167,"Ġopfer":7168,"Ġfo":7169,"Ġfach":7170,"eden":7171,"Ġalph":7172,"verb":7173,"Ġchurch":7174,"Ġumgehen":7175,"Ġstecken":7176,"ĠdurchgefÃ¼hrt":7177,"aker":7178,"print":7179,"Ġprep":7180,"Ġautor":7181,"Ġminister":7182,"Ġengage":7183,"Ġneuronen":7184,"Ġhintergrund":7185,"Ġkommunikation":7186,"Ġgolden":7187,"ĠtÃ¶ten":7188,"ivalent":7189,"Ġecosystem":7190,"Ġbeeind":7191,"Ġtissue":7192,"Ġfashion":7193,"det":7194,"fil":7195,"Ġfeld":7196,"Ġspl":7197,"Ġcoal":7198,"Ġzusammenarbeit":7199,"Ġentwickelten":7200,"Ġbotschaft":7201,"ĠÃ¤lt":7202,"Ġjoin":7203,"Ġexperimente":7204,"Ġerinnert":7205,"zeichen":7206,"Ġdiscovery":7207,"onym":7208,"Ġ1990":7209,"Ġindepend":7210,"Ġkilomet":7211,"Ġbegeg":7212,"Ġdeutsch":7213,"Ġbeeinflussen":7214,"Ġunbedingt":7215,"500":7216,"ey":7217,"Ġcult":7218,"isierte":7219,"Ġzut":7220,"Ġweiss":7221,"Ġreisen":7222,"Ġwass":7223,"ĠspÃ¼r":7224,"Ġausbildung":7225,"Ġinterface":7226,"rupt":7227,"Ġpollen":7228,"aced":7229,"Ġklang":7230,"Ġboston":7231,"Ġberechn":7232,"Ġcrash":7233,"Ġgemeinde":7234,"Ġgestalten":7235,"Ġnull":7236,"Ġforever":7237,"ĠatmosphÃ¤re":7238,"Ġkaliforn":7239,"Ġcompetition":7240,"Ġlucky":7241,"ĠwunderschÃ¶n":7242,"fter":7243,"va":7244,"isser":7245,"Ġkoll":7246,"Ġzufrieden":7247,"achte":7248,"Ġaust":7249,"andid":7250,"aught":7251,"Ġspot":7252,"Ġumzu":7253,"Ġnotion":7254,"Ġtrend":7255,"Ġentwerfen":7256,"Ġotherwise":7257,"ollar":7258,"Ġweiteres":7259,"Ġdreht":7260,"Ġunterschiedlichen":7261,"Ġverkauft":7262,"Ġkommunizieren":7263,"Ġmeeres":7264,"Ġmodernen":7265,"ĠbuchstÃ¤":7266,"Ġmembers":7267,"Ġlieblings":7268,"based":7269,"laden":7270,"pted":7271,"ypt":7272,"aters":7273,"Ġpip":7274,"Ġeindruck":7275,"entlicht":7276,"Ġanru":7277,"Ġmitten":7278,"ulen":7279,"Ġnochmal":7280,"Ġbrazil":7281,"Ġobjekte":7282,"Ġtalks":7283,"Ġmasse":7284,"Ġnaja":7285,"richtung":7286,"ĠverrÃ¼ck":7287,"Ġaufgaben":7288,"Ġbritish":7289,"ĠÃ¶kosystem":7290,"Ġultimately":7291,"Ġvermutlich":7292,"bie":7293,"bas":7294,"ĠgefÃ¼hrt":7295,"icket":7296,"Ġdisor":7297,"Ġklassen":7298,"Ġhumor":7299,"Ġgraf":7300,"Ġschafft":7301,"Ġaccom":7302,"Ġvollkommen":7303,"Ġdienst":7304,"Ġdescribe":7305,"Ġhusband":7306,"bing":7307,"part":7308,"ring":7309,"zial":7310,"Ġsir":7311,"reci":7312,"Ġpac":7313,"orgt":7314,"Ġkit":7315,"Ġseed":7316,"Ġforg":7317,"idet":7318,"Ġcore":7319,"Ġevents":7320,"steller":7321,"Ġdisplay":7322,"Ġelements":7323,"Ġherausgefunden":7324,"Ġrelativ":7325,"ĠmÃ¶glicherweise":7326,"Ġfully":7327,"Ġreligious":7328,"Ġidentif":7329,"Ġdepart":7330,"ĠerhÃ¤lt":7331,"Ġdrogen":7332,"Ġsoldaten":7333,"Ġwerkzeug":7334,"ĠbenÃ¶tigen":7335,"Ġfairly":7336,"Ġnecessary":7337,"Ġverursacht":7338,"Ġseltsam":7339,"Ġastronom":7340,"Ġgiant":7341,"usive":7342,"Ġmeilen":7343,"ĠschÃ¤d":7344,"Ġschuld":7345,"Ġprost":7346,"ĠÃ¼berzeugen":7347,"Ġbetrifft":7348,"iften":7349,"Ġcla":7350,"griff":7351,"Ġloss":7352,"ipped":7353,"design":7354,"Ġlaufe":7355,"Ġethn":7356,"ĠbenÃ¶tigt":7357,"ĠverÃ¶ffentlicht":7358,"Ġdiskuss":7359,"ĠunterstÃ¼tzung":7360,"talk":7361,"uert":7362,"Ġdol":7363,"Ġol":7364,"Ġjames":7365,"Ġerr":7366,"schule":7367,"Ġschu":7368,"Ġchann":7369,"Ġfrench":7370,"ĠÃ¼berzeugt":7371,"izen":7372,"Ġroten":7373,"Ġhalte":7374,"Ġspieler":7375,"Ġsitzt":7376,"Ġweiteren":7377,"Ġparticles":7378,"llywood":7379,"ĠidentitÃ¤t":7380,"fÃ¤lle":7381,"Ġverbreitet":7382,"jÃ¤hrige":7383,"Ġirak":7384,"Ġbenefits":7385,"Ġzuhause":7386,"laufen":7387,"same":7388,"ĠdÃ¼n":7389,"Ġszen":7390,"atter":7391,"atively":7392,"Ġweird":7393,"ida":7394,"ĠÃ¼berle":7395,"Ġbras":7396,"Ġunternehmer":7397,"Ġbesitzen":7398,"Ġhohen":7399,"Ġpolio":7400,"gren":7401,"Ġaccur":7402,"zusehen":7403,"ĠkÃ¼mmern":7404,"bereich":7405,"Ġtransparen":7406,"ĠbloÃŁ":7407,"craft":7408,"da":7409,"Ġtrop":7410,"stab":7411,"unte":7412,"Ġverkehr":7413,"sens":7414,"Ġfehl":7415,"halte":7416,"Ġhost":7417,"Ġexpert":7418,"Ġshouldn":7419,"Ġtreib":7420,"Ġwissenschaftliche":7421,"Ġschaff":7422,"ĠkÃ¶rpers":7423,"Ġtypical":7424,"vollen":7425,"Ġmodelle":7426,"Ġlautet":7427,"frage":7428,"Ġkatastrop":7429,"Ġnecessarily":7430,"ĠzufÃ¤llig":7431,"ĠbuchstÃ¤blich":7432,"dollar":7433,"gern":7434,"Ġax":7435,"Ġaffe":7436,"Ġthemen":7437,"ĠgÃ¤":7438,"ulous":7439,"ktoren":7440,"Ġwerfen":7441,"ildet":7442,"Ġbegren":7443,"ungsf":7444,"ungskraft":7445,"Ġinvis":7446,"Ġappreci":7447,"Ġturning":7448,"Ġrecover":7449,"Ġbrown":7450,"loss":7451,"Ġbedingungen":7452,"Ġeasier":7453,"Ġengineers":7454,"Ġuniversums":7455,"Ġeingesch":7456,"Ġfailure":7457,"Ġquadrat":7458,"Ġaccording":7459,"baut":7460,"iffen":7461,"rom":7462,"squ":7463,"erc":7464,"Ġdinner":7465,"chern":7466,"atures":7467,"itzt":7468,"Ġbewir":7469,"edy":7470,"Ġsowie":7471,"Ġreichen":7472,"Ġlibr":7473,"weite":7474,"Ġalleine":7475,"Ġgewissen":7476,"Ġrelated":7477,"Ġremote":7478,"Ġbildungs":7479,"Ġcharge":7480,"Ġerwartet":7481,"Ġverkauf":7482,"Ġemotions":7483,"Ġentirely":7484,"Ġdauer":7485,"Ġbezahlen":7486,"ĠerklÃ¤rt":7487,"Ġmittl":7488,"Ġtalent":7489,"ĠqualitÃ¤t":7490,"forschung":7491,"Ġfabrik":7492,"Ġopposite":7493,"ress":7494,"Ġwil":7495,"nden":7496,"Ġmouth":7497,"Ġbul":7498,"icate":7499,"ĠschlieÃŁen":7500,"Ġmanh":7501,"Ġausgest":7502,"zeiten":7503,"Ġconcent":7504,"Ġusw":7505,"Ġlied":7506,"Ġgelangen":7507,"Ġgegenseit":7508,"Ġimportantly":7509,"Ġerster":7510,"Ġlebensmittel":7511,"Ġstructures":7512,"ification":7513,"Ġhaufen":7514,"Ġedge":7515,"folge":7516,"losen":7517,"Ġ1980":7518,"Ġdeutlich":7519,"Ġresponsible":7520,"Ġancest":7521,"Ġparadig":7522,"Ġverfolgen":7523,"Ġleadership":7524,"cles":7525,"my":7526,"von":7527,"Ġbound":7528,"Ġfer":7529,"Ġfiel":7530,"Ġweder":7531,"Ġzuk":7532,"Ġquote":7533,"Ġkontext":7534,"spap":7535,"Ġmatters":7536,"Ġanderem":7537,"Ġreligi":7538,"holt":7539,"Ġorganisationen":7540,"Ġprototy":7541,"Ġplatform":7542,"Ġgerecht":7543,"ĠÃ¼bertragen":7544,"wide":7545,"Ġtank":7546,"Ġmund":7547,"Ġmamm":7548,"Ġkick":7549,"Ġeinst":7550,"Ġdiabet":7551,"Ġsto":7552,"Ġsterne":7553,"Ġrepe":7554,"Ġring":7555,"Ġgeschen":7556,"Ġnoise":7557,"Ġgrass":7558,"Ġjustice":7559,"Ġbrut":7560,"Ġkonferenz":7561,"Ġemb":7562,"Ġeleph":7563,"ĠnatÃ¼rliche":7564,"Ġcreatures":7565,"Ġ2005":7566,"Ġmoth":7567,"Ġwahrscheinlichkeit":7568,"Ġverdienen":7569,"Ġfigured":7570,"Ġcircle":7571,"Ġphenomenon":7572,"Ġwettbewer":7573,"ĠhauptsÃ¤chlich":7574,"Ġkohlenstoff":7575,"mmer":7576,"inhalb":7577,"Ġdou":7578,"Ġmouse":7579,"Ġhur":7580,"Ġehe":7581,"iment":7582,"dert":7583,"eller":7584,"istische":7585,"Ġattem":7586,"ibilities":7587,"Ġinteragieren":7588,"Ã¤tsel":7589,"Ġobs":7590,"Ġtraffic":7591,"Ġbackground":7592,"Ġlieber":7593,"Ġembra":7594,"ighten":7595,"gebracht":7596,"Ġplanets":7597,"Ġbillions":7598,"Ġbrot":7599,"Ġuniversal":7600,"Ġfragten":7601,"wissenschaft":7602,"Ġmexico":7603,"ĠzukÃ¼nft":7604,"nun":7605,"pern":7606,"Ġtough":7607,"Ġdate":7608,"Ġwide":7609,"Ġbird":7610,"icity":7611,"ota":7612,"Ġschiff":7613,"uments":7614,"bewe":7615,"this":7616,"ĠdaÃŁ":7617,"Ġvorbe":7618,"Ġbrings":7619,"Ġraised":7620,"Ġproblemen":7621,"Ġprevious":7622,"Ġdrag":7623,"Ġcapable":7624,"Ġclever":7625,"Ġwunderbare":7626,"Ġfreiwill":7627,"Ġtransformation":7628,"Ġrelevant":7629,"Ġbudd":7630,"zut":7631,"Ġtu":7632,"Ġaffen":7633,"Ġtheore":7634,"Ġecke":7635,"anzie":7636,"Ġbeine":7637,"igend":7638,"Ġhaiti":7639,"Ġreag":7640,"Ġrecon":7641,"Ġerwe":7642,"Ġrou":7643,"Ġaufs":7644,"Ġasia":7645,"Ġproud":7646,"Ġadam":7647,"Ġregular":7648,"Ġfrequen":7649,"Ġschlimmer":7650,"Ġphysic":7651,"Ġaccident":7652,"frist":7653,"Ġcolors":7654,"Ġfalsche":7655,"Ġhopefully":7656,"Ġleaving":7657,"Ġadvant":7658,"Ġamerikanische":7659,"Ġherausforderungen":7660,"point":7661,"Ġopin":7662,"Ġvergleichen":7663,"Ġsuffering":7664,"kan":7665,"Ġbag":7666,"Ġut":7667,"Ġehem":7668,"star":7669,"Ġlasst":7670,"Ġvag":7671,"kehren":7672,"Ġmoves":7673,"idden":7674,"Ġstem":7675,"Ġbrenn":7676,"Ġfaces":7677,"Ġpoten":7678,"Ġgegenteil":7679,"ĠÃ¼berrascht":7680,"Ġnormally":7681,"Ġcartoon":7682,"Ġwheel":7683,"Ġkonflikt":7684,"ĠÃ¶konom":7685,"fir":7686,"vit":7687,"asche":7688,"rale":7689,"ican":7690,"Ġsector":7691,"Ġstor":7692,"Ġrepor":7693,"Ġchicken":7694,"istischen":7695,"Ġtrip":7696,"Ġship":7697,"Ġfaith":7698,"Ġbett":7699,"Ġbull":7700,"fÃ¼hrer":7701,"Ġcalls":7702,"Ġgewisser":7703,"Ġhinweg":7704,"hafte":7705,"Ġlesson":7706,"Ġopened":7707,"Ġerinnerung":7708,"gabe":7709,"Ġwesentlichen":7710,"Ġaugenblick":7711,"Ġoption":7712,"Ġklimawandel":7713,"Ġcorrect":7714,"80":7715,"aff":7716,"hÃ¶":7717,"iop":7718,"mord":7719,"Ġbees":7720,"Ġjungs":7721,"Ġuni":7722,"Ġchap":7723,"kton":7724,"wegs":7725,"Ġfranz":7726,"Ġtrib":7727,"ĠgetÃ¶":7728,"izz":7729,"Ġrobert":7730,"ifik":7731,"Ġcontact":7732,"Ġgehabt":7733,"Ġexperten":7734,"teln":7735,"olds":7736,"Ġbildschirm":7737,"jekten":7738,"Ġbeschleun":7739,"Ġfolge":7740,"Ġstrand":7741,"Ġmindestens":7742,"Ġheads":7743,"Ġbabys":7744,"ĠÃ¶ffentliche":7745,"Ġmajority":7746,"Ġlady":7747,"Ġleistung":7748,"Ġseparate":7749,"gruppe":7750,"Ġkombin":7751,"Ġkalifornien":7752,"gu":7753,"oge":7754,"vas":7755,"Ġsar":7756,"Ġfel":7757,"itel":7758,"arr":7759,"Ġbem":7760,"idents":7761,"Ġflor":7762,"Ġverbracht":7763,"Ġdrittel":7764,"Ġoffer":7765,"trag":7766,"Ġbesseren":7767,"Ġnames":7768,"Ġeinsetzen":7769,"Ġwesentlich":7770,"Ġarchitect":7771,"Ġsequence":7772,"setzung":7773,"Ġkompliz":7774,"Ġfossil":7775,"Ġadults":7776,"Ġweapons":7777,"Ġjanu":7778,"Ġmanhatt":7779,"best":7780,"cil":7781,"enken":7782,"ĠtÃ¤t":7783,"Ġbow":7784,"ĠhÃ¤ngt":7785,"rew":7786,"ania":7787,"rot":7788,"Ġunless":7789,"Ġneut":7790,"Ġchip":7791,"Ġgeste":7792,"Ġgestern":7793,"ogram":7794,"apse":7795,"Ġkindheit":7796,"Ġsteckt":7797,"Ġfragt":7798,"Ã¶rper":7799,"meister":7800,"Ġzweif":7801,"Ġgewisse":7802,"Ġsurge":7803,"prob":7804,"Ġverwend":7805,"Ġbeschre":7806,"Ġ2009":7807,"Ġirgendetwas":7808,"ĠvollstÃ¤ndig":7809,"Ġspring":7810,"Ġdistance":7811,"Ġfleisch":7812,"Ġspezial":7813,"Ġconsumption":7814,"Ġstrukturen":7815,"Ġinfluence":7816,"Ġchaos":7817,"Ġagriculture":7818,"Ġdokument":7819,"Ġvogel":7820,"ris":7821,"zÃ¤":7822,"Ġts":7823,"Ġdun":7824,"ĠwÃ¤chst":7825,"Ġportra":7826,"Ġreprodu":7827,"ulated":7828,"Ġmac":7829,"Ġobama":7830,"werte":7831,"Ġbestimmen":7832,"Ġpair":7833,"Ġchildhood":7834,"ĠunglÃ¼ck":7835,"Ġelektro":7836,"Ġbauern":7837,"Ġleading":7838,"Ġverwandeln":7839,"ĠgefÃ¤hrlich":7840,"lu":7841,"inde":7842,"chung":7843,"Ġhill":7844,"Ġnest":7845,"Ġvere":7846,"gener":7847,"schre":7848,"Ġgee":7849,"Ġspider":7850,"ÃŁt":7851,"itete":7852,"ifically":7853,"Ġnewspap":7854,"Ġhelps":7855,"Ġdesigns":7856,"Ġziele":7857,"Ġinteressieren":7858,"Ġmotion":7859,"Ġbildern":7860,"Ġpaint":7861,"Ġholen":7862,"Ġscheinen":7863,"Ġtitan":7864,"Ġcollective":7865,"ĠkÃ¼rzlich":7866,"fun":7867,"fern":7868,"gesehen":7869,"lÃ¶s":7870,"not":7871,"ĠhÃ¤user":7872,"Ġgay":7873,"Ġpurs":7874,"Ġbear":7875,"ela":7876,"icated":7877,"Ġants":7878,"Ġverte":7879,"Ġerweit":7880,"agne":7881,"Ġfried":7882,"Ġexhib":7883,"Ġgesetze":7884,"Ġuser":7885,"Ġwhenever":7886,"Ġcompared":7887,"ĠprÃ¼":7888,"Ġobser":7889,"Ġlock":7890,"fÃ¼gen":7891,"Ġhohe":7892,"Ġgewinn":7893,"Ġcontra":7894,"Ġletter":7895,"Ġparall":7896,"ĠzurÃ¼ckzu":7897,"Ġwelchen":7898,"Ġgenauer":7899,"Ġbelieved":7900,"Ġverlust":7901,"Ġfourth":7902,"Ġoperating":7903,"Ġempower":7904,"Ġslowly":7905,"Ġfighting":7906,"Ġvacc":7907,"Ġdocument":7908,"Ġintellect":7909,"programm":7910,"ĠdÃ¼rfen":7911,"Ġpolizei":7912,"netz":7913,"nissen":7914,"Ġtue":7915,"Ġwit":7916,"ĠmÃ¼tter":7917,"Ġpas":7918,"Ġlauf":7919,"Ã¤llt":7920,"Ġstift":7921,"Ġunw":7922,"ationale":7923,"aged":7924,"ĠworÃ¼ber":7925,"Ġdeinen":7926,"Ġrow":7927,"ruction":7928,"Ġbegins":7929,"bling":7930,"Ġboat":7931,"Ġautonom":7932,"Ġmeters":7933,"Ġgedanke":7934,"Ġmultiple":7935,"Ġwalls":7936,"Ġschreibt":7937,"Ġmorgens":7938,"Ġdreams":7939,"Ġvorhanden":7940,"Ġprofessional":7941,"Ġpraktisch":7942,"Ġbegeistert":7943,"erin":7944,"Ġtap":7945,"Ġgam":7946,"Ġlob":7947,"Ġwein":7948,"Ġangew":7949,"Ġstone":7950,"Ġschimpan":7951,"ckte":7952,"Ġexerc":7953,"Ġzeichen":7954,"Ġfailed":7955,"Ġversus":7956,"Ġpolar":7957,"Ġgrade":7958,"Ġgefahr":7959,"Ġmagn":7960,"Ġfilter":7961,"Ġstuck":7962,"Ġseitdem":7963,"Ġtrained":7964,"Ġillusion":7965,"Ġgrandm":7966,"Ġgalaxy":7967,"Ġcounter":7968,"pun":7969,"pos":7970,"yes":7971,"Ġsetzt":7972,"Ġmu":7973,"Ġgap":7974,"asi":7975,"lege":7976,"aler":7977,"Ġsoph":7978,"Ã¶ÃŁen":7979,"Ġverlie":7980,"inkel":7981,"Ġroof":7982,"Ġbright":7983,"Ġrahmen":7984,"Ġbetre":7985,"ĠflÃ¼ss":7986,"Ġsculpt":7987,"richtungen":7988,"Ġnormalen":7989,"Ġruh":7990,"Ã¼tzt":7991,"Ġvolunte":7992,"Ġgalaxien":7993,"Ġrequire":7994,"Ġcivilization":7995,"ĠÃ¶ffentlichkeit":7996,"Ġtelesc":7997,"Ġdestroy":7998,"ĠgetÃ¶tet":7999,"Ġmanhattan":8000,"gment":8001,"oz":8002,"Ġtesten":8003,"orrow":8004,"Ġlachen":8005,"Ġcaught":8006,"Ġunderg":8007,"Ġsoil":8008,"Ġera":8009,"schrift":8010,"Ġround":8011,"Ġdozen":8012,"Ġhate":8013,"ĠeinfÃ¼":8014,"Ġcontr":8015,"Ġglaubt":8016,"Ġbasiert":8017,"Ġfinished":8018,"ĠerzÃ¤hle":8019,"Ġattach":8020,"Ġsucceed":8021,"Ġmicrosoft":8022,"ĠfÃ¼hrung":8023,"Ã¤chtnis":8024,"ĠaktivitÃ¤t":8025,"Ġholding":8026,"Ġsurprise":8027,"Ġmanaged":8028,"Ġconstantly":8029,"Ġheimat":8030,"Ġdegree":8031,"Ġgewebe":8032,"Ġwisdom":8033,"Ġglamour":8034,"Ġinvisible":8035,"Ġast":8036,"Ġbie":8037,"asion":8038,"Ġpounds":8039,"Ġcow":8040,"Ġzell":8041,"Ġzimmer":8042,"Ġwear":8043,"Ġstimm":8044,"Ġmeat":8045,"Ġrum":8046,"Ġexch":8047,"schaut":8048,"Ġphones":8049,"Ġclosed":8050,"Ġprem":8051,"Ġstarb":8052,"ĠgerÃ¤te":8053,"Ġtransition":8054,"Ġorganisms":8055,"Ġschnitt":8056,"Ġdreh":8057,"swert":8058,"Ġfemin":8059,"Ġinsekten":8060,"Ġschaute":8061,"Ġmentioned":8062,"vere":8063,"zelle":8064,"Ġwahre":8065,"Ġsister":8066,"Ġechten":8067,"Ġtox":8068,"irt":8069,"Ġbell":8070,"eline":8071,"Ġzucker":8072,"Ġreve":8073,"ays":8074,"Ġras":8075,"ĠrÃ¤tsel":8076,"cket":8077,"Ġspiegel":8078,"Ġfresh":8079,"Ġdepress":8080,"Ġteuer":8081,"Ġpeak":8082,"Ġsteuern":8083,"werten":8084,"Ġstudied":8085,"Ġappe":8086,"Ġfactory":8087,"Ġhighest":8088,"Ġkurze":8089,"Ġcreation":8090,"Ġacceler":8091,"Ġdauert":8092,"ipping":8093,"Ġeuropean":8094,"tended":8095,"Ġperfectly":8096,"Ġverantwortlich":8097,"Ġcurrently":8098,"Ġnormale":8099,"Ġkompliziert":8100,"ĠtÃ¤glich":8101,"Ġgeschlecht":8102,"Ġdry":8103,"Ġmaus":8104,"Ġnannte":8105,"Ġpeng":8106,"Ġlunch":8107,"Ġzunehmen":8108,"icted":8109,"Ġseat":8110,"iern":8111,"geber":8112,"illed":8113,"riage":8114,"Ġinsight":8115,"Ġkarten":8116,"Ġequip":8117,"Ġverhindern":8118,"Ġseriously":8119,"Ġconcerned":8120,"Ġfascinating":8121,"Ġillegal":8122,"Ġdisappear":8123,"aven":8124,"fangen":8125,"Ġdue":8126,"roll":8127,"Ġwhom":8128,"Ġanatom":8129,"Ġdialog":8130,"Ġverzwe":8131,"andem":8132,"auern":8133,"that":8134,"ffer":8135,"Ġvorteil":8136,"Ġinteraktion":8137,"Ġphosph":8138,"Ġ32":8139,"Ġletters":8140,"Ġsolid":8141,"Ġangesehen":8142,"schlÃ¤":8143,"struktur":8144,"life":8145,"Ġinteraction":8146,"wÃ¤rt":8147,"Ġeingesetzt":8148,"Ġinstitutionen":8149,"Ġbenefit":8150,"Ġgermany":8151,"ĠschÃ¶nen":8152,"Ġprinciple":8153,"Ġtexas":8154,"ba":8155,"blichkeit":8156,"care":8157,"ii":8158,"Ġwave":8159,"Ġbieten":8160,"icke":8161,"ĠaufhÃ¶ren":8162,"Ġarms":8163,"Ġdefen":8164,"Ġplanning":8165,"Ġentertain":8166,"Ġhergestellt":8167,"odes":8168,"Ġ26":8169,"ifying":8170,"Ġclick":8171,"Ġdamage":8172,"Ġfinanzie":8173,"Ġbelo":8174,"itzer":8175,"Ġlimited":8176,"Ġcycle":8177,"Ġsurprised":8178,"Ġincreasingly":8179,"Ġnutr":8180,"karte":8181,"Ġauthent":8182,"Ġindependent":8183,"eper":8184,"lÃ¤ss":8185,"sinn":8186,"Ġath":8187,"Ġdere":8188,"Ġhomes":8189,"reif":8190,"Ġvibr":8191,"Ġeiniger":8192,"lem":8193,"urf":8194,"Ġesc":8195,"Ġdiesel":8196,"Ġumge":8197,"ĠtrÃ¤gt":8198,"Ġgetr":8199,"Ġcompare":8200,"Ġkomm":8201,"Ġeveryday":8202,"Ġphant":8203,"Ġlandschaft":8204,"Ġparent":8205,"Ġschwester":8206,"Ġerfinden":8207,"Ġplane":8208,"Ġ2004":8209,"Ġfilme":8210,"Ġvirgin":8211,"Ã¤ngst":8212,"Ġinvestig":8213,"Ġegypt":8214,"Ġmathematics":8215,"Ġdeeply":8216,"Ġgalaxies":8217,"ĠeuropÃ¤":8218,"Ġerleb":8219,"Ġerlebt":8220,"Ġdebate":8221,"Ġdescribed":8222,"Ġstanford":8223,"Ġfurcht":8224,"\"]":8225,"pet":8226,"Ġbay":8227,"ĠhÃ¤nden":8228,"anischen":8229,"Ġpfer":8230,"lett":8231,"Ġweather":8232,"Ġwearing":8233,"Ġgehalten":8234,"Ġmanage":8235,"Ġmaps":8236,"Ġmarried":8237,"Ġimpf":8238,"Ġdrin":8239,"Ġ1950":8240,"Ġteilchen":8241,"Ġcommand":8242,"Ġstandards":8243,"Ġabsicht":8244,"Ġeconomics":8245,"Ġantib":8246,"Ġversuchten":8247,"Ġsoul":8248,"Ġequivalent":8249,"comput":8250,"Ġargue":8251,"Ġfollowed":8252,"Ġlimit":8253,"Ġstrategy":8254,"Ġtomorrow":8255,"Ġkorea":8256,"Ġpyram":8257,"kor":8258,"Ġbob":8259,"Ġbattle":8260,"Ġpfe":8261,"que":8262,"Ġnov":8263,"Ġbron":8264,"Ġtechnical":8265,"Ġhoffen":8266,"Ġschla":8267,"ffekt":8268,"Ġpolitiker":8269,"Ġ65":8270,"Ġbusinesses":8271,"Ġexistieren":8272,"Ġtreated":8273,"Ġreduzieren":8274,"Ġordinary":8275,"fÃ¼hrung":8276,"dre":8277,"ode":8278,"Ġstoff":8279,"Ġreward":8280,"Ġschien":8281,"Ġnobel":8282,"Ġresource":8283,"Ġdran":8284,"Ġentworfen":8285,"ĠkrÃ¤fte":8286,"Ġindividuen":8287,"Ġlanguages":8288,"Ġyester":8289,"Ġforscher":8290,"besch":8291,"Ġverbreiten":8292,"Ġ1970":8293,"Ġdiskut":8294,"amerika":8295,"Ġanalysis":8296,"Ġbruder":8297,"Ġdepartment":8298,"Ġmothers":8299,"mitt":8300,"muster":8301,"wel":8302,"Ġq":8303,"enk":8304,"eness":8305,"Ġmam":8306,"Ġpin":8307,"Ġlernt":8308,"Ġcateg":8309,"Ġdiam":8310,"Ġrechn":8311,"Ġschock":8312,"ischt":8313,"uliert":8314,"osis":8315,"Ġgrown":8316,"udes":8317,"ĠmÃ¶gliche":8318,"Ġobserv":8319,"Ġartific":8320,"Ġperspektive":8321,"Ġdiss":8322,"Ġhollywood":8323,"Ġarbeiteten":8324,"Ġgelesen":8325,"Ġbits":8326,"zentrum":8327,"Ġabsor":8328,"Ġcolon":8329,"Ġtempor":8330,"Ġoceans":8331,"Ġbemerkt":8332,"ĠzugÃ¤nglich":8333,"Ġbattery":8334,"Ġemploye":8335,"Ġunterscheiden":8336,"Ġavoid":8337,"ĠgÃ¤be":8338,"Ġdiabetes":8339,"Ġadvantage":8340,"Ġparallel":8341,"Ġequipment":8342,"hel":8343,"pat":8344,"ua":8345,"wagen":8346,"esch":8347,"Ġhidden":8348,"ĠgÃ¼":8349,"icon":8350,"ichts":8351,"Ġunend":8352,"verbrauch":8353,"ischem":8354,"weiten":8355,"Ġdesire":8356,"Ġsaved":8357,"iens":8358,"Ġmusst":8359,"Ġquasi":8360,"gerÃ¤t":8361,"ĠmÃ¼sste":8362,"Ġinvited":8363,"Ġkrise":8364,"Ġorganic":8365,"Ġequal":8366,"bracht":8367,"ciples":8368,"Ġstatistics":8369,"Ġerscheinen":8370,"Ġvehicle":8371,"Ġuganda":8372,"Ġbeantworten":8373,"Ġwahrnehmung":8374,"11":8375,"daten":8376,"atoren":8377,"Ġnutzt":8378,"Ġinput":8379,"Ġpian":8380,"otic":8381,"acher":8382,"ault":8383,"Ġheir":8384,"Ġorient":8385,"Ġwoher":8386,"Ġheran":8387,"ologist":8388,"plane":8389,"gesell":8390,"Ġmonitor":8391,"Ġ195":8392,"Ġboot":8393,"Ġgegensatz":8394,"ĠweiÃŁen":8395,"ĠÃ¤g":8396,"Ġradik":8397,"Ġunterschiedlich":8398,"Ġvalu":8399,"Ġprinciples":8400,"Ġfields":8401,"Ġbrauche":8402,"Ġbekamen":8403,"Ġunbek":8404,"fahrt":8405,"Ġerkenntnis":8406,"Ġgeheimnis":8407,"Ġteenager":8408,"Ġintuition":8409,"Ġeffizient":8410,"Ġyesterday":8411,"fig":8412,"Ġhi":8413,"Ġnationen":8414,"Ġped":8415,"Ã¤st":8416,"uries":8417,"Ġabgesch":8418,"Ġwarming":8419,"anta":8420,"ads":8421,"Ġdaily":8422,"Ġtrends":8423,"conne":8424,"Ġbelief":8425,"Ġverlangen":8426,"Ġstream":8427,"Ġvoices":8428,"Ġpaying":8429,"Ġforschungs":8430,"Ġlaugh":8431,"Ġdiagnost":8432,"kreis":8433,"Ġbrauchten":8434,"Ġsurvival":8435,"Ġinneren":8436,"Ġkenya":8437,"Ġspannen":8438,"ĠnÃ¶tig":8439,"Ġnavig":8440,"Ġmittleren":8441,"Ġattempt":8442,"Ġtheoret":8443,"hes":8444,"Ġaqu":8445,"isierten":8446,"Ġtoler":8447,"rag":8448,"icing":8449,"Ġanh":8450,"olit":8451,"Ġausgeb":8452,"Ġexists":8453,"ĠÃ¼berprÃ¼":8454,"Ġenable":8455,"place":8456,"Ġhinten":8457,"Ġempt":8458,"Ġbefre":8459,"Ġschwimmen":8460,"Ġminim":8461,"Ġsitz":8462,"Ġgenerations":8463,"Ġcrime":8464,"Ġhardware":8465,"schlagen":8466,"unternehmen":8467,"Ġerkannte":8468,"Ġgrenze":8469,"Ġhonor":8470,"Ġdrawing":8471,"Ġeffektiv":8472,"Ġproperty":8473,"Ġentspricht":8474,"Ġverschwinden":8475,"Ġfaszinierend":8476,"known":8477,"Ġgehirne":8478,"Ġdeutschland":8479,"iors":8480,"ket":8481,"passt":8482,"Ġgates":8483,"Ġinit":8484,"Ġincent":8485,"Ġbehalten":8486,"Ġitalien":8487,"ĠungewÃ¶hn":8488,"amt":8489,"Ġgeomet":8490,"Ġchart":8491,"Ġasp":8492,"Ġnovel":8493,"Ġseele":8494,"Ġhasn":8495,"Ġarticle":8496,"flÃ¤chen":8497,"Ġwenigen":8498,"Ġ2006":8499,"Ġfuhr":8500,"Ġstupid":8501,"Ġtedtalk":8502,"Ġjeff":8503,"Ġkriegen":8504,"Ġwichtigen":8505,"Ġcircum":8506,"Ġmotivation":8507,"Ġkaffee":8508,"ĠberÃ¼hm":8509,"cast":8510,"keln":8511,"nel":8512,"eres":8513,"Ġhurt":8514,"ller":8515,"Ġcognitive":8516,"Ġannehmen":8517,"Ġzuge":8518,"Ġerled":8519,"Ġschick":8520,"Ġrie":8521,"Ġwars":8522,"Ġaspekt":8523,"ktions":8524,"Ġshoes":8525,"Ġthinks":8526,"Ġsteps":8527,"Ġsugar":8528,"halts":8529,"ĠlieÃŁen":8530,"Ġstarten":8531,"Ġschaden":8532,"gewalt":8533,"Ġanimation":8534,"stÃ¤nden":8535,"Ġarmy":8536,"Ġwenigsten":8537,"Ġfantas":8538,"Ġmeiste":8539,"Ġerwachsenen":8540,"Ġreceived":8541,"ĠmolekÃ¼le":8542,"Ġmolecule":8543,"Ġlustig":8544,"Ġghana":8545,"Ġchirurg":8546,"bewegung":8547,"set":8548,"Ġgree":8549,"Ġfische":8550,"Ġpages":8551,"Ġbeina":8552,"Ġstad":8553,"Ġverhand":8554,"Ġauseinander":8555,"Ġmaint":8556,"Ġsubs":8557,"Ġweltraum":8558,"Ġbrachten":8559,"Ġscene":8560,"Ġarts":8561,"Ġsolch":8562,"ordin":8563,"ordnung":8564,"Ġplayer":8565,"Ġstreit":8566,"Ġresearchers":8567,"Ġgesundheitsw":8568,"fragen":8569,"Ġessential":8570,"Ġtiefe":8571,"Ġelectrical":8572,"Ġsentence":8573,"Ġverteid":8574,"Ġbeinahe":8575,"kont":8576,"mern":8577,"now":8578,"Ġwander":8579,"Ġsucht":8580,"Ġbf":8581,"Ġpink":8582,"Ġpure":8583,"Ġtoward":8584,"Ġzog":8585,"Ġrural":8586,"Ġford":8587,"Ġlebte":8588,"anders":8589,"Ġliqu":8590,"Ġtail":8591,"Ġvieler":8592,"Ġpoly":8593,"Ġelemente":8594,"Ġschlau":8595,"Ġsetting":8596,"Ġharder":8597,"Ġprocesses":8598,"Ġ120":8599,"Ġwatched":8600,"Ġbelong":8601,"Ġengineer":8602,"Ġjapanese":8603,"Ġfantastisch":8604,"Ġsoldiers":8605,"ĠelektrizitÃ¤t":8606,"ĠÃ¼berein":8607,"Ġpilot":8608,"kopf":8609,"Ġdolph":8610,"ns":8611,"vin":8612,"Ġwuchs":8613,"Ġbone":8614,"Ġew":8615,"Ġearn":8616,"ĠfÃ¤ngt":8617,"Ġwellen":8618,"amb":8619,"esser":8620,"Ġcanada":8621,"Ġscan":8622,"werden":8623,"bles":8624,"Ġcontain":8625,"utzung":8626,"Ġgenerationen":8627,"Ġsignals":8628,"Ġlux":8629,"Ġairplane":8630,"Ġschlechten":8631,"Ġcurious":8632,"Ġadvanced":8633,"Ġsauber":8634,"ĠpersÃ¶nlich":8635,"Ġoxford":8636,"Ġmountains":8637,"Ġentdeckung":8638,"Ġawful":8639,"Ġdistribution":8640,"Ġbewegungen":8641,"Ġauswahl":8642,"Ġkilometers":8643,"Ġschimpansen":8644,"Ġgrandmother":8645,"abe":8646,"cers":8647,"fisch":8648,"gas":8649,"nimmt":8650,"uum":8651,"stu":8652,"isf":8653,"Ġweile":8654,"usch":8655,"ushing":8656,"Ġrepar":8657,"Ġaufgew":8658,"Ġwobei":8659,"Ġfeind":8660,"Ġworldwide":8661,"Ġagre":8662,"acle":8663,"Ġadvert":8664,"Ġstarke":8665,"Ġstrang":8666,"Ġexperts":8667,"box":8668,"Ġerwart":8669,"Ġwissenschaftlichen":8670,"Ġgarten":8671,"ĠheiÃŁen":8672,"Ġinvestition":8673,"Ġassist":8674,"Ġemotionen":8675,"spielen":8676,"ĠverÃ¶ffentlich":8677,"Ġdimensions":8678,"bewesen":8679,"Ġnervous":8680,"Ġprototyp":8681,"Ġfilled":8682,"ĠgesprÃ¤ch":8683,"Ġassociated":8684,"ĠabhÃ¤ngig":8685,"appe":8686,"gers":8687,"oons":8688,"Ġkart":8689,"Ġdiet":8690,"Ġabschluss":8691,"Ġsparen":8692,"ĠfÃ¼rs":8693,"ĠÃ¼berzeug":8694,"Ġenem":8695,"Ġrote":8696,"ĠbrÃ¼":8697,"Ġperman":8698,"Ġzeitalter":8699,"ĠdrÃ¼ben":8700,"Ġhinsicht":8701,"bares":8702,"Ġparas":8703,"Ġschlagen":8704,"Ġbeweisen":8705,"Ġfeelings":8706,"mail":8707,"Ġfolks":8708,"Ġcortex":8709,"Ġpossibilities":8710,"Ġgestorben":8711,"Ġvote":8712,"Ġleaves":8713,"skop":8714,"ĠbeschÃ¤ftigen":8715,"Ġinsects":8716,"Ġanwenden":8717,"Ġlaunched":8718,"Ġbezahlt":8719,"Ġheavy":8720,"mine":8721,"mod":8722,"uel":8723,"zur":8724,"Ġtons":8725,"Ġsingen":8726,"Ġinfin":8727,"Ġvi":8728,"tele":8729,"Ġanonym":8730,"ĠjÃ¤hr":8731,"Ġunion":8732,"Ġmangel":8733,"ula":8734,"Ġviet":8735,"herr":8736,"Ġusers":8737,"Ġgrie":8738,"Ġnachts":8739,"Ġquiet":8740,"Ġsuit":8741,"Ġclip":8742,"inning":8743,"Ġhelden":8744,"Ġelef":8745,"Ġparte":8746,"Ġentwickelte":8747,"ĠnatÃ¼rlichen":8748,"ĠbeschrÃ¤n":8749,"Ġansicht":8750,"Ġkurzen":8751,"Ġviertel":8752,"Ġlosing":8753,"Ġdefinieren":8754,"Ġcontinent":8755,"Ġverbindet":8756,"resp":8757,"Ġdemocratic":8758,"Ġmittler":8759,"Ġjournalist":8760,"Ġexperienced":8761,"glieder":8762,"nach":8763,"pan":8764,"power":8765,"sl":8766,"zed":8767,"Ġtenden":8768,"Ġii":8769,"estern":8770,"Ġhir":8771,"asten":8772,"Ġfis":8773,"Ġermut":8774,"Ġersetzen":8775,"schau":8776,"Ġschiz":8777,"ĠgeÃ¤ndert":8778,"see":8779,"sex":8780,"Ġaufbauen":8781,"ĠspÃ¤t":8782,"Ġworried":8783,"Ġexpression":8784,"zep":8785,"Ġzweck":8786,"flug":8787,"fluss":8788,"Ġadmin":8789,"projekt":8790,"Ġbeispielsweise":8791,"Ġmilch":8792,"Ġwindows":8793,"zusetzen":8794,"Ġorganismen":8795,"Ġnegot":8796,"Ġhiggs":8797,"Ġlifet":8798,"Ġbeinhal":8799,"mÃ¤ÃŁig":8800,"Ġorgans":8801,"Ġadopt":8802,"Ġsafety":8803,"Ġgemeinden":8804,"Ġpengu":8805,"down":8806,"eben":8807,"jo":8808,"rieren":8809,"Ġwra":8810,"anen":8811,"Ġfellow":8812,"Ġinhalt":8813,"Ġpow":8814,"Ġangesch":8815,"Ġungleich":8816,"auber":8817,"Ġchain":8818,"Ġorch":8819,"adel":8820,"Ġcontem":8821,"ologists":8822,"Ġsubt":8823,"Ġkomment":8824,"Ġblow":8825,"Ġcloth":8826,"akte":8827,"stellungen":8828,"Ġirre":8829,"Ġcarol":8830,"Ġbeschlossen":8831,"Ġstaats":8832,"Ġjedenfalls":8833,"Ġyorker":8834,"Ġwondering":8835,"Ġmicrosc":8836,"mÃ¶glichkeiten":8837,"Ġcaused":8838,"Ġmoderne":8839,"Ġengagement":8840,"Ġestabl":8841,"Ġbreath":8842,"Ġmolecular":8843,"Ġauftau":8844,"Ġgrundlegende":8845,"ĠnÃ¼tzlich":8846,"ĠverfÃ¼gbar":8847,"Ġmaxim":8848,"bru":8849,"fallen":8850,"Ġtall":8851,"Ġmt":8852,"anze":8853,"telt":8854,"ĠzÃ¼":8855,"Ã¤nen":8856,"Ġreview":8857,"Ġunit":8858,"Ġspoke":8859,"ĠÃ¼berlegen":8860,"Ġmak":8861,"Ġvorne":8862,"ĠgrÃ¶s":8863,"steigen":8864,"Ġglo":8865,"Ġquelle":8866,"Ġperce":8867,"Ġverbl":8868,"Ġstudieren":8869,"Ġgefahren":8870,"Ġexplan":8871,"Ġcourage":8872,"Ġschlechter":8873,"Ġrub":8874,"Ġidentify":8875,"Ġlawy":8876,"Ġnorthern":8877,"Ġinternationalen":8878,"Ġvertraut":8879,"Ġlaser":8880,"Ġaufregend":8881,"Ġerscheint":8882,"Ġentschuld":8883,"ĠerwÃ¤hnt":8884,"Ġhorizont":8885,"Ġmartin":8886,".Â«":8887,"durch":8888,"iffe":8889,"just":8890,"Ġdot":8891,"Ġbund":8892,"Ġfiber":8893,"itals":8894,"Ġpenn":8895,"Ġeinheit":8896,"ros":8897,"Ġangenommen":8898,"Ġanthrop":8899,"Ġrio":8900,"Ġgeg":8901,"Ġimple":8902,"Ġspin":8903,"ĠausmaÃŁ":8904,"ibung":8905,"ĠtrÃ¤ume":8906,"Ġsteigt":8907,"ardo":8908,"Ġkonsequen":8909,"Ġfakten":8910,"Ġgeschm":8911,"Ġflat":8912,"Ġflag":8913,"Ġdesigning":8914,"Ġsmile":8915,"Ġinformations":8916,"Ġkooper":8917,"Ġsuppose":8918,"ography":8919,"gedacht":8920,"Ġhorm":8921,"Ġdealing":8922,"Ġfreundin":8923,"Ġdigitalen":8924,"Ġconvention":8925,"ĠzerstÃ¶rt":8926,"Ġdynamic":8927,"Ġarrived":8928,"stream":8929,"krankungen":8930,"gruppen":8931,"ĠsÃ¤ug":8932,"Ġnachbarn":8933,"Ġcrowd":8934,"Ġentstanden":8935,"Ġsurvey":8936,"Ġautomob":8937,"Ġemissions":8938,"Ġroughly":8939,"Ġwitness":8940,"Ġvaluable":8941,"fach":8942,"uc":8943,"uous":8944,"wich":8945,"wing":8946,"ender":8947,"Ġwagen":8948,"Ġcosm":8949,"Ã¼st":8950,"ĠvergrÃ¶ÃŁ":8951,"Ġunl":8952,"Ġlebten":8953,"ophren":8954,"Ġvorfahren":8955,"Ġgrid":8956,"Ġmuscle":8957,"Ġkonkur":8958,"issenschaft":8959,"Ġevil":8960,"lieben":8961,"Ġcalling":8962,"Ġstring":8963,"Ġhalbe":8964,"Ġtransplant":8965,"Ġbeweis":8966,"ograp":8967,"lands":8968,"Ġ95":8969,"Ġopening":8970,"Ġelectro":8971,"Ġchef":8972,"Ġlinien":8973,"Ġmovies":8974,"Ġillness":8975,"Ġillustr":8976,"Ġmedizinische":8977,"ĠstÃ¤rker":8978,"Ġverbrachte":8979,"Ġcovered":8980,"Ġmethoden":8981,"Ġjahrzehnt":8982,"Ġoxyto":8983,"Ġconstruction":8984,"Ġconvinced":8985,"Ġcomfortable":8986,"Ġshapes":8987,"Ġstruggle":8988,"Ġlibrary":8989,"Ġartificial":8990,"jem":8991,"ieben":8992,"Ġpasst":8993,"Ġwetter":8994,"Ġstood":8995,"iminal":8996,"Ġlebewesen":8997,"Ġaufgebaut":8998,"aging":8999,"Ġspont":9000,"Ġentgegen":9001,"Ġgeschickt":9002,"Ġposter":9003,"ĠselbstverstÃ¤nd":9004,"bridge":9005,"Ġwelchem":9006,"Ġgefallen":9007,"Ġplayers":9008,"Ġexplod":9009,"krÃ¤fte":9010,"Ġtesting":9011,"Ġbesondere":9012,"Ġkilling":9013,"Ġnetzwerke":9014,"Ġerstaunliche":9015,"Ġgeistes":9016,"Ġaufzubauen":9017,"Ġskept":9018,"Ġkerl":9019,"ĠfÃ¶rdern":9020,"Ġaustralia":9021,"Ġbrasilien":9022,"fish":9023,"geln":9024,"nÃ¼":9025,"raten":9026,"uk":9027,"Ġtonnen":9028,"inted":9029,"Ġagend":9030,"Ġdick":9031,"Ġbare":9032,"Ġfan":9033,"ĠzÃ¤hlen":9034,"Ġbeet":9035,"ierer":9036,"Ġrates":9037,"Ġshall":9038,"iency":9039,"Ġprime":9040,"Ġfehlen":9041,"Ġwurz":9042,"Ġmarriage":9043,"Ġembar":9044,"Ġirr":9045,"ĠbekÃ¤m":9046,"Ġfacts":9047,"Ġfinish":9048,"Ġimportance":9049,"Ġbeweise":9050,"Ġspielte":9051,"Ġthoughts":9052,"Ġtreten":9053,"Ġspecifically":9054,"Ġjoe":9055,"Ġviren":9056,"Ġwake":9057,"Ġneuron":9058,"Ġschwierigkeiten":9059,"Ġclassroom":9060,"Ġvolk":9061,"heimer":9062,"Ġinspiriert":9063,"ĠzerstÃ¶ren":9064,"Ġzeichnen":9065,"Ġbuchstaben":9066,"ĠunabhÃ¤ngig":9067,"ĠentwicklungslÃ¤ndern":9068,"Ġbeeindruck":9069,"Ġphosphor":9070,"Ġschizophren":9071,"Ġoxytocin":9072,"burg":9073,"Ġpandem":9074,"Ġtoy":9075,"Ġeindeut":9076,"Ġwei":9077,"Ã¤ne":9078,"Ġvermitteln":9079,"bell":9080,"Ġdoktor":9081,"Ġlies":9082,"weile":9083,"Ġorange":9084,"Ġexec":9085,"iene":9086,"Ġdarstellen":9087,"Ã¤nderung":9088,"Ġhadn":9089,"ĠgroÃŁmutter":9090,"Ġadmit":9091,"Ġgehol":9092,"Ġbekom":9093,"Ġzusammenzu":9094,"Ġfactor":9095,"Ġrelatively":9096,"Ġcorruption":9097,"Ġerinnerungen":9098,"Ġpreser":9099,"Ġinnovative":9100,"ancen":9101,"liothe":9102,"Ġinternationale":9103,"Ġspezif":9104,"Ġschwarzen":9105,"ĠÃ¼brig":9106,"Ġconsidered":9107,"Ġannoun":9108,"ĠmaÃŁstab":9109,"Ġreaction":9110,"Ġbaseball":9111,"Ġnotwendig":9112,"ĠverhÃ¤ltnis":9113,"ĠjÃ¼ng":9114,"ĠgrundsÃ¤tzlich":9115,"Ġkitchen":9116,"glied":9117,"Ġtwe":9118,"Ġdop":9119,"Ġgain":9120,"Ġoct":9121,"Ġfif":9122,"Ġfeder":9123,"Ġphr":9124,"Ġvess":9125,"Ġkenn":9126,"Ã¤ger":9127,"Ġanteil":9128,"Ġjim":9129,"Ġrout":9130,"Ġrene":9131,"sec":9132,"Ġmosqu":9133,"auspiel":9134,"Ġexpected":9135,"Ġteeth":9136,"Ġtricks":9137,"Ġconver":9138,"Ġshop":9139,"Ġbesuchen":9140,"Ġbetroffen":9141,"ĠgehÃ¶ren":9142,"penden":9143,"Ġexped":9144,"Ġ700":9145,"Ġantar":9146,"Ġsaturn":9147,"fordert":9148,"Ġpicked":9149,"Ġblocks":9150,"ĠerklÃ¤rung":9151,"Ġdefine":9152,"Ġwolken":9153,"Ġbeobachtet":9154,"Ġgrafik":9155,"Ġverzweif":9156,"but":9157,"har":9158,"hab":9159,"hÃ¤lt":9160,"jahr":9161,"wow":9162,"Ġwisst":9163,"Ġmall":9164,"ĠfÃ¤hig":9165,"Ġunderne":9166,"Ã¼hen":9167,"Ġsow":9168,"gene":9169,"indungen":9170,"Ġprove":9171,"Ġmanif":9172,"Ġimper":9173,"Ġmitarbeiter":9174,"osing":9175,"Ġplatt":9176,"Ġgender":9177,"Ġsteel":9178,"osex":9179,"Ġmehrheit":9180,"Ġpool":9181,"Ġgebeten":9182,"Ġregard":9183,"ĠzusÃ¤tz":9184,"Ġproduktion":9185,"Ġsolange":9186,"Ġputs":9187,"Ġmetal":9188,"Ġkamp":9189,"Ġzieht":9190,"Ġbrothers":9191,"Ġproteins":9192,"Ġkeeping":9193,"Ġeffectively":9194,"Ġmolek":9195,"Ġtraditionellen":9196,"Ġverring":9197,"Ġconnections":9198,"ĠfÃ¤lle":9199,"Ġliked":9200,"Ġrepresents":9201,"Ġregener":9202,"Ġlayer":9203,"Ġdimension":9204,"Ġschrecklich":9205,"Ġallgemeinen":9206,"Ġgraduate":9207,"Ġcomponents":9208,"Ġdinosaurier":9209,"Ġconsequences":9210,"Ġopinion":9211,"Ġunderneath":9212,"ae":9213,"dest":9214,"fert":9215,"fÃ¶r":9216,"Ġsources":9217,"Ġbip":9218,"Ġgand":9219,"Ġpeter":9220,"Ġtoten":9221,"Ġzone":9222,"ĠzÃ¤h":9223,"Ġverteilt":9224,"ĠschÃ¤tzen":9225,"Ġlehren":9226,"qualitÃ¤t":9227,"Ġsho":9228,"ĠgrÃ¶ÃŁen":9229,"Ġkonfront":9230,"Ġbesche":9231,"mehr":9232,"Ġaging":9233,"Ġpregn":9234,"Ġorganized":9235,"ographie":9236,"Ġhilfs":9237,"ĠvÃ¶gel":9238,"Ġbritain":9239,"Ġentdeckte":9240,"Ġimplic":9241,"Ġtrials":9242,"Ġniedrig":9243,"Ġexistence":9244,"Ġhydrogen":9245,"Ġungehe":9246,"Ġsetzte":9247,"ping":9248,"Ġtony":9249,"Ġwitz":9250,"Ġhen":9251,"Ġhide":9252,"itern":9253,"orient":9254,"Ġlou":9255,"Ġzahn":9256,"Ġweis":9257,"entiell":9258,"Ġstro":9259,"Ġstyle":9260,"Ġstammt":9261,"Ġrief":9262,"verhalten":9263,"idimens":9264,"Ġorbit":9265,"Ġumgeben":9266,"Ġcongress":9267,"Ġ28":9268,"Ġwilli":9269,"Ġrab":9270,"Ġwhereas":9271,"Ġscen":9272,"Ġpoem":9273,"Ġsms":9274,"rix":9275,"Ġirgendjem":9276,"Ġfolgt":9277,"Ġbroke":9278,"Ġstaff":9279,"Ġchemik":9280,"Ġarchitekten":9281,"Ġwohlstand":9282,"Ġholes":9283,"Ġhorse":9284,"Ġlaboratory":9285,"Ġechtzeit":9286,"Ġcarrying":9287,"Ġzitat":9288,"Ġpleasure":9289,"Ġcultures":9290,"Ġsophistic":9291,"Ġschlafen":9292,"Ġliquid":9293,"aurs":9294,"bors":9295,"eine":9296,"rus":9297,"wen":9298,"chron":9299,"Ġmama":9300,"onic":9301,"Ġhob":9302,"rechte":9303,"aschen":9304,"Ġost":9305,"Ġpill":9306,"Ġvort":9307,"ĠvÃ¶l":9308,"Ġproport":9309,"Ġheisst":9310,"anner":9311,"elly":9312,"oses":9313,"Ġwerbung":9314,"Ġdeeper":9315,"Ġshel":9316,"Ġtheme":9317,"Ġcompar":9318,"Ġwillst":9319,"Ġfewer":9320,"Ġmarch":9321,"Ġacqu":9322,"ĠgerÃ¤usch":9323,"Ġsmith":9324,"neten":9325,"Ġbereichen":9326,"Ġpoliticians":9327,"Ġfilms":9328,"Ġfolgende":9329,"Ġrisiken":9330,"Ġprotection":9331,"Ã¤use":9332,"Ġtypically":9333,"Ġlocation":9334,"Ġerlaub":9335,"Ġappropr":9336,"rÃ¤gt":9337,"Ġencoun":9338,"Ġcapture":9339,"Ġclinical":9340,"Ġexercise":9341,"Ġemployees":9342,"].":9343,"hÃ¶rt":9344,"source":9345,"ville":9346,"Ġtape":9347,"ĠnÃ¤hr":9348,"Ġjes":9349,"Ġalters":9350,"Ġschatten":9351,"estic":9352,"isters":9353,"abol":9354,"Ġums":9355,"Ġenden":9356,"Ġhierarch":9357,"izer":9358,"Ġmusical":9359,"Ġperception":9360,"Ġflies":9361,"ipe":9362,"Ġsolcher":9363,"rennen":9364,"Ġends":9365,"Ġversteht":9366,"Ġ2001":9367,"Ġstufe":9368,"Ġdrauf":9369,"Ġcollection":9370,"Ġchemistry":9371,"Ġwirtschaftlichen":9372,"Ġsituationen":9373,"Ġevolutionary":9374,"Ġvariety":9375,"Ġadvent":9376,"systeme":9377,"Ġkomplexe":9378,"iques":9379,"Ġbereiche":9380,"Ġrequires":9381,"Ġdunkle":9382,"Ġmexiko":9383,"Ġtransparent":9384,"Ġhouses":9385,"Ġdiplomat":9386,"Ġmortality":9387,"ader":9388,"cons":9389,"itution":9390,"ario":9391,"Ġcast":9392,"isationen":9393,"emble":9394,"Ġanerk":9395,"Ġverab":9396,"oles":9397,"Ġens":9398,"Ġactions":9399,"Ã¤tter":9400,"Ġfebru":9401,"Ġfacing":9402,"Ġlebenser":9403,"phones":9404,"aked":9405,"Ġversich":9406,"ĠmÃ¼ssten":9407,"Ġgramm":9408,"Ġproducing":9409,"Ġverstehe":9410,"Ġskill":9411,"Ġvideosp":9412,"Ġrisks":9413,"Ġrobust":9414,"Ġradical":9415,"Ġfeststellen":9416,"Ġverdopp":9417,"Ġfingers":9418,"Ġadded":9419,"Ġprimary":9420,"ĠpersÃ¶nlichen":9421,"Ġladies":9422,"Ġbirthday":9423,"Ġvermeiden":9424,"grÃ¼ndet":9425,"staat":9426,"Ġbauten":9427,"Ġbubble":9428,"Ġforgot":9429,"ĠÃ¤gyp":9430,"Ġempty":9431,"Ġadminist":9432,"cel":9433,"lv":9434,"zten":9435,"Ġbug":9436,"stimm":9437,"Ġpm":9438,"Ġpingu":9439,"Ġeink":9440,"Ġbedenken":9441,"Ġsoviel":9442,"Ġanre":9443,"hrung":9444,"Ġstere":9445,"achstum":9446,"scher":9447,"Ġalz":9448,"iban":9449,"ending":9450,"artige":9451,"Ġshad":9452,"Ġenzy":9453,"Ġstehe":9454,"Ġroh":9455,"Ġdurchs":9456,"Ġbegle":9457,"Ġmary":9458,"Ġsystemat":9459,"aled":9460,"ĠgehÃ¶r":9461,"Ġfreien":9462,"Ġapplied":9463,"Ġlanger":9464,"Ġkochen":9465,"klen":9466,"ĠweiÃŁe":9467,"Ġbeschloss":9468,"ammelt":9469,"Ġ800":9470,"Ġurs":9471,"theit":9472,"Ġcameras":9473,"Ġcambridge":9474,"nahm":9475,"lieÃŁt":9476,"Ġsatisf":9477,"Ġkorruption":9478,"Ġkulturen":9479,"Ġcutting":9480,"Ġledig":9481,"Ġwiderstand":9482,"Ġaustralien":9483,"Ġerwachsene":9484,"Ġsweet":9485,"Ġintellekt":9486,"Ġbietet":9487,"Ġexchange":9488,"Ġgesundheitswesen":9489,"appen":9490,"fri":9491,"karten":9492,"zing":9493,"atar":9494,"Ġhing":9495,"Ġhindern":9496,"Ġweak":9497,"oma":9498,"urm":9499,"Ġstir":9500,"Ġreef":9501,"Ġgoals":9502,"Ġworauf":9503,"istent":9504,"Ġausgel":9505,"ĠÃ¼bert":9506,"Ġtrillion":9507,"Ġblieb":9508,"Ġclock":9509,"Ġwirkliche":9510,"ught":9511,"ĠgelÃ¶st":9512,"achtung":9513,"Ġfarmer":9514,"Ġsites":9515,"Ġgenerally":9516,"Ġ2003":9517,"Ġ85":9518,"Ġtopic":9519,"Ġsituations":9520,"Ġcrack":9521,"otechn":9522,"ĠfÃ¼hrungs":9523,"ĠpersÃ¶nliche":9524,"Ġprotest":9525,"ĠÃ¼berraschend":9526,"Ġemerging":9527,"ĠbevÃ¶lker":9528,"Ġernsthaft":9529,"Ġmedikament":9530,"Ġumfeld":9531,"Ġdinosaurs":9532,"Ġsatellite":9533,"Ġintroduce":9534,"Ġvulnerable":9535,"Ġchannel":9536,"ĠfranzÃ¶s":9537,"Ġintellectual":9538,"computer":9539,"Ġcircumst":9540,"Ġagenda":9541,"Ġlediglich":9542,"-,":9543,"foot":9544,"hne":9545,"sm":9546,"Ġdum":9547,"Ġdots":9548,"Ġdumm":9549,"ielle":9550,"Ġfein":9551,"iche":9552,"arre":9553,"Ġlic":9554,"Ġcous":9555,"Ġcents":9556,"Ġcub":9557,"unken":9558,"Ġjh":9559,"Ġrechen":9560,"Ġunex":9561,"bern":9562,"Ġaufnehmen":9563,"estyle":9564,"Ġvoran":9565,"Ġvorzustellen":9566,"Ġdarunter":9567,"Ġkannte":9568,"Ġbesessen":9569,"ielen":9570,"Ġworlds":9571,"Ġscript":9572,"acters":9573,"Ġdriver":9574,"hai":9575,"Ġinsul":9576,"Ġrelative":9577,"Ġcenters":9578,"Ġcharacters":9579,"Ġbrook":9580,"versorgung":9581,"ĠhÃ¶re":9582,"Ġmathematical":9583,"spruch":9584,"ĠgroÃŁartigen":9585,"Ġriesen":9586,"Ġkorallen":9587,"Ġfernseh":9588,"Ġviruses":9589,"Ġreplace":9590,"Ġsongs":9591,"ĠstÃ¤rke":9592,"preis":9593,"ĠberÃ¼hrt":9594,"Ġgespielt":9595,"Ġmanufacturing":9596,"Ġzoom":9597,"Ġdefinitely":9598,"punkte":9599,"Ġlifetime":9600,"Ġalzheimer":9601,"dies":9602,"ost":9603,"Ġaer":9604,"Ġkosm":9605,"Ġrefer":9606,"Ġerstellt":9607,"Ġgegend":9608,"umin":9609,"bers":9610,"Ġnotes":9611,"Ġdefe":9612,"iences":9613,"ĠgenÃ¼":9614,"ologische":9615,"Ġkongress":9616,"Ġdisaster":9617,"alem":9618,"Ġminer":9619,"prozess":9620,"klÃ¤r":9621,"Ġbelieb":9622,"Ġinterests":9623,"Ġneurosc":9624,"Ġradiation":9625,"Ġassign":9626,"Ġintuit":9627,"Ġlegit":9628,"Ġnukle":9629,"Ġmulti":9630,"Ġsample":9631,"Ġconsumer":9632,"Ġhomo":9633,"schritte":9634,"Ġselling":9635,"ĠunterstÃ¼tzt":9636,"Ġdiscussion":9637,"Ġconvince":9638,"Ġexistenz":9639,"Ġgravity":9640,"Ġofficial":9641,"Ġvorhersagen":9642,"Ġclaim":9643,"Ġdiskussion":9644,"Ġaffected":9645,"Ġvietnam":9646,"dis":9647,"kÃ¶":9648,"kind":9649,"osen":9650,"Ġachten":9651,"Ġatem":9652,"Ġded":9653,"Ġdiction":9654,"Ġbiz":9655,"Ġing":9656,"Ġinher":9657,"Ġkb":9658,"Ġky":9659,"Ġanger":9660,"Ġseid":9661,"ologe":9662,"vermÃ¶gen":9663,"lying":9664,"Ġatoms":9665,"ppy":9666,"Ġteuf":9667,"ika":9668,"ĠwofÃ¼r":9669,"Ġinteressen":9670,"Ġbuying":9671,"Ġresc":9672,"Ġarbeiter":9673,"ĠgerÃ¤us":9674,"athers":9675,"Ġtransfer":9676,"Ġgegenwart":9677,"inson":9678,"Ġcoral":9679,"Ġkreieren":9680,"Ġsett":9681,"Ġenvironments":9682,"Ġchemie":9683,"Ġmemories":9684,"besond":9685,"Ġbehaviors":9686,"Ġwestlichen":9687,"Ġsouthern":9688,"Ġsynchron":9689,"grad":9690,"ĠpersÃ¶nlichkeit":9691,"Ġsending":9692,"schrÃ¤n":9693,"Ġspeziell":9694,"Ġchemicals":9695,"Ġquantum":9696,"Ġsatelliten":9697,"Ġderek":9698,"Ġdieselben":9699,"ĠverblÃ¼":9700,"70":9701,"bieten":9702,"dam":9703,"kung":9704,"uation":9705,"west":9706,"Ġsides":9707,"Ġthro":9708,"Ġhun":9709,"anthrop":9710,"Ġfed":9711,"Ġlager":9712,"Ġcas":9713,"Ġcredit":9714,"uses":9715,"icious":9716,"ĠgegrÃ¼ndet":9717,"sey":9718,"bevÃ¶l":9719,"Ġheight":9720,"mented":9721,"Ġgesichter":9722,"ĠÃ¼bernehmen":9723,"Ġherren":9724,"Ġacting":9725,"Ġaftern":9726,"Ġscrat":9727,"obi":9728,"Ġmarke":9729,"Ġsimulation":9730,"Ġlangweil":9731,"Ġelimin":9732,"ĠgefÃ¤llt":9733,"Ġgenerate":9734,"Ġgemeinsame":9735,"Ġrufen":9736,"ĠverknÃ¼":9737,"Ġwirtschafts":9738,"Ġbauch":9739,"Ġmeetings":9740,"wareness":9741,"Ġenorme":9742,"Ġoccup":9743,"Ġrelease":9744,"Ġreleased":9745,"Ġromant":9746,"Ġjunger":9747,"ĠmolekÃ¼l":9748,"Ġvictims":9749,"Ġkonflik":9750,"Ġdetermin":9751,"Ġspectrum":9752,"ĠmÃ¤chtig":9753,"Ġentrepreneur":9754,"Ġrapidly":9755,"Ġgegenseitig":9756,"Ġdoubt":9757,"Ġflorida":9758,"faces":9759,"mor":9760,"vis":9761,"wesen":9762,"Ġwahn":9763,"Ġlam":9764,"Ġku":9765,"ura":9766,"oting":9767,"Ġrig":9768,"Ġforced":9769,"Ġlift":9770,"ienz":9771,"anging":9772,"Ġhierher":9773,"Ġrollen":9774,"Ġray":9775,"Ġwissens":9776,"Ġtechniques":9777,"Ġhandel":9778,"Ġpersonally":9779,"ĠbestÃ¤t":9780,"Ġinsbesond":9781,"Ġmetall":9782,"Ġlangfrist":9783,"Ġgrundle":9784,"ziehung":9785,"Ġnaturally":9786,"Ġcorn":9787,"Ġbesseres":9788,"Ġwaves":9789,"Ã¤ltigen":9790,"Ġeastern":9791,"Ġtaste":9792,"Ġwebseite":9793,"ĠÃ¤hnliche":9794,"Ġuntersucht":9795,"Ġverbessert":9796,"Ġsilicon":9797,"Ġsicherheits":9798,"Ġparadox":9799,"Ġburning":9800,"Ġinevit":9801,"Ġgebraucht":9802,"Ġsharks":9803,"Ġveranst":9804,"Ġpacific":9805,"Ġvagina":9806,"Ġbeinhaltet":9807,"Ġweihn":9808,"Ġmanifest":9809,"bevÃ¶lkerung":9810,"kultur":9811,"wenden":9812,"iner":9813,"Ġsilen":9814,"itarian":9815,"Ġeiniges":9816,"Ġhacker":9817,"Ġsowas":9818,"Ġstahl":9819,"Ġunlike":9820,"kehrt":9821,"Ġschicks":9822,"Ġride":9823,"Ġformer":9824,"seins":9825,"Ġlektion":9826,"Ġaspe":9827,"Ġshut":9828,"utete":9829,"Ġamy":9830,"Ġunterhaltung":9831,"Ġfeature":9832,"Ġmirror":9833,"Ġobst":9834,"Ġpole":9835,"Ġremain":9836,"Ġstanden":9837,"Ġberichten":9838,"boden":9839,"Ġstuhl":9840,"Ġkreuz":9841,"Ã¤usern":9842,"Ġkeeps":9843,"cling":9844,"Ġeingel":9845,"Ġmessages":9846,"ĠsÃ¼ÃŁ":9847,"Ġwertvoll":9848,"Ġdeta":9849,"Ġorigami":9850,"Ġakadem":9851,"Ġgalaxie":9852,"Ġultra":9853,"Ġfahrrad":9854,"stoffen":9855,"Ġdurchschnittliche":9856,"icherheit":9857,"Ġzivilisation":9858,"bilden":9859,"Ġdahinter":9860,"Ġepidemic":9861,"ĠberÃ¼hmt":9862,"Ġempathy":9863,"Ġexplosion":9864,"Ġprepared":9865,"Ġnewspaper":9866,"bom":9867,"dp":9868,"mill":9869,"Ġmile":9870,"Ġhut":9871,"Ġhits":9872,"rete":9873,"Ġeu":9874,"ita":9875,"Ġpause":9876,"orted":9877,"Ġbeer":9878,"ĠzuhÃ¶ren":9879,"Ġsees":9880,"Ġalb":9881,"Ġaugust":9882,"opy":9883,"opter":9884,"Ġpros":9885,"uche":9886,"Ġentfer":9887,"Ġmenschlicher":9888,"ologischen":9889,"ĠbrÃ¼cke":9890,"ruh":9891,"Ġkonserv":9892,"Ġblumen":9893,"Ġaggress":9894,"Ġindic":9895,"Ġspeich":9896,"Ġdamen":9897,"Ġgoods":9898,"Ġinvention":9899,"Ġweiterer":9900,"Ġcourt":9901,"Ġmomentan":9902,"krise":9903,"Ġkriegs":9904,"ĠkÃ¼mmer":9905,"Ġsenses":9906,"Ġdestruction":9907,"Ġmovements":9908,"Ġstrategie":9909,"abilities":9910,"Ġpflege":9911,"person":9912,"kosten":9913,"Ġliefern":9914,"Ġlokalen":9915,"wÃ¼rd":9916,"ĠgrÃ¼nen":9917,"Ġinitiative":9918,"Ġencourage":9919,"Ġakzeptieren":9920,"ĠÃ¤uÃŁerst":9921,"Ġdigitale":9922,"ĠselbstverstÃ¤ndlich":9923,"Ġrenew":9924,"Ġentfernen":9925,"affen":9926,"gibt":9927,"kungen":9928,"kins":9929,"mes":9930,"Ġtab":9931,"Ġbos":9932,"Ġpion":9933,"Ġpul":9934,"Ġlass":9935,"urance":9936,"roph":9937,"icip":9938,"Ġunus":9939,"opf":9940,"agers":9941,"Ġarist":9942,"artig":9943,"Ġ191":9944,"gling":9945,"Ġerfindung":9946,"ĠverÃ¤nderte":9947,"pfung":9948,"imming":9949,"Ġcarefully":9950,"Ġhealthcare":9951,"ĠsÃ¼den":9952,"Ġstattf":9953,"Ġdepends":9954,"Ġengaged":9955,"Ġproperties":9956,"Ġefficiency":9957,"build":9958,"Ġanwendung":9959,"Ġgerechtigkeit":9960,"lÃ¶sung":9961,"Ġjesus":9962,"Ġscratch":9963,"Ġinsbesondere":9964,"kap":9965,"pra":9966,"rative":9967,"Ġathe":9968,"Ġhu":9969,"Ġhoney":9970,"Ġought":9971,"ari":9972,"Ġlength":9973,"Ġbeibr":9974,"Ġreven":9975,"Ġverschl":9976,"Ġerforsch":9977,"Ġimpress":9978,"illing":9979,"Ġsper":9980,"erson":9981,"Ã¶nt":9982,"Ġwillen":9983,"Ġfake":9984,"ifer":9985,"stellte":9986,"Ġgewin":9987,"Ġrealen":9988,"Ġtechnological":9989,"Ġboom":9990,"Ġmomente":9991,"Ġruns":9992,"Ġlessons":9993,"gehend":9994,"Ġsignale":9995,"Ġlinked":9996,"Ġschwieriger":9997,"Ġreference":9998,"Ġinternal":9999,"Ġliterature":10000,"Ġanstren":10001,"Ġpractical":10002,"Ġrocket":10003,"Ġpfund":10004,"Ġneighbors":10005,"Ġtaliban":10006,"Ġgelebt":10007,"ĠenthÃ¤lt":10008,"Ġergibt":10009,"Ġintroduced":10010,"technologie":10011,"Ġencoura":10012,"Ġipod":10013,"Ġspektrum":10014,"Ġaustaus":10015,"Ġafternoon":10016,"zung":10017,"zipl":10018,"Ġtanzen":10019,"Ġwine":10020,"sters":10021,"ĠlÃ¤nd":10022,"Ã¼se":10023,"Ġhaar":10024,"rooms":10025,"Ġanschein":10026,"Ġvergewalt":10027,"Ġlebe":10028,"Ġmanager":10029,"Ġgore":10030,"Ġworan":10031,"Ġnoten":10032,"Ġplot":10033,"Ġnachden":10034,"Ġcompl":10035,"Ġbesitzt":10036,"Ġblatt":10037,"half":10038,"akers":10039,"Ġmarine":10040,"Ġdriven":10041,"Ġgewiss":10042,"barer":10043,"Ġteilweise":10044,"haften":10045,"Ġlake":10046,"Ġserve":10047,"losigkeit":10048,"Ġpray":10049,"Ġinnovations":10050,"Ġpsychiat":10051,"Ġreligions":10052,"Ġego":10053,"Ġgottes":10054,"Ġerhielt":10055,"Ġaussage":10056,"Ġreached":10057,"Ġpulled":10058,"Ġtransportation":10059,"Ġpromise":10060,"sprozess":10061,"Ġinnere":10062,"ĠgrÃ¼ne":10063,"Ġkombination":10064,"ĠlÃ¤cheln":10065,"Ġtelescope":10066,"Ġmittlerweile":10067,"ĠvÃ¶lker":10068,"Ġingred":10069,"fassen":10070,"kat":10071,"mot":10072,"yal":10073,"Ġbicy":10074,"Ġhug":10075,"station":10076,"Ġnir":10077,"alled":10078,"Ġschauspiel":10079,"Ġdogs":10080,"aust":10081,"Ġvorzu":10082,"Ġvorteile":10083,"Ġgrat":10084,"Ġ29":10085,"Ġquarter":10086,"Ġfeatures":10087,"Ġscar":10088,"Ġload":10089,"Ġprefer":10090,"Ġregions":10091,"Ġzwang":10092,"Ġbeschrieben":10093,"Ġphysi":10094,"Ġfalschen":10095,"Ġwirtschaftliche":10096,"Ġoperate":10097,"Ġsensor":10098,"Ġbottle":10099,"Ġinteressantes":10100,"ĠaktivitÃ¤ten":10101,"Ġrecords":10102,"Ġpresentation":10103,"Ġsilk":10104,"Ġstatistiken":10105,"Ġsustainability":10106,"Ġafrikanischen":10107,"Ġauthority":10108,"ĠursprÃ¼nglich":10109,"Ġbibliothe":10110,"Ġerneuer":10111,"ĠbedÃ¼rfnisse":10112,"Ġeindeutig":10113,"bage":10114,"fle":10115,"rass":10116,"ta":10117,"ĠwÃ¼s":10118,"esie":10119,"Ġgdp":10120,"Ġupper":10121,"ĠfÃ¤hrt":10122,"Ġnase":10123,"Ġpum":10124,"Ġcards":10125,"rain":10126,"Ġanstelle":10127,"Ġunmittel":10128,"Ġaufnahme":10129,"ulating":10130,"Ġsac":10131,"iveau":10132,"Ġmenschliches":10133,"Ġgeschlossen":10134,"Ġzweimal":10135,"lief":10136,"Ġwelten":10137,"Ġremo":10138,"ĠweiÃŁt":10139,"iogen":10140,"Ġmilk":10141,"Ġgarage":10142,"Ġinnovationen":10143,"osphÃ¤re":10144,"Ġkorre":10145,"Ġspringen":10146,"Ġtausenden":10147,"Ġhospitals":10148,"Ġcombination":10149,"ĠÃ¼berwinden":10150,"Ġcollaboration":10151,"bilder":10152,"ĠerhÃ¶hen":10153,"leistungen":10154,"Ġwireless":10155,"Ġconservation":10156,"problem":10157,"Ġaccurate":10158,"Ġgeschenk":10159,"Ġroute":10160,"Ġphantom":10161,"Ġsophisticated":10162,"Ġunusual":10163,"aber":10164,"greg":10165,"hst":10166,"ole":10167,"energie":10168,"Ġsed":10169,"Ġmi":10170,"Ġfiction":10171,"Ġnin":10172,"Ġlon":10173,"Ġloud":10174,"Ġkateg":10175,"Ġbeiz":10176,"Ġsoweit":10177,"emen":10178,"Ġwhist":10179,"Ġmeister":10180,"Ġprobe":10181,"Ġmanchen":10182,"agon":10183,"ĠÃ¼berqu":10184,"Ġvorder":10185,"Ġmengen":10186,"Ġsteuer":10187,"Ġcoca":10188,"Ġros":10189,"Ġunterrichten":10190,"Ġblauen":10191,"ugel":10192,"aks":10193,"ĠgewÃ¤hlt":10194,"Ġevening":10195,"ternal":10196,"otherap":10197,"Ġbekannten":10198,"Ġfactors":10199,"Ġbike":10200,"Ġformed":10201,"Ġfalling":10202,"jected":10203,"anzig":10204,"Ġsenden":10205,"Ġfolie":10206,"Ġkurs":10207,"Ġdirector":10208,"Ġanfing":10209,"Ġbedarf":10210,"Ġsinging":10211,"Ġverschm":10212,"Ġdauerte":10213,"Ġdropped":10214,"Ġkostenlos":10215,"putation":10216,"Ġcircuit":10217,"ĠsÃ¼dafrika":10218,"Ġverwandelt":10219,"Ġkonzentriert":10220,"Ġkanada":10221,"Ġkenia":10222,"Ġalgorithms":10223,"Ġmistake":10224,"Ġmistakes":10225,"rÃ¼st":10226,"iosity":10227,"Ġridic":10228,"Ġbehaupten":10229,"Ġpuzzle":10230,"gesellschaft":10231,"Ġgeholfen":10232,"Ġhenry":10233,"Ġirgendjemand":10234,"90":10235,"],":10236,"ele":10237,"gie":10238,"hh":10239,"vation":10240,"wÃ¤":10241,"inst":10242,"Ġveter":10243,"igungen":10244,"ician":10245,"Ġanschaut":10246,"aming":10247,"schuld":10248,"keys":10249,"Ġleichter":10250,"weiÃŁ":10251,"Ġausgew":10252,"ikations":10253,"Ġdemograph":10254,"Ġentrop":10255,"Ġquer":10256,"plÃ¤tze":10257,"Ġbesagt":10258,"Ġwirkung":10259,"Ġzeitung":10260,"werken":10261,"Ġgrundlage":10262,"arbeitung":10263,"scale":10264,"Ġtrocken":10265,"Ġmechanical":10266,"Ġfootball":10267,"Ġtonight":10268,"Ġblogs":10269,"Ġjener":10270,"Ġestim":10271,"Ġmetapher":10272,"Ġforests":10273,"pflanzen":10274,"Ġautomatisch":10275,"Ġvehicles":10276,"Ġdiagramm":10277,"sprache":10278,"Ġpoetry":10279,"Ġtraurig":10280,"Ġentertainment":10281,"Ġantibiot":10282,"Ġchemikalien":10283,"frei":10284,"fassung":10285,"nungs":10286,"ups":10287,"vable":10288,"Ġdut":10289,"Ġsight":10290,"Ġboo":10291,"Ġfingen":10292,"Ġnick":10293,"Ġpump":10294,"Ġcure":10295,"Ġbezeichnen":10296,"Ã¤den":10297,"Ġdiver":10298,"Ġjosh":10299,"lyn":10300,"Ġzehnt":10301,"Ġintervention":10302,"Ġmeinte":10303,"Ġunteren":10304,"Ã¶rungen":10305,"mechan":10306,"Ġlieb":10307,"Ġverbrechen":10308,"gesetz":10309,"Ġgray":10310,"Ġ55":10311,"Ġbillig":10312,"Ġfunktionierte":10313,"Ġphysically":10314,"Ġswim":10315,"Ġbetracht":10316,"Ġlinear":10317,"Ġincreased":10318,"Ġsunlight":10319,"Ġfundamentally":10320,"Ġkollekt":10321,"Ġerdbe":10322,"Ġdramatic":10323,"Ġangestell":10324,"Ġpollution":10325,"Ġhoping":10326,"ĠflÃ¼cht":10327,"Ġgeburtstag":10328,"Ġereignis":10329,"bÃ¼cher":10330,"Ġjahrzehnten":10331,"Ġzuschauer":10332,"profit":10333,"Ġancestors":10334,"Ġpotenzial":10335,"probieren":10336,"Ġtsun":10337,"Ġerweitern":10338,"Ġpiano":10339,"Ġexpedition":10340,"Ġencounter":10341,"friend":10342,"ippen":10343,"uhr":10344,"Ġawareness":10345,"Ġmim":10346,"Ġmisch":10347,"rechn":10348,"anes":10349,"anische":10350,"Ġooh":10351,"Ġvoc":10352,"Ġkabel":10353,"level":10354,"Ġwhales":10355,"Ġseht":10356,"Ġeric":10357,"olar":10358,"ctic":10359,"Ġleon":10360,"behÃ¶r":10361,"opath":10362,"Ġimit":10363,"Ġchimpan":10364,"menge":10365,"ausend":10366,"Ġausser":10367,"ikes":10368,"Ġplans":10369,"ateful":10370,"Ġknapp":10371,"Ġdargestellt":10372,"Ġhoward":10373,"Ġvieles":10374,"ĠfÃ¼hrer":10375,"Ġeinfaches":10376,"ĠdrÃ¼cken":10377,"Ġ36":10378,"Ġbene":10379,"Ġeinzeln":10380,"Ġansieht":10381,"Ġberlin":10382,"Ġvisible":10383,"Ġeigent":10384,"Ġbiologische":10385,"Ġfigures":10386,"Ġweshalb":10387,"Ġfortschritte":10388,"Ġhilf":10389,"Ġunglaublichen":10390,"Ġverdient":10391,"Ġamounts":10392,"Ġdiscipl":10393,"Ġmechanism":10394,"Ġrecorded":10395,"Ġzentral":10396,"Ġinclude":10397,"Ġtruck":10398,"Ġphotographs":10399,"Ġhallo":10400,"Ġmeaningful":10401,"schriften":10402,"Ġdemonstration":10403,"Ġspiritual":10404,"Ġactivities":10405,"Ġinterpretation":10406,"Ġgekauft":10407,"Ġkirche":10408,"zepte":10409,"Ġchimpanze":10410,"ee":10411,"lines":10412,"rier":10413,"yeah":10414,"Ġthir":10415,"Ġhub":10416,"ĠgÃ¼nst":10417,"Ġohren":10418,"Ġcup":10419,"leib":10420,"etten":10421,"Ġanhand":10422,"Ġzufall":10423,"Ġverhe":10424,"Ġabra":10425,"ola":10426,"ĠschÃ¼t":10427,"ĠschÃ¤tz":10428,"being":10429,"Ġwieviel":10430,"illa":10431,"Ġausgeben":10432,"Ġatmen":10433,"Ġumher":10434,"Ġtrinken":10435,"ĠdurchfÃ¼hren":10436,"Ġclou":10437,"Ġdress":10438,"vely":10439,"Ġgebiete":10440,"Ġwahrnehmen":10441,"Ġcomputing":10442,"Ġsonder":10443,"Ġprocessing":10444,"Ġneurow":10445,"Ġswimming":10446,"Ġpsychology":10447,"Ġfalse":10448,"chester":10449,"Ġexisting":10450,"Ġultimate":10451,"linie":10452,"Ġgemeinsamen":10453,"Ġinstruments":10454,"Ġborder":10455,"Ġcritic":10456,"Ġfroh":10457,"Ġtraveling":10458,"Ġconstant":10459,"Ġdetect":10460,"Ġspeziellen":10461,"Ġrestaurants":10462,"Ġparticipate":10463,"Ġbemerkenswert":10464,"Ġbonob":10465,"Ġvorstellungskraft":10466,"ĠverstÃ¤r":10467,"Ġoccurred":10468,"Ġconclusion":10469,"Ġkontinent":10470,"Ġschritte":10471,"Ġsogenannte":10472,"Ġerlebnis":10473,"Ġelefanten":10474,"Ġembarrass":10475,"lad":10476,"nommen":10477,"oted":10478,"uits":10479,"Ġhipp":10480,"annen":10481,"Ġcath":10482,"irat":10483,"Ġabfall":10484,"ĠrÃ¶":10485,"Ġrennen":10486,"Ġleiten":10487,"Ġoutcome":10488,"Ġscared":10489,"Ġclub":10490,"Ġ33":10491,"ĠgewÃ¶":10492,"Ġsolved":10493,"Ġglaubte":10494,"Ġpercentage":10495,"Ġinstin":10496,"Ġcreature":10497,"Ġbrow":10498,"drÃ¼ck":10499,"Ġsigns":10500,"Ġequally":10501,"Ġtwenty":10502,"Ġbaute":10503,"Ġliteratur":10504,"osphere":10505,"Ġscheinbar":10506,"ĠfÃ¼hrten":10507,"Ġexplained":10508,"Ġrequired":10509,"Ġgesichts":10510,"ĠbezÃ¼":10511,"freund":10512,"Ġrussia":10513,"Ġfasziniert":10514,"Ġnachhaltigkeit":10515,"Ġirgendwel":10516,"Ġaufgewachsen":10517,"fÃ¤higkeit":10518,"lass":10519,"lings":10520,"wald":10521,"Ġtick":10522,"Ġtack":10523,"inction":10524,"Ġagency":10525,"Ġokt":10526,"Ġpc":10527,"ĠlÃ¼gen":10528,"Ġvit":10529,"Ġstern":10530,"Ġerror":10531,"Ġrb":10532,"Ġrush":10533,"Ġspo":10534,"Ġspann":10535,"Ġchol":10536,"Ġextens":10537,"Ġmail":10538,"Ġshame":10539,"Ġplate":10540,"Ġwovon":10541,"Ġdarstellung":10542,"Ġsomewhat":10543,"Ã¤tzt":10544,"sph":10545,"acles":10546,"Ġreson":10547,"Ġprepar":10548,"Ġdrives":10549,"griffen":10550,"Ġmonkey":10551,"Ġelection":10552,"Ġmini":10553,"Ġinstru":10554,"Ġexpans":10555,"Ġgarant":10556,"Ġprotected":10557,"Ġintim":10558,"Ġmemor":10559,"Ġorganisieren":10560,"Ġinvolv":10561,"Ġmedizinischen":10562,"ografie":10563,"Ġmittag":10564,"Ġtiefer":10565,"Ġconversations":10566,"Ġlokale":10567,"Ġbatterie":10568,"ĠwÃ¼ste":10569,"coln":10570,"Ġexploration":10571,"Ġelectronic":10572,"Ġframework":10573,"Ġjahrzehnte":10574,"Ġseason":10575,"Ġhorrible":10576,"ĠspÃ¼ren":10577,"Ġaccompl":10578,"Ġcircumstances":10579,"Ġinsulin":10580,"Ġsilence":10581,"aa":10582,"cious":10583,"fi":10584,"vest":10585,"Ġtreiben":10586,"Ġapr":10587,"Ġmelt":10588,"Ġbol":10589,"Ġinten":10590,"Ġpor":10591,"Ġlungen":10592,"isph":10593,"Ġeinstellung":10594,"igem":10595,"unge":10596,"Ġzuzu":10597,"Ġseh":10598,"Ġstap":10599,"ĠstÃ¼cke":10600,"Ġuncom":10601,"gence":10602,"Ġworum":10603,"zeigen":10604,"Ġdeser":10605,"Ġsav":10606,"quality":10607,"Ġshang":10608,"Ġnachgedacht":10609,"Ġdarstellt":10610,"Ġbetreiben":10611,"ĠflÃ¤che":10612,"Ġnewton":10613,"Ġhinunter":10614,"Ġfunctions":10615,"Ã¤ufer":10616,"Ġfarb":10617,"Ġversteckt":10618,"Ġbillionen":10619,"Ġmatrix":10620,"Ġstret":10621,"Ġsets":10622,"Ġproteine":10623,"Ġoptions":10624,"Ġperfekte":10625,"Ġeggs":10626,"ĠkÃ¼ste":10627,"metho":10628,"Ġkoran":10629,"Ġmoralische":10630,"Ġoccasion":10631,"Ġterrorism":10632,"Ġirgendeine":10633,"Ġblaue":10634,"Ġlaptops":10635,"Ġcooking":10636,"Ġphysikal":10637,"ĠerhÃ¶ht":10638,"ĠprÃ¤sentation":10639,"Ġabstract":10640,"Ġchinesische":10641,"Ġingenieur":10642,"Ġhemisph":10643,"Ġentrepreneurs":10644,"Ġgeographic":10645,"Ġfokuss":10646,"ihad":10647,"Ġembrace":10648,"Ġerweiter":10649,"Ġclothes":10650,"Ġbekomme":10651,"bod":10652,"meter":10653,"making":10654,"nor":10655,"pal":10656,"Ġskl":10657,"Ġhook":10658,"Ġeier":10659,"iters":10660,"itors":10661,"Ġpix":10662,"isl":10663,"Ġzauber":10664,"Ã¼lt":10665,"unate":10666,"rogen":10667,"Ġsternen":10668,"Ġaufbau":10669,"elling":10670,"aby":10671,"Ġ1000":10672,"Ġtri":10673,"Ġtrug":10674,"stechn":10675,"iertes":10676,"Ġmush":10677,"Ġpharm":10678,"Ġclar":10679,"Ġoverall":10680,"Ġoverwh":10681,"Ġregionen":10682,"ĠzusÃ¤tzlich":10683,"aufnahme":10684,"Ġbasierend":10685,"Ġverlang":10686,"Ġskulpt":10687,"ĠlÃ¶cher":10688,"ĠgedÃ¤chtnis":10689,"ĠglÃ¼cklicherweise":10690,"Ġverglichen":10691,"Ġruf":10692,"Ġafrikas":10693,"Ġpsychological":10694,"aneously":10695,"Ġeducational":10696,"Ġchallenging":10697,"ĠstÃ¤dt":10698,"Ġtitle":10699,"Ġsichtbar":10700,"Ġozeane":10701,"Ġclosely":10702,"Ġfrankly":10703,"Ġprinzipien":10704,"Ġverschwunden":10705,"Ġlokal":10706,"Ġsymmetr":10707,"Ġpositiv":10708,"Ġingenieure":10709,"Ġhousing":10710,"Ġuntersuchung":10711,"burgh":10712,"Ġelephant":10713,"Ġphrase":10714,"Ġoverwhel":10715,"aids":10716,"las":10717,"pel":10718,"vier":10719,"Ġtast":10720,"ati":10721,"Ġgle":10722,"Ġinzwischen":10723,"Ġpizz":10724,"ingly":10725,"Ġbefe":10726,"Ġanx":10727,"Ġanget":10728,"Ġannahme":10729,"Ġreverse":10730,"Ġunfall":10731,"Ġabh":10732,"ima":10733,"Ġrating":10734,"ckten":10735,"Ġaufgere":10736,"Ġspenden":10737,"Ġbutton":10738,"Ġausstellung":10739,"Ġtrig":10740,"Ġoutput":10741,"ahnen":10742,"Ġquellen":10743,"Ġfaktor":10744,"Ġbetrieben":10745,"gesamt":10746,"Ġregime":10747,"Ġregierungs":10748,"ĠtatsÃ¤ch":10749,"Ġmetabol":10750,"ission":10751,"Ġ42":10752,"ĠberÃ¼ck":10753,"sterben":10754,"Ġgemeinschaften":10755,"version":10756,"geschwindigkeit":10757,"Ġcuriosity":10758,"ducing":10759,"Ġresultat":10760,"Ġdefined":10761,"systems":10762,"Ġdeaths":10763,"Ġsandwich":10764,"opping":10765,"Ġvergangenen":10766,"Ġdebatte":10767,"Ġtracking":10768,"Ġbemerkens":10769,"Ġgrosse":10770,"Ġpresence":10771,"Ġappreciate":10772,"Ġwettbewerb":10773,"Ġvaccine":10774,"ĠgenÃ¼gend":10775,"Ġbeibringen":10776,"Ġabraham":10777,"ĠbezÃ¼glich":10778,"bir":10779,"gely":10780,"greifen":10781,"lades":10782,"rated":10783,"ini":10784,"child":10785,"ata":10786,"Ġcave":10787,"leb":10788,"uther":10789,"urz":10790,"Ġwirken":10791,"Ġerhe":10792,"umente":10793,"thal":10794,"Ġausbre":10795,"Ġausgesetzt":10796,"quelle":10797,"Ġshark":10798,"neiden":10799,"Ġgrippe":10800,"Ġgrateful":10801,"Ġamate":10802,"forest":10803,"Ġscore":10804,"Ġresil":10805,"Ġhandle":10806,"ĠgemÃ¤l":10807,"Ġembed":10808,"Ġguard":10809,"Ġstatement":10810,"Ġjazz":10811,"ĠkrÃ¤":10812,"Ġslums":10813,"Ġstorytell":10814,"Ġeconomists":10815,"Ġnett":10816,"Ġarchitects":10817,"Ġadvice":10818,"Ġniemanden":10819,"Ġlincoln":10820,"Ġmerken":10821,"belie":10822,"Ġkomplexen":10823,"Ġlogic":10824,"Ġultras":10825,"Ġfolgenden":10826,"ĠzerstÃ¶rung":10827,"Ġcombine":10828,"Ġroads":10829,"Ġchristmas":10830,"Ġislands":10831,"Ġimplant":10832,"Ġpassionate":10833,"Ġenthus":10834,"Ġbanglades":10835,"ĠhÃ¶chsten":10836,"ĠernÃ¤hrung":10837,"Ġfokus":10838,"Ġwenigstens":10839,"Ġpermanent":10840,"pendence":10841,"ĠbevÃ¶lkerungs":10842,"Ġclouds":10843,"hum":10844,"lag":10845,"lÃ¤uft":10846,"material":10847,"rÃ¤ume":10848,"vol":10849,"wr":10850,"zum":10851,"ĠhieÃŁ":10852,"Ġhielten":10853,"Ġeisen":10854,"Ġpir":10855,"Ġlung":10856,"Ġlying":10857,"Ġkond":10858,"Ġkath":10859,"Ġkalt":10860,"Ġeint":10861,"Ġsovie":10862,"Ġjet":10863,"ĠrÃ¤ume":10864,"anned":10865,"Ġchips":10866,"Ġchancen":10867,"Ġentt":10868,"Ġkindes":10869,"Ġacts":10870,"ptions":10871,"Ġunterwegs":10872,"Ġvielmehr":10873,"flÃ¼":10874,"Ġmarken":10875,"Ġgeret":10876,"Ġpolic":10877,"ishment":10878,"Ġherausf":10879,"Ġcounty":10880,"Ġjoke":10881,"Ġlargely":10882,"Ġcorresp":10883,"Ġcollected":10884,"Ġbreit":10885,"Ġyounger":10886,"Ġoperations":10887,"aktor":10888,"Ġtreating":10889,"Ġdepth":10890,"Ġflew":10891,"Ġcollapse":10892,"Ġkapitel":10893,"frau":10894,"Ġstronger":10895,"Ġmeasured":10896,"Ġflowers":10897,"Ġcombined":10898,"Ġlifestyle":10899,"Ġsubjects":10900,"Ġcartoons":10901,"Ġastron":10902,"Ġtherapy":10903,"Ġschnee":10904,"leistung":10905,"Ġgentlemen":10906,"Ġsplit":10907,"Ġparadigm":10908,"Ġbronx":10909,"Ġexplanation":10910,"Ġschicksal":10911,"Ġeingeladen":10912,"Ġshanghai":10913,"gut":10914,"kette":10915,"linge":10916,"oÃŁen":10917,"Ġ:":10918,"Ġtent":10919,"Ġbese":10920,"Ġgulf":10921,"stimmen":10922,"Ġfurn":10923,"Ġly":10924,"ismen":10925,"Ã¼che":10926,"urer":10927,"ema":10928,"veled":10929,"Ġunknown":10930,"Ġabwe":10931,"Ġschrei":10932,"Ġdens":10933,"umines":10934,"Ġneither":10935,"Ġaufnahmen":10936,"mensch":10937,"Ġcomment":10938,"Ġnose":10939,"Ġshakes":10940,"Ġenthalten":10941,"Ġknock":10942,"Ġzeigten":10943,"ifiz":10944,"Ġwherever":10945,"Ġtrafen":10946,"Ã¤rm":10947,"Ġtechnique":10948,"Ġversagen":10949,"Ġstarben":10950,"Ġgericht":10951,"Ġhinauf":10952,"Ġgebrochen":10953,"Ġregul":10954,"Ġparks":10955,"Ġautism":10956,"Ġzusammenarbeiten":10957,"Ġrelate":10958,"Ġtermin":10959,"reiche":10960,"Ġmagie":10961,"Ã¼nden":10962,"Ġdreie":10963,"Ġstreben":10964,"Ġcurve":10965,"Ġrooms":10966,"Ġwondered":10967,"Ġfunding":10968,"Ġsorge":10969,"Ġproductive":10970,"Ġerkannt":10971,"Ġbemerkte":10972,"Ġbehavioral":10973,"Ġrecording":10974,"Ġsamen":10975,"Ġfootprint":10976,"Ġverbrauch":10977,"Ġnutzung":10978,"ĠverÃ¶ffentlichen":10979,"Ġsonnenlicht":10980,"Ġfixed":10981,"bewusst":10982,"Ġstammzellen":10983,"Ġwechseln":10984,"Ġclimb":10985,"Ġdiagnose":10986,"Ġdoppelt":10987,"Ġqueen":10988,"Ġapplications":10989,"dienst":10990,"Ġzweifel":10991,"Ġapril":10992,"aver":10993,"father":10994,"fliegen":10995,"hour":10996,"winkel":10997,"Ġdv":10998,"Ġdow":10999,"Ġwired":11000,"esome":11001,"Ġng":11002,"Ġkos":11003,"ĠeinschrÃ¤n":11004,"Ġbeige":11005,"Ġbeachten":11006,"Ġbezeichnet":11007,"ĠstÃ¼r":11008,"Ġrezept":11009,"gegeben":11010,"schauen":11011,"these":11012,"Ġheben":11013,"Ġmosk":11014,"Ġchose":11015,"Ġfrance":11016,"Ġnowhere":11017,"ĠgenieÃŁen":11018,"Ġuntersch":11019,"Ġunterricht":11020,"Ġlebendig":11021,"Ġflower":11022,"Ġmarsh":11023,"Ġlanden":11024,"Ġmonkeys":11025,"Ġdownload":11026,"Ġparking":11027,"Ġschwanger":11028,"Ġremove":11029,"Ġears":11030,"Ġ2002":11031,"Ġbusy":11032,"Ġhunde":11033,"Ġerwar":11034,"ĠerzÃ¤hl":11035,"Ġoffenbar":11036,"Ġreligionen":11037,"ognit":11038,"Ġsensors":11039,"Ġmultipl":11040,"Ġzentr":11041,"Ġnebenbei":11042,"Ġ2011":11043,"Ġterrorismus":11044,"Ġentscheidend":11045,"Ġlangsamer":11046,"Ġromantic":11047,"Ġconcepts":11048,"ĠhÃ¼hn":11049,"Ġinterviews":11050,"Ġrussland":11051,"ĠhinzufÃ¼gen":11052,"Ġinfected":11053,"Ġwachstums":11054,"Ġalgorithm":11055,"Ġmobiltele":11056,"Ġunerwar":11057,"ĠmÃ¤rkte":11058,"Ġbeteiligt":11059,"Ġdefense":11060,"Ġgetrennt":11061,"Ġorchest":11062,"Ġglobe":11063,"100":11064,"rome":11065,"vater":11066,"Ġtill":11067,"Ġack":11068,"Ġthin":11069,"ĠbÃ¶se":11070,"stieg":11071,"Ġfox":11072,"Ġfishing":11073,"iture":11074,"Ġink":11075,"ora":11076,"ĠlÃ¼":11077,"igern":11078,"igare":11079,"etch":11080,"etische":11081,"Ġanpassen":11082,"Ġjose":11083,"Ġstack":11084,"Ġrett":11085,"Ġalien":11086,"olate":11087,"Ġschach":11088,"Ġschme":11089,"Ġmitnehmen":11090,"Ġliver":11091,"ffiz":11092,"Ġdeploy":11093,"Ġdesper":11094,"Ġpeer":11095,"Ġshell":11096,"Ġplug":11097,"Ġages":11098,"Ġscott":11099,"Ġzeitraum":11100,"Ã¼ssen":11101,"Ġmarg":11102,"Ġremains":11103,"Ġprogramme":11104,"Ġstoppen":11105,"Ġfortune":11106,"Ġbarrel":11107,"Ã¤lte":11108,"Ġvariation":11109,"Ġsensitive":11110,"Ġtaschen":11111,"Ġrobotic":11112,"ĠÃ¼berraschung":11113,"Ġinstrumente":11114,"ueller":11115,"Ġnarrative":11116,"Ġschauten":11117,"ĠÃ¤lteren":11118,"Ġvorstellungen":11119,"Ġodd":11120,"ĠauÃŁergewÃ¶hnlich":11121,"Ġentfernung":11122,"Ġumzugehen":11123,"Ġcontrast":11124,"Ġbundes":11125,"rÃ¼stung":11126,"10":11127,"kol":11128,"kore":11129,"mom":11130,"walk":11131,"ense":11132,"Ġtube":11133,"insel":11134,"Ġdame":11135,"Ġbahn":11136,"Ġnannten":11137,"Ġcer":11138,"utze":11139,"Ġhaw":11140,"rolle":11141,"Ġwirkt":11142,"iler":11143,"Ġverschie":11144,"indert":11145,"Ġrick":11146,"bekommen":11147,"Ġvoneinander":11148,"identen":11149,"istics":11150,"etzung":11151,"Ġfehlt":11152,"Ġbesorgt":11153,"Ġgeschw":11154,"Ġeval":11155,"Ġweltweiten":11156,"Ġpocket":11157,"Ġgrain":11158,"Ġ2050":11159,"Ġinsgesamt":11160,"Ġbedeutete":11161,"code":11162,"Ġrichtungen":11163,"Ġpresse":11164,"legenheiten":11165,"Ġairport":11166,"Ġwundervoll":11167,"Ġoffenen":11168,"Ġredwood":11169,"Ġmusiker":11170,"Ġlego":11171,"Ġmembr":11172,"Ġpotentially":11173,"Ġphilanthrop":11174,"Ġproviding":11175,"Ġmittels":11176,"Ġsaudi":11177,"Ġjohnson":11178,"Ġboxes":11179,"Ġstayed":11180,"Ġmikroben":11181,"Ġmikroskop":11182,"Ġdeiner":11183,"Ġarabischen":11184,"Ġnachbarschaft":11185,"Ġassume":11186,"ĠhÃ¶chst":11187,"ĠprÃ¤z":11188,"Ã¤uschung":11189,"Ġcontrolled":11190,"Ġbegegnen":11191,"Ġbuddh":11192,"Ġgeschmack":11193,"ĠsÃ¤uget":11194,"Ġmosquit":11195,"Ġappropriate":11196,"Ġunexpected":11197,"ĠgerÃ¤usche":11198,"Ġpizza":11199,"Ġaufgeregt":11200,"called":11201,"gant":11202,"ziel":11203,"zahlen":11204,"Ġdust":11205,"Ġiv":11206,"Ġbath":11207,"Ġhip":11208,"Ġfung":11209,"Ġnom":11210,"Ġlens":11211,"Ġcash":11212,"Ġweigh":11213,"Ġhawa":11214,"Ġderselben":11215,"Ġangriff":11216,"Ġanzusehen":11217,"Ġangene":11218,"schicht":11219,"Ġrwand":11220,"Ġchief":11221,"Ġausgang":11222,"Ġdesk":11223,"artigen":11224,"Ġroot":11225,"Ġsuic":11226,"Ġkonz":11227,"Ġlebenden":11228,"Ġrap":11229,"Ġtunnel":11230,"Ġdecline":11231,"ĠgegenwÃ¤rt":11232,"Ġletzter":11233,"Ġcricket":11234,"Ġeigentliche":11235,"Ġgedicht":11236,"Ġwahlen":11237,"Ġanticip":11238,"Ġpapers":11239,"Ġlegisl":11240,"Ġequation":11241,"Ã¤lter":11242,"Ġwomit":11243,"Ġcontinued":11244,"Ġwinzig":11245,"Ġaudio":11246,"Ġjahrhunder":11247,"Ġreduziert":11248,"Ġtransformed":11249,"ĠÃ¼berraschen":11250,"Ġconcert":11251,"Ġrecognition":11252,"Ġhallu":11253,"Ġboring":11254,"ĠhÃ¶rten":11255,"Ġrepair":11256,"Ġtiefen":11257,"Ġdimensionen":11258,"Ġsports":11259,"Ġverursachen":11260,"Ġarmee":11261,"Ġkolon":11262,"Ġereignisse":11263,"Ġgrundlegenden":11264,"Ġerneut":11265,"Ġrepublik":11266,"Ġvorbereitet":11267,"Ġschuhe":11268,"Ġbewirken":11269,"Ġsurgeon":11270,"Ġmaintain":11271,"Ġfisher":11272,"Ġkonsequenzen":11273,"Ġkampagne":11274,"Ġaspekte":11275,"ihen":11276,"iable":11277,"sver":11278,"ĠdÃ¶r":11279,"Ġwoo":11280,"Ġicon":11281,"Ġbond":11282,"Ġbones":11283,"Ġhers":11284,"Ġeb":11285,"itik":11286,"Ġlg":11287,"Ġwem":11288,"icit":11289,"Ġanzusch":11290,"Ġverur":11291,"Ġergeben":11292,"Ġalarm":11293,"Ġrang":11294,"ĠrÃ¶nt":11295,"Ġshake":11296,"Ġheroes":11297,"Ġglad":11298,"force":11299,"ĠblÃ¤tter":11300,"Ġindones":11301,"Ġscary":11302,"Ġmillenn":11303,"ienten":11304,"gression":11305,"ints":11306,"gebra":11307,"gebiet":11308,"Ġbiol":11309,"Ġbeliebt":11310,"Ġverliert":11311,"iox":11312,"ĠerwÃ¤r":11313,"theorie":11314,"Ġangem":11315,"ĠhÃ¶here":11316,"Ġwunderbaren":11317,"Ġhinterlassen":11318,"Ġallowing":11319,"Ġkrieges":11320,"Ġschwierige":11321,"Ġclassic":11322,"Ġeingehen":11323,"Ġlimits":11324,"spieler":11325,"Ġdirections":11326,"Ġvillages":11327,"ĠstÃ¤rk":11328,"Ġdeinem":11329,"Ġkontrolliert":11330,"Ġawesome":11331,"Ġthreaten":11332,"Ġclinic":11333,"ĠwÃ¼nschte":11334,"Ġintuitive":11335,"Ġcomponent":11336,"Ġnovember":11337,"Ġerwartungen":11338,"Ġpenguins":11339,"Ġlebenserwart":11340,"Ġgrundlegend":11341,"Ġerdbeben":11342,"bm":11343,"bot":11344,"messer":11345,"erie":11346,"Ġtib":11347,"Ġate":11348,"Ġhong":11349,"rets":11350,"Ġgip":11351,"teen":11352,"Ġtower":11353,"irk":11354,"usions":11355,"rol":11356,"ĠstÃ¤m":11357,"Ġreputation":11358,"oto":11359,"schm":11360,"Ġscham":11361,"Ġallgem":11362,"Ġchoc":11363,"Ġchamp":11364,"iking":11365,"ahrscheinlich":11366,"Ġfeyn":11367,"Ġraw":11368,"gespr":11369,"Ġkleidung":11370,"Ġklug":11371,"bringt":11372,"Ġplanen":11373,"Ġkameras":11374,"Ġverlauf":11375,"Ġski":11376,"Ġberu":11377,"Ġwichtiges":11378,"elson":11379,"Ġjew":11380,"Ã¶rtlich":11381,"ĠglÃ¼cklicher":11382,"Ġfutter":11383,"Ġearthqu":11384,"ĠkÃ¼hl":11385,"Ġarguments":11386,"Ġvolume":11387,"Ġconfidence":11388,"Ġoberen":11389,"engine":11390,"Ġfantastische":11391,"Ġsamples":11392,"Ġverbreitung":11393,"Ġconcrete":11394,"Ġmainly":11395,"Ġkrankenh":11396,"Ġarrang":11397,"Ġdienen":11398,"krankheiten":11399,"Ġumfassen":11400,"Ġlatin":11401,"oberflÃ¤che":11402,"ĠflÃ¼gel":11403,"Ġtoilet":11404,"Ġdepending":11405,"ĠlÃ¤cher":11406,"Ġgrossen":11407,"Ġsymptoms":11408,"Ġsurrounded":11409,"Ġresistance":11410,"Ġhabitat":11411,"Ġcorporate":11412,"ĠverrÃ¼ckte":11413,"Ġtransparency":11414,"connected":11415,"stuhl":11416,"Ġconventional":11417,"Ġmolekular":11418,"Ġbrooklyn":11419,"Ġbeseit":11420,"aktiv":11421,"cal":11422,"gent":11423,"lock":11424,"male":11425,"Ġtam":11426,"Ġthick":11427,"Ġpushing":11428,"Ġcens":11429,"Ġvital":11430,"Ġbeun":11431,"Ġbeute":11432,"Ġbewer":11433,"urop":11434,"Ġwhale":11435,"Ġjon":11436,"hrte":11437,"Ġverz":11438,"Ġabente":11439,"Ġwash":11440,"Ġmega":11441,"allow":11442,"imine":11443,"Ġgezogen":11444,"seher":11445,"umble":11446,"agnet":11447,"Ġausger":11448,"Ġconstra":11449,"Ġmachst":11450,"Ġeverest":11451,"Ġsupern":11452,"Ġkongo":11453,"Ġkompr":11454,"Ġram":11455,"Ġloop":11456,"Ġ31":11457,"Ġschweden":11458,"Ġpaz":11459,"Ġtransc":11460,"Ġcomputern":11461,"klus":11462,"Ġslides":11463,"Ġstands":11464,"Ġinteressanten":11465,"Ġjoined":11466,"Ġdreidimens":11467,"Ġpopulations":11468,"Ġattrib":11469,"Ġlegacy":11470,"Ġdefiniert":11471,"Ġpainful":11472,"Ġnationalen":11473,"Ġgreenhouse":11474,"Ġfeeding":11475,"Ġmentor":11476,"Ġspreading":11477,"Ġantwortete":11478,"Ġfabric":11479,"ĠzufÃ¤ll":11480,"ĠernÃ¤hren":11481,"Ġdrittens":11482,"Ġrecycling":11483,"Ġapplication":11484,"fÃ¶rm":11485,"Ġweisheit":11486,"Ġwahnsinn":11487,"Ġanscheinend":11488,"ĠgemÃ¤lde":11489,"Ġgerettet":11490,"Ġbeunruh":11491,"hop":11492,"kÃ¼r":11493,"lers":11494,"lager":11495,"mach":11496,"nern":11497,"rans":11498,"Ġaston":11499,"Ġba":11500,"Ġboss":11501,"atik":11502,"leg":11503,"Ġwed":11504,"eding":11505,"unclear":11506,"vey":11507,"Ġunbelie":11508,"Ġabgesehen":11509,"Ġschalt":11510,"Ġlegt":11511,"Ġspaz":11512,"Ġsphere":11513,"ĠfrÃ¶":11514,"Ġdepr":11515,"Ġdazwischen":11516,"Ġcongo":11517,"Ġenl":11518,"Ġherstellung":11519,"Ġgenius":11520,"Ġkinderg":11521,"Ġcoach":11522,"ansas":11523,"Ġbrun":11524,"Ġquanten":11525,"Ġbuck":11526,"Ġresol":11527,"gerÃ¤te":11528,"Ġ350":11529,"Ġadm":11530,"Ġgelang":11531,"Ġgelassen":11532,"Ġelev":11533,"oking":11534,"Ġglaubten":11535,"Ġcarried":11536,"Ġminus":11537,"Ġschlacht":11538,"Ġdecre":11539,"Ġorganism":11540,"Ġdancing":11541,"Ġcenturies":11542,"iums":11543,"Ġcolumb":11544,"ĠschÃ¶nes":11545,"Ġidentical":11546,"Ġsurely":11547,"Ġdetro":11548,"Ġangeht":11549,"ĠeingefÃ¼hrt":11550,"Ġgenetische":11551,"etti":11552,"Ġinteractive":11553,"linien":11554,"Ġelektrische":11555,"Ġsuffer":11556,"Ġletztlich":11557,"Ġlatein":11558,"Ġscheitern":11559,"Ġalgorithmen":11560,"Ġdramatically":11561,"Ġspezielle":11562,"Ġphilosophy":11563,"maschinen":11564,"Ġcelebrate":11565,"Ġuncertain":11566,"ĠÃ¤ltere":11567,"Ġimplement":11568,"Ġpregnant":11569,"Ġtsunami":11570,"Ġfeynman":11571,"beln":11572,"fung":11573,"nÃ¼tz":11574,"nÃ¼gen":11575,"Ġtort":11576,"inform":11577,"Ġdsch":11578,"Ġdign":11579,"esign":11580,"onna":11581,"ĠhÃ¤ngen":11582,"anlage":11583,"stÃ¼cke":11584,"orous":11585,"Ġstab":11586,"Ġversp":11587,"Ġschicht":11588,"derung":11589,"Ġausges":11590,"ibel":11591,"Ġgesetzt":11592,"Ġtea":11593,"Ġtech":11594,"Ġvorhin":11595,"Ġglac":11596,"Ġroots":11597,"Ġfaced":11598,"ĠgeschÃ¤fte":11599,"Ġflip":11600,"Ġclint":11601,"Ġbeenden":11602,"Ġholl":11603,"ĠgemÃ¼se":11604,"Ġsolving":11605,"Ġkeines":11606,"Ġparaly":11607,"Ġoffered":11608,"Ġbenj":11609,"Ġeinzus":11610,"esented":11611,"Ġowners":11612,"Ġrecommen":11613,"Ġberge":11614,"Ġexplo":11615,"Ġkurve":11616,"Ġdraht":11617,"Ġcareful":11618,"Ã¤ngste":11619,"Ġbiologischen":11620,"Ġkriege":11621,"Ġprivacy":11622,"Ġgesamt":11623,"Ġdauern":11624,"Ġmicrobes":11625,"Ġgenetischen":11626,"ĠgebÃ¤uden":11627,"Ġkreativen":11628,"ĠÃ¤rm":11629,"Ġbombs":11630,"Ġfrankreich":11631,"Ġselection":11632,"ĠgesprÃ¤che":11633,"tausende":11634,"Ġpresented":11635,"Ġheiraten":11636,"ĠzÃ¤hne":11637,"Ġneurowissenschaft":11638,"ĠrÃ¶ntgen":11639,"bal":11640,"fone":11641,"hundert":11642,"nes":11643,"rich":11644,"ria":11645,"uÃŁ":11646,"Ġakte":11647,"ona":11648,"oned":11649,"reht":11650,"Ġnelson":11651,"Ġpitch":11652,"Ġcand":11653,"Ġcaf":11654,"isely":11655,"leute":11656,"Ġbeides":11657,"igungs":11658,"Ġanten":11659,"Ġsection":11660,"ilit":11661,"Ġformal":11662,"Ġproced":11663,"think":11664,"Ġchile":11665,"Ġcomics":11666,"angel":11667,"Ġoutcom":11668,"Ġinterakt":11669,"Ġfeiern":11670,"Ġrau":11671,"Ġrail":11672,"Ġmehreren":11673,"Ġfirm":11674,"reift":11675,"Ġtechnischen":11676,"Ġerfassen":11677,"Ġzusammenge":11678,"peare":11679,"riff":11680,"Ġinsurance":11681,"Ġguar":11682,"Ġschlussen":11683,"Ġjail":11684,"Ġgefol":11685,"while":11686,"Ġdatab":11687,"Ġstruck":11688,"Ġcorrel":11689,"Ġverschiedener":11690,"Ġgrows":11691,"Ġinterestingly":11692,"ĠvergnÃ¼gen":11693,"hof":11694,"Ġerfolgs":11695,"Ġunternehmens":11696,"Ġincreases":11697,"Ġtyr":11698,"gemacht":11699,"Ġprovin":11700,"pox":11701,"Ġsichtweise":11702,"Ġviolent":11703,"Ġpalm":11704,"Ġroman":11705,"wissenschaften":11706,"Ġkingdom":11707,"Ġnachhaltig":11708,"Ġprecisely":11709,"Ġtranslate":11710,"Ġautomatically":11711,"Ġextent":11712,"ĠerwÃ¤hnen":11713,"Ġritual":11714,"Ġdisorder":11715,"Ġdisorders":11716,"Ġprototype":11717,"Ġfifth":11718,"Ġschlussendlich":11719,"eg":11720,"gf":11721,"ifen":11722,"mÃ¤n":11723,"rid":11724,"Ġtenn":11725,"Ġss":11726,"Ġsang":11727,"esity":11728,"Ġpour":11729,"Ġcord":11730,"Ġsevere":11731,"Ã¶ser":11732,"Ġunvor":11733,"amen":11734,"Ġschild":11735,"Ġprojekten":11736,"Ġheilen":11737,"Ġspons":11738,"ĠvorwÃ¤rts":11739,"Ġunterr":11740,"Ġkong":11741,"Ġkommer":11742,"Ġagent":11743,"Ġindischen":11744,"fÃ¼gt":11745,"Ġversorgen":11746,"Ġpersonality":11747,"Ġparam":11748,"Ġschwere":11749,"hagen":11750,"Ġfinance":11751,"ammlung":11752,"Ġjewe":11753,"Ġsuchte":11754,"Ġaccum":11755,"Ġnahen":11756,"Ġrising":11757,"Ġexisted":11758,"Ġwohlbe":11759,"Ġkiller":11760,"Ġjune":11761,"Ġhouseh":11762,"Ġcollaps":11763,"Ġbanks":11764,"Ġlimb":11765,"Ġinteractions":11766,"grade":11767,"Ġzentrale":11768,"Ġhighl":11769,"Ġreflekt":11770,"Ġentdeckungen":11771,"Ġcouncil":11772,"Ġapartment":11773,"Ġbedrohung":11774,"Ġexploring":11775,"Ġtested":11776,"Ġmcdon":11777,"Ġapparently":11778,"Ġkomponenten":11779,"ĠÃ¤nderungen":11780,"Ġkaufte":11781,"Ġreagiert":11782,"Ġdunklen":11783,"Ġzunehmend":11784,"Ġenemy":11785,"Ġkonfrontiert":11786,"Ġungeheuer":11787,"Ġstretch":11788,"Ġlebenserwartung":11789,"',":11790,"bly":11791,"fare":11792,"mart":11793,"oid":11794,"ttern":11795,"xim":11796,"Ġara":11797,"Ġaktion":11798,"Ġmold":11799,"ani":11800,"Ġos":11801,"stamm":11802,"Ġnic":11803,"Ġpad":11804,"ortex":11805,"Ġcd":11806,"Ġcod":11807,"Ġweisen":11808,"urb":11809,"rau":11810,"hrough":11811,"otes":11812,"Ġunre":11813,"Ġabges":11814,"Ġabends":11815,"andt":11816,"Ġneigen":11817,"Ġcomic":11818,"Ġexcl":11819,"ĠÃ¼bersch":11820,"Ġprices":11821,"Ġherein":11822,"ĠflÃ¤chen":11823,"Ġtraged":11824,"Ġbegreifen":11825,"Ġliebte":11826,"ungssystem":11827,"Ġdiszipl":11828,"Ġstarken":11829,"Ġgeruch":11830,"Ġhinblick":11831,"Ġklav":11832,"Ġwiederholen":11833,"Ġ1900":11834,"Ġteilnehmer":11835,"Ġweiterentwick":11836,"Ġgegenden":11837,"lernen":11838,"Ġberechnen":11839,"Ġvisuelle":11840,"Ġchron":11841,"Ġwirtschaftsw":11842,"Ġmusikal":11843,"ooth":11844,"Ġschulter":11845,"Ġknee":11846,"Ġkaputt":11847,"Ġconsumers":11848,"Ġnationale":11849,"sproble":11850,"oxide":11851,"zwungen":11852,"Ġsequenz":11853,"Ġphilosop":11854,"Ġwolf":11855,"Ġverfolgt":11856,"Ġbreathe":11857,"Ġdistributed":11858,"Ġextinct":11859,"Ġdetermine":11860,"Ġmontere":11861,"Ġpaintings":11862,"market":11863,"Ġmurder":11864,"Ġasteroid":11865,"Ġhindurch":11866,"Ġtransparenz":11867,"Ġaxis":11868,"Ġruhig":11869,"Ġvirginia":11870,"ographer":11871,"ĠÃ¤gypten":11872,"Ġexpansion":11873,"Ġacknow":11874,"dach":11875,"kul":11876,"kÃ¶rper":11877,"Ġtired":11878,"Ġdicht":11879,"Ġbord":11880,"Ġniveau":11881,"ichert":11882,"inger":11883,"omagnet":11884,"Ġanhalten":11885,"ĠanfÃ¼hrer":11886,"Ġstig":11887,"Ġstun":11888,"ila":11889,"Ġverfahren":11890,"Ġron":11891,"Ġrut":11892,"auben":11893,"zehn":11894,"Ġtriv":11895,"Ġours":11896,"Ġflood":11897,"Ġbrach":11898,"Ġobesity":11899,"spar":11900,"Ġsheep":11901,"Ġdring":11902,"Ġhoher":11903,"Ġmalen":11904,"Ġlets":11905,"ichtete":11906,"Ġ2020":11907,"Ġoffiz":11908,"Ġwenden":11909,"ĠzurÃ¼ckkehren":11910,"Ġelite":11911,"Ã¤ufe":11912,"klasse":11913,"Ġchinesen":11914,"ĠlÃ¶wen":11915,"Ġdankbar":11916,"Ġangry":11917,"virus":11918,"Ġwalks":11919,"Ġcolony":11920,"Ġinvestiert":11921,"zeichnungen":11922,"Ġrepresented":11923,"ĠÃ¤hnliches":11924,"Ġpoorest":11925,"Ġinspirieren":11926,"Ġreihen":11927,"Ġperforming":11928,"Ġsales":11929,"windet":11930,"Ġengaging":11931,"Ġempfinden":11932,"Ġproperly":11933,"Ġentsprechen":11934,"Ġattacks":11935,"Ġschmerzen":11936,"vielf":11937,"Ġjudge":11938,"Ġseltsame":11939,"Ġlatest":11940,"Ġdenkweise":11941,"Ġintensiv":11942,"Ġbrustkrebs":11943,"ecd":11944,"Ġelectronics":11945,"Ġdrinking":11946,"Ġaspects":11947,"ĠalltÃ¤":11948,"Ġalphabet":11949,"Ġchapter":11950,"schlÃ¤ge":11951,"Ġabsorb":11952,"Ġagreed":11953,"ĠlÃ¤ndlichen":11954,"Ġbibliothek":11955,"Ġbiolumines":11956,"\"?":11957,"case":11958,"keten":11959,"ritten":11960,"erer":11961,"Ġtiger":11962,"asste":11963,"leton":11964,"igr":11965,"uting":11966,"Ġerm":11967,"Ġschok":11968,"cking":11969,"opes":11970,"Ġimmen":11971,"agh":11972,"Ġspinnen":11973,"Ġasien":11974,"Ġvorgehen":11975,"inkommen":11976,"acken":11977,"Ġbrian":11978,"Ġraising":11979,"Ġweltkrieg":11980,"Ġlovely":11981,"Ġresolution":11982,"Ġsystemen":11983,"Ġgebur":11984,"Ġzwanzig":11985,"Ġeigenschaft":11986,"pfel":11987,"ĠÃ¤ra":11988,"Ġwissenschaftlern":11989,"ails":11990,"Ġeconomies":11991,"Ġgovernance":11992,"Ġunderwater":11993,"Ġpsychologie":11994,"Ġfalten":11995,"Ġmeme":11996,"Ġproductivity":11997,"straÃŁe":11998,"Ġclasses":11999,"Ġexpectations":12000,"Ġ2012":12001,"Ġskelet":12002,"Ġmandela":12003,"Ġbesuchte":12004,"Ġalexander":12005,"Ġacademic":12006,"Ġanruf":12007,"Ġobsessed":12008,"Ġattached":12009,"Ġmicroscope":12010,"ĠbekÃ¤mpfen":12011,"Ġfederal":12012,"Ġlangweilig":12013,"Ġprosper":12014,"Ġintense":12015,"Ġshakespeare":12016,"Ġbeigebracht":12017,"ioxid":12018,"Ġoutcomes":12019,"Ġmonterey":12020,"baum":12021,"last":12022,"night":12023,"oben":12024,"inc":12025,"Ġwatt":12026,"Ġsill":12027,"Ġmio":12028,"Ġmike":12029,"Ġbern":12030,"ato":12031,"Ġglet":12032,"stÃ¤t":12033,"Ġcab":12034,"Ġcandid":12035,"isa":12036,"Ġkab":12037,"Ġeinrichtungen":12038,"Ġdiverse":12039,"Ġjac":12040,"gewe":12041,"Ġrice":12042,"Ġleap":12043,"Ġlikes":12044,"Ġausged":12045,"Ġausmachen":12046,"Ġfrighten":12047,"Ġumgang":12048,"Ġdez":12049,"quently":12050,"ĠtrÃ¤umen":12051,"Ġplaced":12052,"Ġwozu":12053,"Ġusual":12054,"forward":12055,"Ġrose":12056,"Ġbetrieb":12057,"Ġflash":12058,"ignet":12059,"Ġbeij":12060,"Ã¤rt":12061,"Ġadjust":12062,"Ġstudiert":12063,"Ġgewann":12064,"Ġhandys":12065,"Ġtransmit":12066,"ĠzurÃ¼ckgehen":12067,"Ġinstant":12068,"Ġkohl":12069,"Ġwriter":12070,"Ġspielzeug":12071,"Ġimagined":12072,"strateg":12073,"Ġfunktionen":12074,"mittelt":12075,"Ġsingap":12076,"Ġcolum":12077,"Ġbesonderen":12078,"Ġrefuge":12079,"wendung":12080,"Ġprovided":12081,"Ġanstieg":12082,"Ġmeasuring":12083,"Ġconnecting":12084,"Ġfahrzeug":12085,"Ġhomosex":12086,"Ġceo":12087,"jÃ¤hriger":12088,"Ġcausing":12089,"Ġborders":12090,"Ġelektrischen":12091,"Ġamongst":12092,"Ġdistrict":12093,"Ġnarrow":12094,"Ġschaue":12095,"ĠwÃ¼nsche":12096,"Ġbibel":12097,"Ġimmune":12098,"zÃ¼ge":12099,"Ġfremden":12100,"Ġflexible":12101,"ĠwÃ¤rme":12102,"film":12103,"Ġwasserstoff":12104,"Ġidentifizieren":12105,"Ġjanuary":12106,"Ġverwendung":12107,"Ġexhibition":12108,"Ġvolunteers":12109,"Ġtoxic":12110,"Ġadvertising":12111,"Ġcarolina":12112,"Ġlicense":12113,"Ġdictionary":12114,"Ġbicycle":12115,"Ġleonardo":12116,"Ġspoken":12117,"Ġembedded":12118,"Ġchocolate":12119,"fÃ¤h":12120,"iath":12121,"lesen":12122,"mein":12123,"uft":12124,"wander":12125,"chel":12126,"Ġbrechen":12127,"Ġgy":12128,"Ġub":12129,"Ġelder":12130,"Ġfusion":12131,"itory":12132,"Ġnit":12133,"Ġpale":12134,"Ġcoo":12135,"Ġvierte":12136,"Ġyouth":12137,"Ġstil":12138,"Ġstaub":12139,"Ġrebuild":12140,"amine":12141,"achs":12142,"Ġleuchten":12143,"Ġmitglieder":12144,"thur":12145,"Ġspar":12146,"iday":12147,"ĠumstÃ¤nden":12148,"Ġsaal":12149,"Ġtries":12150,"Ġvorsichtig":12151,"Ġgranted":12152,"Ġgriff":12153,"ĠglÃ¼h":12154,"zukommen":12155,"Ġwanting":12156,"Ġhappier":12157,"acing":12158,"acted":12159,"Ġovercome":12160,"Ġbackwards":12161,"geste":12162,"Ġgemessen":12163,"Ġgrace":12164,"Ġwiederhol":12165,"Ġ2030":12166,"Ġsmoke":12167,"Ġschlug":12168,"ĠzurÃ¼ckge":12169,"Ġwahren":12170,"Ġwahrhaft":12171,"Ġgleichgewicht":12172,"ĠgemeinnÃ¼tz":12173,"Ġeconomist":12174,"Ġhardly":12175,"Ġrisik":12176,"Ġsweden":12177,"Ġfortunately":12178,"Ġfliege":12179,"Ġpotent":12180,"Ġtasman":12181,"Ġ1999":12182,"Ġindex":12183,"Ġlogik":12184,"Ġparkinson":12185,"Ġpflanze":12186,"Ġstephen":12187,"kÃ¼ste":12188,"Ġrecognized":12189,"Ġandererseits":12190,"Ġursprung":12191,"Ġphilosophie":12192,"ĠnervÃ¶s":12193,"wÃ¼rdig":12194,"Ġappears":12195,"Ġcheaper":12196,"Ġsimplicity":12197,"Ġhackers":12198,"Ġcommitment":12199,"ĠerfÃ¼llen":12200,"Ġcontrolling":12201,"Ġkulturelle":12202,"Ġinteressanterweise":12203,"Ġklassenzimmer":12204,"Ġaspir":12205,"Ġhormone":12206,"Ġvessels":12207,"Ġimplications":12208,"Ġstirbt":12209,"Ġbizarre":12210,"Ġfurniture":12211,"Ġbenjamin":12212,"bÃ¼r":12213,"bab":12214,"dra":12215,"pu":12216,"su":12217,"uity":12218,"volution":12219,"ĠÃ¶rt":12220,"Ġaim":12221,"Ġwound":12222,"Ġsink":12223,"anlagen":12224,"ares":12225,"Ġlese":12226,"Ġcm":12227,"Ġkuh":12228,"Ġzurecht":12229,"Ã¶ten":12230,"Ġrecher":12231,"tery":12232,"ĠspÃ¤ten":12233,"Ġaside":12234,"uchtet":12235,"Ġextend":12236,"Ġumso":12237,"Ġumwand":12238,"ĠÃ¼bersetzen":12239,"ĠkÃ¶nne":12240,"ĠsaÃŁen":12241,"Ġentered":12242,"Ġherange":12243,"Ġseek":12244,"ahmen":12245,"Ġquar":12246,"Ġbesucht":12247,"Ġbesitz":12248,"Ġworker":12249,"Ġhassen":12250,"ĠweltbevÃ¶lkerung":12251,"Ġsynd":12252,"Ġselbe":12253,"Ġtraveled":12254,"Ġnative":12255,"riebs":12256,"Ġdrill":12257,"Ġ190":12258,"Ġ192":12259,"ĠstrÃ¶":12260,"Ġsimul":12261,"Ġtransist":12262,"Ġwelcome":12263,"gelassen":12264,"Ġsecondly":12265,"Ġcharity":12266,"ĠerwÃ¤hn":12267,"Ġseti":12268,"ischerweise":12269,"Ġelections":12270,"Ġsymph":12271,"Ġkarik":12272,"Ġintention":12273,"Ġstimul":12274,"aktoren":12275,"Ġtelephone":12276,"Ġneuigkeiten":12277,"Ġadvoc":12278,"Ġhybr":12279,"Ġkilo":12280,"Ġinvolves":12281,"Ġballoon":12282,"Ġreaching":12283,"Ġbreaking":12284,"Ġpractices":12285,"Ġschlechtes":12286,"melzen":12287,"Ġcampus":12288,"produktion":12289,"Ġemergency":12290,"Ġreflect":12291,"Ġjenen":12292,"Ġachieved":12293,"Ġdominant":12294,"Ġdivide":12295,"Ġbreathing":12296,"Ġanalyse":12297,"Ġinstallation":12298,"Ġafrikaner":12299,"Ġmagnetic":12300,"Ġsynthetic":12301,"Ġentschlossen":12302,"Ġmystery":12303,"zÃ¼g":12304,"Ġrepublic":12305,"Ġprivileg":12306,"Ġsogenannten":12307,"Ġprozesse":12308,"Ġpartnership":12309,"ĠwunderschÃ¶ne":12310,"Ġseeds":12311,"Ġportrait":12312,"Ġlobby":12313,"Ġsculpture":12314,"Ġinitial":12315,"Ġteufel":12316,"Ġthrown":12317,"Ġdensity":12318,"99":12319,"rin":12320,"vide":12321,"Ã¡":12322,"Ġwing":12323,"chtern":12324,"ĠgÃ¤n":12325,"Ġutter":12326,"analy":12327,"Ġohr":12328,"Ġinject":12329,"Ġlap":12330,"Ġkandid":12331,"lete":12332,"Ġbeherr":12333,"Ġyield":12334,"ereien":12335,"Ġanste":12336,"Ġstations":12337,"schiff":12338,"Ġproben":12339,"there":12340,"agger":12341,"Ġgesammelt":12342,"Ġplenty":12343,"Ġenkel":12344,"zubringen":12345,"Ġfaktoren":12346,"ĠblÃ¶":12347,"Ġlebend":12348,"Ġbeton":12349,"Ġobl":12350,"Ġclay":12351,"Ġpersu":12352,"fÃ¼hlen":12353,"Ġdisgust":12354,"Ġimpul":12355,"block":12356,"ordnet":12357,"Ġautismus":12358,"utzend":12359,"Ġfuels":12360,"Ġexport":12361,"iveness":12362,"Ġphysische":12363,"Ġcharlie":12364,"Ã¤sser":12365,"fined":12366,"Ġpresc":12367,"geschÃ¤ft":12368,"Ġchemische":12369,"lieÃŁend":12370,"class":12371,"Ġadvance":12372,"Ġtasks":12373,"Ġreduction":12374,"Ġmoralischen":12375,"rÃ¤ger":12376,"Ġgrandfather":12377,"Ġethiop":12378,"Ġprogrammieren":12379,"Ġinteracting":12380,"Ġkommunikations":12381,"Ġvirtually":12382,"Ġaccessible":12383,"Ġ130":12384,"Ġhitze":12385,"ĠerklÃ¤rte":12386,"Ġfluid":12387,"Ġsuggests":12388,"Ġharvest":12389,"Ġreceive":12390,"Ġturb":12391,"ĠberÃ¼hren":12392,"Ġcustomers":12393,"Ġirgendeinem":12394,"Ġdunkelheit":12395,"Ġwinzigen":12396,"Ġembry":12397,"Ġjanuar":12398,"Ġneutral":12399,"zÃ¤hl":12400,"appeared":12401,"Ġinfinite":12402,"Ġwilliam":12403,"Ġbosn":12404,"Ġnirgend":12405,"iratet":12406,"Ġdetroit":12407,"Ġclinton":12408,"Ġguarante":12409,"Ġjeweils":12410,"200":12411,"40":12412,"avor":12413,"brochen":12414,"cor":12415,"ju":12416,"mers":12417,"pap":12418,"uals":12419,"zone":12420,"Ġdict":12421,"Ġwings":12422,"iellen":12423,"ĠhÃ¤ss":12424,"Ġgor":12425,"Ġgreifen":12426,"stunden":12427,"Ġinkl":12428,"Ã¼mm":12429,"ionalen":12430,"Ġitaly":12431,"Ġdioxide":12432,"Ġjones":12433,"Ġstable":12434,"Ġverarbeiten":12435,"geh":12436,"schild":12437,"school":12438,"Ġrichten":12439,"Ġdense":12440,"Ġneander":12441,"ffend":12442,"Ġcham":12443,"ktis":12444,"Ġausnahme":12445,"Ġvorschlag":12446,"Ġentz":12447,"Ġkinders":12448,"Ġflick":12449,"ifted":12450,"Ġtechnische":12451,"Ġpretend":12452,"Ġdisappeared":12453,"Ġ37":12454,"Ġemph":12455,"aufgaben":12456,"Ġschwach":12457,"action":12458,"isses":12459,"gebÃ¤u":12460,"Ġ48":12461,"Ġafterwards":12462,"uchtung":12463,"Ġbildet":12464,"klar":12465,"Ġplays":12466,"samkeit":12467,"Ġaircraft":12468,"Ġstair":12469,"geschlagen":12470,"Ġwundervolle":12471,"ĠÃ¶ffnet":12472,"Ġenglischen":12473,"Ġopposed":12474,"Ġsexy":12475,"Ġbars":12476,"Ġintr":12477,"Ġcalc":12478,"Ġspeaker":12479,"Ġdirty":12480,"Ġtasche":12481,"Ġchosen":12482,"airs":12483,"Ġsprung":12484,"Ġdistant":12485,"Ġhoffnungs":12486,"ĠwÃ¤lder":12487,"Ġcommunications":12488,"Ġpropag":12489,"Ġkatze":12490,"Ġignore":12491,"Ġfrozen":12492,"Ġjenseits":12493,"ĠvernÃ¼nft":12494,"Ġcapitalism":12495,"Ġnano":12496,"Ġliberal":12497,"pflanz":12498,"ĠÃ¶konomen":12499,"Ġcrying":12500,"Ġprinting":12501,"Ġconsequence":12502,"Ġshooting":12503,"Ġszene":12504,"Ġkatastrophe":12505,"Ġbeschreibt":12506,"Ġappeared":12507,"Ġbelohnung":12508,"Ġincentives":12509,"Ġinvestitionen":12510,"Ġgandhi":12511,"Ġerforscht":12512,"Ġzehntaus":12513,"Ġrwanda":12514,"Ġkindergarten":12515,"Ġdignity":12516,"bc":12517,"fast":12518,"koh":12519,"wl":12520,"Ġtip":12521,"chs":12522,"Ġsi":12523,"Ġsund":12524,"Ġsession":12525,"Ġmri":12526,"Ġbm":12527,"Ġbier":12528,"Ġhans":12529,"Ġehren":12530,"stern":12531,"Ġpurch":12532,"lement":12533,"alte":12534,"Ġbeam":12535,"Ã¤ck":12536,"uration":12537,"Ġangehen":12538,"Ġretro":12539,"Ġrefr":12540,"Ġverscha":12541,"tert":12542,"Ġunits":12543,"gencies":12544,"Ġerad":12545,"bene":12546,"verstand":12547,"Ġlecture":12548,"Ġauftreten":12549,"annter":12550,"Ġausein":12551,"Ġtee":12552,"Ġvors":12553,"Ġshopping":12554,"Ġknie":12555,"Ġcock":12556,"ruf":12557,"rug":12558,"Ġrauch":12559,"ensystem":12560,"Ġliefer":12561,"Ġdish":12562,"Ġadoles":12563,"Ġklingen":12564,"Ġhelium":12565,"ĠbefÃ¼r":12566,"Ġpassing":12567,"gles":12568,"Ġinvite":12569,"Ġbasket":12570,"ianischen":12571,"Ġkleinere":12572,"Ġverwende":12573,"Ġskull":12574,"Ġimaging":12575,"Ġbericht":12576,"Ġ72":12577,"Ġangle":12578,"ĠglÃ¼cks":12579,"Ġafricans":12580,"Ġebenen":12581,"Ġradi":12582,"Ġdelhi":12583,"Ġdevast":12584,"Ġmathematiker":12585,"Ġbehave":12586,"ĠkÃ¼che":12587,"Ġjuni":12588,"Ġsinnvoll":12589,"Ġdrove":12590,"Ġconsume":12591,"regierung":12592,"Ġoptimistic":12593,"Ġverbrauchen":12594,"Ġdynamics":12595,"Ġfloating":12596,"zero":12597,"Ġestimate":12598,"Ġcaptured":12599,"Ġdivided":12600,"Ġangesichts":12601,"Ġreaktionen":12602,"Ġanalysieren":12603,"ĠhÃ¶chste":12604,"Ġsymmetry":12605,"Ġchinesischen":12606,"Ġweapon":12607,"Ġfascinated":12608,"Ġsavings":12609,"Ġilleg":12610,"Ġcommitted":12611,"Ġcooperation":12612,"Ġdolphins":12613,"Ġpowers":12614,"Ġcontempor":12615,"Ġplattform":12616,"Ġshadow":12617,"Ġweihnacht":12618,"children":12619,"bus":12620,"cus":12621,"fine":12622,"lan":12623,"Ġdung":12624,"atts":12625,"Ġheter":12626,"reen":12627,"Ġgast":12628,"Ġehre":12629,"Ġpau":12630,"Ġlichter":12631,"iser":12632,"using":12633,"Ġital":12634,"Ġjur":12635,"Ġjam":12636,"Ã¶nen":12637,"Ã¶ss":12638,"Ġreh":12639,"ĠverlieÃŁ":12640,"Ġaband":12641,"Ġleiter":12642,"derm":12643,"Ġwartet":12644,"Ġchest":12645,"Ġatomen":12646,"Ġvorgang":12647,"Ġmuskel":12648,"Ġmuscles":12649,"rufen":12650,"spers":12651,"ĠfÃ¼ÃŁe":12652,"Ġdrum":12653,"Ġrealm":12654,"iÃŁen":12655,"Ġgelb":12656,"Ġwiederher":12657,"Ġerfinder":12658,"Ġcommod":12659,"teles":12660,"Ġ44":12661,"Ġsecure":12662,"angene":12663,"Ġabsur":12664,"Ġlighting":12665,"ĠhÃ¶hlen":12666,"Ġeuro":12667,"ĠauÃŁerord":12668,"Ã¼hle":12669,"Ġverschle":12670,"Ġresultate":12671,"Ġsensoren":12672,"Ġriesiges":12673,"aturen":12674,"Ġadding":12675,"Ġprimitive":12676,"Ġaktuelle":12677,"Ġerschre":12678,"Ġignorieren":12679,"ĠhÃ¶heren":12680,"Ġbriefly":12681,"Ġcopyright":12682,"Ġdiplom":12683,"Ġalpha":12684,"Ġprototypen":12685,"Ġrepeat":12686,"Ġdestroyed":12687,"Ġreparieren":12688,"Ġneuroscience":12689,"Ġirgendwelche":12690,"Ġearthquake":12691,"Ġkommerzie":12692,"Ġschokol":12693,"rest":12694,"Ġtight":12695,"Ġdys":12696,"Ġdump":12697,"Ġdutzend":12698,"Ġsalt":12699,"Ġbach":12700,"Ġbible":12701,"state":12702,"Ġfels":12703,"Ġandrew":12704,"Ġkg":12705,"Ġkognit":12706,"Ġhaie":12707,"Ġjane":12708,"Ġverpf":12709,"Ġverzer":12710,"Ġabuse":12711,"Ġdiesmal":12712,"Ġdenselben":12713,"Ġgeteilt":12714,"umps":12715,"Ġneoc":12716,"Ġprosth":12717,"cepted":12718,"Ġmoore":12719,"Ġchim":12720,"Ġcomedy":12721,"ado":12722,"Ġtribe":12723,"Ġconce":12724,"Ġactor":12725,"Ġyours":12726,"zenz":12727,"rucken":12728,"Ġlebende":12729,"Ġdurchzu":12730,"Ġscanner":12731,"Ġbegr":12732,"Ġeinfachheit":12733,"Ġverbrennen":12734,"Ġgeraten":12735,"Ġgebieten":12736,"Ġgraus":12737,"Ġgraff":12738,"Ġgelie":12739,"Ġbenutze":12740,"gebung":12741,"Ġorganize":12742,"Ġshoulder":12743,"Ġberuh":12744,"Ġexposed":12745,"Ġphysiker":12746,"Ġparticle":12747,"drÃ¼cke":12748,"Ġangiogen":12749,"Ġsigned":12750,"mÃ¶gliche":12751,"Ġgestartet":12752,"Ġruhe":12753,"Ġretire":12754,"Ġverschwindet":12755,"Ġintent":12756,"Ġtempo":12757,"Ġextract":12758,"Ġgotta":12759,"Ġkreative":12760,"Ġcirca":12761,"Ġfears":12762,"Ġcollecting":12763,"Ġausgegeben":12764,"ĠstÃ¤rken":12765,"Ġexperiencing":12766,"organisation":12767,"Ġchristian":12768,"Ġhistorical":12769,"Ġsuspect":12770,"Ġsearching":12771,"ĠtragÃ¶":12772,"Ġsynthes":12773,"Ġschlimmste":12774,"Ġcontribute":12775,"Ġbenutzten":12776,"Ġanwendungen":12777,"Ġatlantic":12778,"Ġrhythm":12779,"Ġasteroiden":12780,"Ġzufriedenheit":12781,"Ġexpertise":12782,"Ġbegrenzt":12783,"firma":12784,"Ġuniform":12785,"Ġdrehte":12786,"Ġathlet":12787,"Ġfantasie":12788,"Ġpartei":12789,"stimmung":12790,"Ġursache":12791,"Ġridiculous":12792,"Ġtriang":12793,"Ġsuicide":12794,"--":12795,"cence":12796,"free":12797,"fÃ¤hig":12798,"oster":12799,"pop":12800,"sah":12801,"Ġain":12802,"chr":12803,"char":12804,"Ġmumb":12805,"Ġpitt":12806,"Ġlasse":12807,"Ġtoys":12808,"Ã¼d":12809,"usalem":12810,"ication":12811,"Ġdilem":12812,"Ġsevent":12813,"Ġsticks":12814,"schu":12815,"Ġlehre":12816,"andelt":12817,"Ġattend":12818,"Ġexakt":12819,"Ġexternal":12820,"Ġconven":12821,"steine":12822,"Ġnachmitt":12823,"Ġgenoc":12824,"Ġwillkommen":12825,"bleiben":12826,"Ġfacial":12827,"ĠbetrÃ¼":12828,"Ġindigen":12829,"Ġ..":12830,"Ġpoison":12831,"Ġparties":12832,"Ġnathan":12833,"Ġpoliz":12834,"Ġkeinem":12835,"gebiete":12836,"Ġbias":12837,"Ġbiod":12838,"Ġorganismus":12839,"boot":12840,"dringen":12841,"park":12842,"Ġprax":12843,"Ġindustries":12844,"fortable":12845,"Ġfestgestellt":12846,"hoben":12847,"ĠflieÃŁt":12848,"Ġlinke":12849,"appt":12850,"Ġ1998":12851,"Ġenormen":12852,"Ġkeyboard":12853,"sprogram":12854,"organisationen":12855,"Ġislamic":12856,"Ġmiser":12857,"Ġmetaph":12858,"Ġskelett":12859,"Ġemotionale":12860,"ĠgrÃ¼ndete":12861,"Ġcalculate":12862,"Ġmuslims":12863,"politik":12864,"Ġschlimmsten":12865,"Ġeffizienz":12866,"Ġneighborhoods":12867,"zustand":12868,"Ġsymptome":12869,"Ġsetzten":12870,"ĠerÃ¶ffnet":12871,"Ġneugierig":12872,"Ġrecovery":12873,"Ġreconstru":12874,"Ġmammals":12875,"Ġspannend":12876,"Ġanonymous":12877,"Ġpinguine":12878,"Ġkonflikte":12879,"Ġsacred":12880,"Ġremoved":12881,"Ġcholera":12882,"Ġdilemma":12883,"eing":12884,"gÃ¤nge":12885,"mass":12886,"wis":12887,"iny":12888,"Ġasth":12889,"ĠwÃ¤nde":12890,"Ġmice":12891,"Ġech":12892,"Ġpit":12893,"Ġlit":12894,"Ġkh":12895,"ĠzÃ¤":12896,"Ġbeur":12897,"Ã¼ll":12898,"Ġsoap":12899,"Ġanbieten":12900,"Ġstieg":12901,"Ġabund":12902,"gender":12903,"ĠgeÃ¶ff":12904,"Ã¼ren":12905,"Ġheaven":12906,"ktar":12907,"istin":12908,"Ġdeck":12909,"Ġtrat":12910,"Ġtritt":12911,"Ġvorn":12912,"Ġrocks":12913,"Ġblank":12914,"Ġflog":12915,"prin":12916,"Ġdisney":12917,"Ġhandlungen":12918,"Ġwiederholt":12919,"Ġletting":12920,"Ġproduces":12921,"Ġsmooth":12922,"Ġguer":12923,"Ġguide":12924,"Ġsimult":12925,"Ġ46":12926,"Ġeinziges":12927,"contro":12928,"strom":12929,"Ġpublish":12930,"rates":12931,"stÃ¤ndige":12932,"Ã¤uschen":12933,"Ġfigur":12934,"Ġelsewhere":12935,"Ġassoz":12936,"Ġmissed":12937,"Ġessence":12938,"Ġrevol":12939,"Ġlegte":12940,"Ġbelast":12941,"uba":12942,"Ġgesundheitssystem":12943,"Ġfliegt":12944,"Ġaltes":12945,"Ġcontinues":12946,"Ġhearts":12947,"Ġtraditionelle":12948,"Ġvolks":12949,"Ġ1994":12950,"Ġprovides":12951,"Ġtauchen":12952,"Ġdomestic":12953,"ĠprÃ¤sidenten":12954,"Ġzugleich":12955,"fahrer":12956,"Ġlernten":12957,"Ġaufrecht":12958,"Ġtouched":12959,"Ġentspre":12960,"Ġnahezu":12961,"Ġtoilette":12962,"Ġweibliche":12963,"ĠhÃ¶hepunkt":12964,"Ġgebrauch":12965,"Ġklinik":12966,"Ġcryst":12967,"Ġugly":12968,"Ġprivilege":12969,".'\"":12970,"Ġfettleib":12971,"Ġboundaries":12972,"ĠflÃ¼ssigkeit":12973,"Ġescape":12974,"drehen":12975,"Ġdiskutieren":12976,"Ġklavier":12977,"gÃ¤nger":12978,"laub":12979,"yon":12980,"Ġtja":12981,"Ġdp":12982,"Ġdoug":12983,"Ġsulf":12984,"Ġhire":12985,"Ġgib":12986,"Ġnag":12987,"Ġpile":12988,"Ġvel":12989,"Ġkra":12990,"Ġkredit":12991,"alys":12992,"Ã¼te":12993,"Ġwet":12994,"uts":12995,"urgen":12996,"etts":12997,"Ġjelly":12998,"Ġverlei":12999,"Ġabed":13000,"Ġerzeug":13001,"Ġmeg":13002,"imet":13003,"Ġrent":13004,"Ġgezwungen":13005,"sek":13006,"seiten":13007,"bellen":13008,"Ġspots":13009,"Ġausgaben":13010,"heorie":13011,"abrik":13012,"ĠumstÃ¤nde":13013,"Ġgesunde":13014,"Ġdear":13015,"ĠÃ¼bergang":13016,"ĠtrÃ¤nen":13017,"Ġmuskeln":13018,"Ġkonzepte":13019,"Ġweltall":13020,"Ġscales":13021,"ĠgroÃŁzÃ¼g":13022,"Ġcliff":13023,"Ġtechniken":13024,"Ġdisp":13025,"blog":13026,"Ġcontains":13027,"ĠzwÃ¶l":13028,"Ġorgane":13029,"Ġgenerated":13030,"Ġstille":13031,"Ġhighway":13032,"gefallen":13033,"ĠanfÃ¤ngt":13034,"Ġharte":13035,"Ã¤ltig":13036,"Ġnets":13037,"Ġneural":13038,"Ġpsychopath":13039,"ĠÃ¼ben":13040,"Ġsorgf":13041,"Ġinspire":13042,"Ġdichter":13043,"Ġorganisiert":13044,"ĠoberflÃ¤chen":13045,"Ġverbesserung":13046,"Ġterroristen":13047,"Ġdarkness":13048,"Ġborrow":13049,"letzt":13050,"Ġhungry":13051,"waffen":13052,"Ġinfiziert":13053,"knall":13054,"Ġverletzt":13055,"Ġpositiven":13056,"Ġmethods":13057,"Ġkulturellen":13058,"Ġoriginally":13059,"Ġreported":13060,"funktion":13061,"Ġunderground":13062,"Ġbefreien":13063,"Ġschickte":13064,"Ġgriechen":13065,"Ġdedicated":13066,"Ġrescue":13067,"ĠkÃ¼mmert":13068,"Ġpione":13069,"Ġingredients":13070,"ĠgewÃ¶hnt":13071,"Ġdownt":13072,"Ġngos":13073,"Ġangemessen":13074,"Ġtibet":13075,"ĠÃ¤rmsten":13076,"Ġtragedy":13077,"Ġmumbai":13078,"12":13079,"hah":13080,"kÃ¶n":13081,"kord":13082,"pie":13083,"path":13084,"wachsen":13085,"Ġtub":13086,"Ġaesth":13087,"Ġdent":13088,"Ġdichte":13089,"Ġwund":13090,"Ġsier":13091,"Ġbun":13092,"Ġtheorien":13093,"Ġgate":13094,"Ġuh":13095,"stil":13096,"Ġfulf":13097,"ĠnÃ¤h":13098,"Ġlen":13099,"Ġcass":13100,"eda":13101,"Ã¤her":13102,"Ġhaare":13103,"eme":13104,"Ġdient":13105,"Ġsektor":13106,"Ġseattle":13107,"hrten":13108,"keep":13109,"imme":13110,"Ġgefe":13111,"Ġleber":13112,"Ġproof":13113,"illance":13114,"Ġspur":13115,"isted":13116,"Ġausgehen":13117,"Ġfrucht":13118,"Ġfruit":13119,"Ġdebt":13120,"ĠÃ¼bers":13121,"Ġsacr":13122,"Ġherab":13123,"eins":13124,"Ġgetes":13125,"Ġcompos":13126,"Ġkonst":13127,"Ġperpet":13128,"meid":13129,"spect":13130,"spanne":13131,"ĠfÃ¼llen":13132,"Ġspeicher":13133,"Ġprev":13134,"stellten":13135,"century":13136,"Ġbiologen":13137,"Ġdecke":13138,"Ġwright":13139,"Ġbeliefs":13140,"Ġserie":13141,"Ġimagin":13142,"Ġfilmen":13143,"Ġphysischen":13144,"wirken":13145,"Ġkreiert":13146,"Ġbewahren":13147,"Ġattitude":13148,"ĠuniversitÃ¤ten":13149,"Ġoffene":13150,"Ġoffensicht":13151,"Ġvoy":13152,"Ġnucle":13153,"worth":13154,"ĠbÃ¼chern":13155,"ĠÃ¤hnlichen":13156,"handel":13157,"Ġkilogram":13158,"ĠkÃ¼nstliche":13159,"Ġlogo":13160,"Ġempire":13161,"Ġintelligente":13162,"Ġstrategies":13163,"Ġmuseums":13164,"Ġphotography":13165,"Ġpulling":13166,"Ġschweine":13167,"ĠfrÃ¼heren":13168,"Ġhello":13169,"Ġdemonstrate":13170,"Ġvorauss":13171,"Ġdramatisch":13172,"Ġvertical":13173,"Ġcitizen":13174,"Ġconflicts":13175,"Ġschreckliche":13176,"Ġaffordable":13177,"Ġefforts":13178,"Ġcolleague":13179,"Ġbewegungs":13180,"Ġepidemie":13181,"Ġcrucial":13182,"Ġhanging":13183,"Ġatlanta":13184,"Ġhingehen":13185,"Ġgigant":13186,"Ġtreibhaus":13187,"Ġwheelch":13188,"Ġdepressed":13189,"Ġpyramid":13190,"Ġrechner":13191,"Ġwurzeln":13192,"Ġstereot":13193,"Ġchimpanzees":13194,"Ġuncomfortable":13195,"Ġpolicies":13196,"Ġhawaii":13197,"Ġgipfel":13198,"Ġabenteuer":13199,"Ġcontemporary":13200,"Ġ...\"":13201,"Ġbiodivers":13202,"aktivitÃ¤t":13203,"lor":13204,"Ġtang":13205,"reicht":13206,"Ġpace":13207,"ouver":13208,"ĠlÃ¤rm":13209,"Ġcraft":13210,"Ġeinbe":13211,"Ġzoo":13212,"ĠzÃ¤hlt":13213,"Ġderer":13214,"Ġanspr":13215,"Ġdistra":13216,"Ġstages":13217,"Ġrely":13218,"ĠvermÃ¶gen":13219,"decken":13220,"Ġalbert":13221,"Ġalkoh":13222,"Ġlex":13223,"Ġarctic":13224,"Ġarthur":13225,"Ġausmacht":13226,"Ġgesunden":13227,"ĠgesÃ¼nd":13228,"Ġwerdet":13229,"Ġtears":13230,"quis":13231,"Ġpein":13232,"Ġvorgestellt":13233,"Ġwohlt":13234,"apor":13235,"Ġgenere":13236,"Ġupset":13237,"Ġkevin":13238,"Ġindus":13239,"Ġbuff":13240,"Ġpreise":13241,"?\",":13242,"Ġaccepted":13243,"Ġhelic":13244,"Ġbefest":13245,"Ġ193":13246,"Ġ1930":13247,"Ġentwurf":13248,"Ġteilnehmen":13249,"Ġminor":13250,"Ġremix":13251,"zieht":13252,"Ġlagen":13253,"Ġverstecken":13254,"Ġpolitisch":13255,"attung":13256,"Ġsenior":13257,"ammeln":13258,"Ġdrawn":13259,"Ġsmallpox":13260,"Ġoldest":13261,"Ġpopul":13262,"Ġfoods":13263,"viele":13264,"Ġcurric":13265,"ghters":13266,"Ġbiologists":13267,"Ġsahara":13268,"ĠflieÃŁen":13269,"Ġvarian":13270,"Ġspeakers":13271,"Ġerlangen":13272,"Ġneulich":13273,"Ġ1995":13274,"Ġviews":13275,"konstru":13276,"Ġreduced":13277,"Ġkapaz":13278,"Ġvirtuellen":13279,"Ġrelev":13280,"Ġbritischen":13281,"Ġbomben":13282,"ĠzerstÃ¶r":13283,"ĠbÃ¼rgermeister":13284,"Ġintegrated":13285,"Ġinstitutional":13286,"Ġjenem":13287,"ĠÃ¼bung":13288,"Ġachiev":13289,"Ġevolve":13290,"ĠregelmÃ¤ÃŁig":13291,"Ġfunctional":13292,"Ġsuspend":13293,"Ġattract":13294,"Ġreserv":13295,"Ġagricultural":13296,"Ġdisappo":13297,"ĠerfÃ¼llt":13298,"Ġrender":13299,"ĠreprÃ¤sentiert":13300,"Ġbeitragen":13301,"Ġcrops":13302,"Ġenterpr":13303,"ĠÃ¤nderte":13304,"Ġverkehrs":13305,"Ġkatastrophen":13306,"Ġtribes":13307,"schreiten":13308,"Ġcontract":13309,"Ġgegessen":13310,"Ġbarely":13311,"Ġnachdenkt":13312,"Ġherself":13313,"ĠgeÃ¶ffnet":13314,"'.":13315,"bro":13316,"city":13317,"dlichen":13318,"gungen":13319,"sor":13320,"ubs":13321,"zo":13322,"erkennen":13323,"Ġtalen":13324,"Ġaward":13325,"Ġsanta":13326,"ĠbÃ¶sen":13327,"Ġgonna":13328,"itis":13329,"itungen":13330,"Ġcute":13331,"isy":13332,"Ã¤sth":13333,"Ã¤udes":13334,"utan":13335,"Ġstores":13336,"Ġverwe":13337,"Ġgepr":13338,"Ġgefl":13339,"Ġleop":13340,"berry":13341,"Ġspagh":13342,"hens":13343,"Ġausgesch":13344,"ĠausdrÃ¼cken":13345,"Ġexcell":13346,"Ġmyst":13347,"iente":13348,"Ġknopf":13349,"Ġactors":13350,"Ġgesche":13351,"ĠbetrÃ¤gt":13352,"Ġclients":13353,"Ġfinds":13354,"Ġgered":13355,"Ġhinsichtlich":13356,"Ġselbstmord":13357,"hafen":13358,"ighted":13359,"Ġpositions":13360,"Ġtags":13361,"Ġdaniel":13362,"Ġterrain":13363,"Ġvisuellen":13364,"Ġprobieren":13365,"Ġprobability":13366,"Ġglobalisierung":13367,"Ġwaffe":13368,"Ġcheese":13369,"Ġchemotherap":13370,"Ġprivaten":13371,"Ġschwerer":13372,"Ġcontrols":13373,"Ġflederm":13374,"Ġgeschichtener":13375,"Ġmobility":13376,"Ġethan":13377,"Ġmechanismus":13378,"Ġtrucks":13379,"Ġentstehung":13380,"ĠmÃ¤nnchen":13381,"ĠhÃ¼b":13382,"Ġarrive":13383,"ĠfuÃŁball":13384,"Ġtumors":13385,"Ġleistungs":13386,"Ġdelivered":13387,"komm":13388,"Ġreturned":13389,"Ġteenagers":13390,"Ġpushed":13391,"Ġdependent":13392,"Ġbehaupte":13393,"ĠausschlieÃŁlich":13394,"tausend":13395,"ĠentwicklungslÃ¤nder":13396,"Ġunsichtbar":13397,"Ġshrimp":13398,"Ġdozens":13399,"Ġpferd":13400,"Ġbeeindruckend":13401,"Ġsowj":13402,"Ġtrigger":13403,"Ġjewish":13404,"Ġinklusive":13405,"Ġemphas":13406,"Ġrehabil":13407,"effekt":13408,"gert":13409,"ohlen":13410,"wol":13411,"yan":13412,"Ġagencies":13413,"Ġibm":13414,"Ġbind":13415,"Ġnadel":13416,"Ġpier":13417,"arium":13418,"Ġkuchen":13419,"Ġweh":13420,"unen":13421,"Ġwhis":13422,"eltern":13423,"Ġstich":13424,"Ġverteilung":13425,"Ġunschuld":13426,"Ġalas":13427,"menschen":13428,"ulum":13429,"ĠausfÃ¼hren":13430,"Ġumzusetzen":13431,"Ġupd":13432,"Ġsteven":13433,"erenz":13434,"ologisch":13435,"Ġblase":13436,"Ġflach":13437,"chnitten":13438,"Ġwirklichen":13439,"Ġmillimeter":13440,"Ġsheet":13441,"Ġadap":13442,"igerweise":13443,"Ġregret":13444,"Ġmonster":13445,"Ġfreie":13446,"happy":13447,"Ġdanken":13448,"Ġbedeckt":13449,"ĠbeschÃ¤d":13450,"Ġglobally":13451,"Ġirgendwas":13452,"ĠlebensqualitÃ¤t":13453,"Ġglobalization":13454,"Ġaccidents":13455,"Ġmotors":13456,"Ġstops":13457,"Ġruanda":13458,"ifty":13459,"Ġmusicians":13460,"Ġbewusstseins":13461,"Ġvolcan":13462,"Ġfocusing":13463,"brech":13464,"Ġvirtuelle":13465,"Ġdomain":13466,"Ġcircles":13467,"stoÃŁ":13468,"Ġopens":13469,"Ġdinger":13470,"Ġechtes":13471,"Ġincludes":13472,"Ġkanal":13473,"kampf":13474,"Ġseparated":13475,"ĠwÃ¼nschen":13476,"Ġimprovement":13477,"ĠwÃ¼tend":13478,"Ġteleskop":13479,"Ġkonsumenten":13480,"Ġbenutzte":13481,"Ġreminded":13482,"Ġsurveillance":13483,"Ġtargets":13484,"Ġjerusalem":13485,"ĠgewÃ¶hnlich":13486,"Ġbranch":13487,"Ġalltag":13488,"Ġfoie":13489,"Ġberechnungen":13490,"Ġrepeated":13491,"ĠzukÃ¼nftigen":13492,"Ġehemann":13493,"ĠgewissermaÃŁen":13494,"ĠÃ¼berprÃ¼fen":13495,"ĠvortrÃ¤ge":13496,"Ġvideospiele":13497,"Ġadministration":13498,"Ġmoskit":13499,"Ġjoseph":13500,"Ġastonishing":13501,"Ġbeijing":13502,"Ġsierra":13503,"Ġalkohol":13504,"born":13505,"fold":13506,"kurs":13507,"kÃ¤m":13508,"lies":13509,"zure":13510,"ĠÃ¤nderung":13511,"Ġdns":13512,"Ġwats":13513,"stÃ¤d":13514,"Ġfischer":13515,"Ġfathers":13516,"Ġpent":13517,"Ġlk":13518,"Ġlions":13519,"Ġluther":13520,"Ġcot":13521,"Ġvene":13522,"Ġkalten":13523,"team":13524,"ira":13525,"Ġwette":13526,"ignen":13527,"igsten":13528,"rah":13529,"raben":13530,"Ġseats":13531,"Ġstammen":13532,"achtet":13533,"lichem":13534,"Ġwasch":13535,"Ġalumin":13536,"Ġmeere":13537,"Ġraten":13538,"Ġneat":13539,"aubt":13540,"agos":13541,"Ġspinal":13542,"idi":13543,"ĠausrÃ¼stung":13544,"Ġdaumen":13545,"iva":13546,"quellen":13547,"ureau":13548,"Ġcomprom":13549,"Ġstets":13550,"Ġrod":13551,"zugehen":13552,"Ġkonvention":13553,"Ã¤cher":13554,"Ġblasen":13555,"Ġraketen":13556,"Ġmiracle":13557,"sely":13558,"acular":13559,"Ġmarath":13560,"Ġimpuls":13561,"Ġhandels":13562,"vested":13563,"Ġlanded":13564,"Ġwiederver":13565,"Ġmayor":13566,"Ġschwestern":13567,"rian":13568,"Ġmetern":13569,"teils":13570,"Ġverlor":13571,"Ġskal":13572,"Ġfuhren":13573,"Ġcriminal":13574,"Ġlebensraum":13575,"Ã¼ndet":13576,"Ã¼ndung":13577,"Ġinternets":13578,"Ġcaps":13579,"Ġbedauern":13580,"Ġbreakt":13581,"Ġerinnerte":13582,"Ġamerikas":13583,"Ġuniversities":13584,"Ġfiguring":13585,"Ġbesonderes":13586,"unterricht":13587,"Ġequality":13588,"Ġverdammt":13589,"Ġcraig":13590,"Ġsprich":13591,"Ġsozialer":13592,"Ġholds":13593,"Ġempfe":13594,"breite":13595,"Ġfertil":13596,"Ġpalest":13597,"Ġstatistik":13598,"Ġjournalisten":13599,"Ġfrog":13600,"Ġlayers":13601,"Ġlifes":13602,"Ġanwesen":13603,"Ġportion":13604,"Ġsymbols":13605,"Ġsymmetrie":13606,"Ġvictor":13607,"Ġintensive":13608,"Ġbedroht":13609,"Ġfacility":13610,"grÃ¶ÃŁe":13611,"Ġeinkommens":13612,"Ġinjury":13613,"Ġschriftsteller":13614,"ĠbedÃ¼rfnis":13615,"Ġehemal":13616,"Ġreporter":13617,"Ġverliebt":13618,"Ġshelter":13619,"sphÃ¤re":13620,"Ġverlangsam":13621,"Ġangetrieben":13622,"Ġsoviet":13623,"Ġdvd":13624,"Ġallgemeine":13625,"Ġrecommend":13626,"Ġintrins":13627,"Ġentsprechend":13628,"Ġgetestet":13629,"Ġbreakthrough":13630,"haut":13631,"oen":13632,"Ġticket":13633,"ĠtÃ¤uschung":13634,"ĠsÃ¤tze":13635,"ested":13636,"Ġoel":13637,"stock":13638,"Ġcable":13639,"Ġzip":13640,"embly":13641,"Ġanweis":13642,"Ġjar":13643,"Ġsty":13644,"Ġreis":13645,"ichtung":13646,"Ġerrichten":13647,"Ġersetzt":13648,"keley":13649,"ĠrÃ¼ber":13650,"ummer":13651,"Ġproph":13652,"anny":13653,"Ġspitzen":13654,"Ġmoz":13655,"Ġaussterben":13656,"Ġwerten":13657,"Ġwodurch":13658,"ologien":13659,"Ġunterhalten":13660,"Ġsuck":13661,"Ġflasche":13662,"Ġdurcheinander":13663,"Ġsylv":13664,"Ġartistic":13665,"Ġgebildet":13666,"ĠgebÃ¤udes":13667,"Ġbefassen":13668,"ĠproduktivitÃ¤t":13669,"Ġschwanz":13670,"Ġincident":13671,"Ġ43":13672,"ĠzurÃ¼ckkommen":13673,"Ġgleichung":13674,"Ġrelation":13675,"Ġrelax":13676,"Ġgegenstand":13677,"who":13678,"geladen":13679,"Ġmorality":13680,"Ġstandpunkt":13681,"Ġberkeley":13682,"strÃ¶":13683,"Ġlarry":13684,"Ġjeans":13685,"Ġcapability":13686,"Ġcapita":13687,"Ġunderlying":13688,"Ġmannes":13689,"Ġtrainieren":13690,"zeichnung":13691,"liest":13692,"lessly":13693,"Ġconsult":13694,"Ġwertsch":13695,"Ġangekommen":13696,"Ġsuccessfully":13697,"Ġeingebaut":13698,"Ġsumme":13699,"Ġinspiring":13700,"Ġachse":13701,"Ġrobotics":13702,"Ġprimarily":13703,"Ġstrategien":13704,"exper":13705,"ĠmaÃŁnahmen":13706,"ĠÃ¼berwach":13707,"Ġliefert":13708,"Ġdrucker":13709,"Ġprecise":13710,"Ġreports":13711,"Ġinequality":13712,"Ġcrowds":13713,"Ġisolated":13714,"staaten":13715,"Ġshaped":13716,"sprach":13717,"Ġbubbles":13718,"Ġrecyc":13719,"Ġeinzigartig":13720,"Ġnahrungsmittel":13721,"Ġrarely":13722,"ĠschÃ¤del":13723,
[...]
