#version: 0.2 - Trained by `huggingface/tokenizers`
e n
e r
Ġ t
i n
Ġ a
Ġ d
Ġ w
c h
Ġ s
Ġt h
Ġ i
e s
n d
Ġ m
i e
Ġ b
a t
o n
Ġ h
Ġth e
r e
Ġ g
a s
Ġ u
Ġ e
a n
Ġ o
s t
Ġ f
i t
l l
Ġ n
Ġ in
Ġ p
o u
i ch
o r
a r
Ġ l
in g
Ġ c
Ġ v
Ġa nd
i s
Ġ k
t e
Ġt o
Ġe in
l e
i r
Ġu nd
a l
Ġ z
Ġo f
Ġb e
Ã ¼
Ġd ie
Ġw e
o m
Ġd as
i g
Ġ y
e d
u n
Ã ¤
u t
u r
Ġth at
e t
u s
en t
Ġh a
i on
r o
Ġy ou
Ġs o
Ġw ir
Ġs ie
e m
r a
Ġi t
Ġw h
e l
er e
i c
Ġd er
Ġi ch
Ġa n
Ġd i
Ġz u
Ġs e
Ġi s
v e
t en
Ġ j
Ġi st
h r
Ã ¶
Ġs t
Ġ es
i l
o w
Ġ re
Ġv er
t er
d e
o t
ich t
Ġu n
a m
Ġa b
g en
a ch
Ġ er
' s
i er
l ich
in d
g e
b en
Ġw as
s ch
Ġa l
Ġa u
Ġ on
Ġm e
k e
a ll
Ġth is
Ġdi es
o l
i m
c t
a y
Ġs ch
Ġ r
un g
Ġd en
Ġg e
d en
v er
Ġa ll
Ġal s
Ġf or
s e
Ġ -
u m
Ã¼ r
c k
Ġn icht
n en
l d
Ġl e
a nd
b e
o p
b er
Ġ "
Ġn e
Ġp ro
Ġd o
Ġau f
Ġdas s
Ġv on
at ion
Ġein e
c e
Ġm an
Ġi m
Ġ- -
Ġm it
a u
h t
d er
es s
t h
Ġthe y
Ġw ie
Ġh e
an n
Ġl i
f f
in e
es t
i ll
a g
Ġs p
Ã Ł
it h
Ġg o
l y
Ġa re
Ġw ar
Ġm o
s en
Ġun s
all y
i d
h en
Ġa r
Ġw ith
is ch
Ġha ve
Ġ ch
Ġwh at
m en
Ġa s
Ġb ut
u l
Ġs ich
en n
Ġw or
e ll
k t
Ġc an
i st
a us
u ch
w e
Ġc om
Ã¼ ber
Ġa us
h e
f t
u st
Ġa t
Ġf r
ou t
er s
Ġo r
er n
o s
Ġe x
a b
an t
Ġu m
Ġs ind
Ġab er
i b
Ġf Ã¼r
a d
Ã¶ n
Ġi h
u nd
' t
Ġha ben
Ġ 1
Ġw enn
Ġth ere
Ġn ot
ou ld
p p
Ġh at
Ġab out
Ġg es
Ġals o
Ġw er
Ġd e
o o
Ġs om
en d
Ġ Ã¼ber
z e
0 0
Ġt e
Ġd es
Ġd a
Ġv ie
i v
or t
i k
Ġm y
Ġk Ã¶n
o g
Ġdies e
ar t
Ġs a
Ġm a
q u
a hr
Ġd em
h er
Ġn o
i es
Ġp e
h l
Ġon e
ig ht
es e
Ġt r
Ġv or
Ġc on
Ġs h
' re
. "
i en
m er
Ġpe op
Ġp l
i ve
Ġpeop le
n e
Ġ en
Ġw o
Ġbe c
at e
Ġ ent
in k
Ġli ke
ig en
it y
Ġm en
Ġu s
Ġi f
et z
Ġh er
u te
Ġg r
Ġfr om
Ġk n
st e
u re
Ġn ow
Ġo ur
e in
an g
a p
Ġein en
Ġj ust
Ġg et
Ġn ach
Ġth ese
Ġg en
Ġo ut
aus e
as t
oo k
o d
Ġkn ow
ĠkÃ¶n nen
Ġh ier
Ġo der
l t
Ġz e
Ġin ter
Ġth ing
Ġm ach
ier en
Ġthe m
Ġwh en
te d
Ġwer den
Ġmen sch
Ġbec ause
Ġ 2
e ar
Ġver y
Ġwh o
ier t
t w
il d
k en
f e
ou g
Ġse in
Ġu p
Ġth ink
un gen
Ġd ar
Ġme in
ll e
as s
p er
Ġau ch
Ġk ann
Ġa m
â Ģ
i z
Ġb y
Ġsom e
on e
Ġh ow
Ġk ind
Ġse e
ou nd
it e
ig e
Ġein er
Ġgo ing
Ġa ct
a h
Ġg l
ic k
Ġcom p
Ġs te
ch en
ou r
Ġ âĢ
a in
f en
f or
Ġd ann
Ġe ver
sch a
Ġc o
Ġw ill
Ġn ur
Ġp r
Ġi hr
Ġein em
Ġyou r
Ã¤ t
ib t
z en
st en
a ck
Ġt im
er en
Ġ ro
Ã¤ nd
Ġmo re
Ġy ear
Ġse hr
Ġe tw
am e
Ġg ro
Ġha d
Ġwir d
Ġh ere
p t
ol og
Ġwh ich
a ge
an s
i al
Ġb r
ar d
i de
Ġm us
Ġw ould
Ġl ook
t o
Ġ qu
Ġm ich
isch en
z u
Ġun ter
r u
p l
Ã¼ ck
b le
er t
an k
re at
ĠâĢ ĵ
Ġmensch en
Ġf e
Ġs u
ur ch
Ġf ra
is e
Ġk on
Ã¶ r
Ġre ally
Ġthe ir
it t
Ġf a
Ġw ere
Ġih nen
Ġk om
Ġg ibt
ou s
a re
ke it
Ġp er
Ġb es
u ally
Ġth en
Ã¤ ch
o se
Ġwor k
Ġb l
Ġle ben
Ġ ra
h ing
is sen
ie l
w o
' ve
h al
Ġw ur
Ġwor ld
Ġges ch
Ġw ay
Ġj ahr
d u
Ġe v
Ġt a
Ġever y
Ġvie l
u d
Ġno ch
Ġj ed
Ġbe t
' m
Ġse hen
Ġh as
Ġf l
i f
Ġwe lt
ch n
Ġetw as
Ġdies er
ll en
Ġd on
i p
he it
m ent
Ġk e
th er
Ġtim e
Ġd urch
ig n
Ġm Ã¶
Ġm ir
ion s
Ġbe i
scha ft
u e
Ġha be
on g
oug h
at er
i a
Ġ ,
Ġb ra
Ġih re
Ġact ually
m e
Ġa g
Ġs y
n t
Ġme hr
Ġo b
Ġs ay
s p
Ġin d
Ġin to
Ġpro ble
e ct
Ġwh ere
Ġs el
Ġz ur
Ġi de
Ã¤ n
Ġne w
s el
Ġa f
Ġc ould
Ġw ant
be it
Ġ .
Ġw issen
al k
Ġs c
Ġt ra
Ġthing s
o re
etz t
en s
Ġs ag
m al
Ġyear s
o b
Ġall e
Ġsom et
Ġp o
Ġo ther
Ġp h
Ġdi d
Ġgro ÃŁ
Ġbe g
st em
isch e
Ġz we
Ġf ir
Ġc l
lich en
re i
ch t
Ġan y
Ġein f
Ġg an
Ġwir k
Ġar t
ul t
Ã¤ r
Ġl o
Ġte chn
u g
Ġzu m
for m
l ie
ch e
Ġp art
p le
Ġr ight
Ġg ot
ic al
Ġma ke
lich e
Ġbe en
Ġze it
Ġha pp
p h
a k
Ġdi ff
h n
Ġn at
Ġm ill
Ġwe ll
Ġw Ã¼r
Ġme ine
Ã¼ s
ing e
Ġf Ã¼
Ġwe il
a c
Ġwirk lich
Ġuns er
Ġproble m
Ġp ers
a ce
Ġb u
Ġne ed
Ġo ver
Ġsa id
r ie
r y
i le
w er
Ġs he
Ġf ind
Ġsomet hing
Ġmach en
ch te
Ġwur de
Ġsp e
Ġt wo
Ġdies es
p r
Ã¤ hr
ic e
Ġfir st
Ġeinf ach
m t
f Ã¼
re e
Ġb ack
or y
Ġver s
Ġt un
f l
o nd
as sen
Ġth ose
om men
g t
i ent
Ġr es
it er
ab le
Ġp re
Ġm ar
Ġim mer
Ġl ie
st ell
Ġver b
Ġd am
g es
g er
ung s
Ġn un
Ġd is
an ge
Ġm uch
Ġim p
Ġk le
ou nt
Ġc all
in n
b st
Ġd r
00 0
Ġth an
i ver
Ġl itt
Ġj etzt
Ġuns ere
el t
Ġ 3
Ġa d
at en
Ġlitt le
Ġh o
ow n
Ġb is
Ġst ud
Ġge w
y s
om e
Ġl ot
? "
Ġst ar
ing en
b l
ation s
Ġar beit
Ġha nd
ff en
c ent
Ġmo st
Ġa c
Ġg em
Ġre al
h men
Ġg er
Ġh in
w ay
Ġtechn olog
Ġg ut
Ġt alk
er st
Ġsy stem
v es
Ġk l
ig er
Ġhat te
at s
Ġli fe
Ġe m
Ġke ine
el n
Ġden n
i ÃŁ
v el
Ġvie le
Ġm Ã¼s
Ġd u
Ġon ly
as e
g an
Ġev en
od y
Ġsel bst
er g
v ing
Ġh um
n te
Ġh is
Ġle ute
le ich
it ion
Ġge b
hl en
Ġre g
g lich
at h
a le
Ġz us
sch ie
al s
Ġsa gen
Ġh el
Ġta ke
re d
at ed
Ġp ol
Ġg ra
Ġd ay
Ġl and
kt ion
Ġso ll
Ġm al
Ġdies em
el y
ter n
g r
an ce
Ġman y
Ġpers on
Ġgo od
uch en
Ġcon t
b ar
Ġbe f
oo d
Ġg el
Ġzwe i
Ġdies en
Ġth r
Ġwie der
Ġd inge
Ġl et
Ġein es
Ġp ass
ĠmÃ¼s sen
Ġdo es
Ġm on
Ġb in
Ġwar en
u en
ent s
er ent
Ġ1 9
Ġge h
Ġe le
Ġall es
Ġsag te
Ġdiff erent
Ġpro du
a ut
ig keit
Ġso l
Ġst r
o k
is h
w n
Ġm ed
Ġjahr en
Ġf re
Ġent w
Ġi r
in t
Ġte il
o ll
or d
und en
Ġk ein
Ġp ut
Ġgl au
Ġand ere
au f
Ġd own
s er
ich te
Ġdes ign
Ġn ie
Ġthr ough
gen d
g et
Ġex per
Ġ2 0
Ġar ound
ot her
g l
b r
x t
Ġp ar
ic t
Ġs m
ach t
Ġb est
Ġdam it
Ġbe k
am men
Ġm ay
Ġmill ion
t y
Ġand eren
Ġf un
Ġsch w
Ġsh ow
ut ion
Ġb o
Ġc ar
ra m
a ct
Ġo k
ur n
' ll
Ġ 5
or s
icht ig
c ess
ah re
it Ã¤t
ÃŁ en
ĠwÃ¼r de
d ay
Ġa ut
Ġwh y
Ġer f
lle icht
Ġher aus
Ġt ell
Ġof f
Ġbe ing
Ġvie lleicht
Ġzus ammen
ib le
Ġ1 0
n et
p e
n er
Ġin v
Ġcom m
au en
ien ce
oug ht
r i
h a
v or
Ġpl an
Ġh al
Ġf am
te l
Ġu se
Ġin s
Ġb en
r en
Ġw en
ig h
Ġg reat
Ġcom e
Ġin form
Ġb ig
Ġin c
Ġa pp
Ġs ame
Ġt ats
Ġb as
i ous
Ġm in
on s
Ġm et
ar y
Ġtr y
ig t
Ġhapp en
Ġn or
Ġge ht
Ġg u
Ġs im
Ġp u
Ġj ahre
Ġp os
is s
Ġl ang
c es
Ġp a
j ect
Ġa mer
Ġp at
Ġz w
Ġtr ans
Ġm om
ist en
Ġb it
Ġfa ct
Ġsch l
Ġth ree
i an
Ġst art
o c
f ul
ow er
Ġdo ing
k ing
Ġ end
Ġc ount
ge b
Ġ 4
ct ion
Ġzur Ã¼ck
Ġst at
Ġw ahr
Ġg leich
Ġre l
n is
Ġhum an
Ġda v
s s
Ġk am
Ġj a
Ġwe iter
Ġmus s
Ġb i
Ġs ur
r ic
t ra
Ġen erg
ic ally
Ġcomp ut
u al
hal ten
Ġun iver
Ġde c
t z
Ġentw ick
Ġo h
ar n
Ġsch on
Ġag ain
Ġse c
Ġgr und
Ġfam il
is m
Ġhe ute
Ġgan z
ut z
ol d
Ġkle in
Ġf in
Ġth ank
Ġwe l
t ing
e p
Ġe l
v ed
Ġge f
a de
i re
Ġch ild
i ze
Ã¼ n
Ã¤ch lich
Ã¤ re
Ġper cent
te t
us s
z ent
th ing
b ody
Ġinform ation
Ġein z
Ġin st
Ġk o
ĠmÃ¶ chte
ell en
Ġcall ed
Ġgen au
is p
Ġbu ild
Ġre m
' d
Ġk r
Ġdo ll
Ã¶ ÃŁ
sel f
Ã¤ u
Ġ Ã¶
Ġge gen
p ro
Ġl ong
b t
Ġh im
Ġaf ter
om en
Ġdoll ar
Ġto day
i den
Ġor gan
l er
Ġfor m
Ġein ige
Ġt ag
n ten
ic s
k s
Ġb ere
uch t
Ġmach t
te il
es en
Ġma de
at ing
Ġw r
Ġtats Ã¤chlich
Ġb ild
Ġqu est
Ġe ar
ess en
Ġo wn
Ġso c
k l
ff e
Ġsh ould
Ġbe isp
. .
Ġimp ort
Ã¤ h
Ġdav on
Ġf ar
it s
ĠmÃ¶ glich
Ġwar um
ent lich
Ġj em
p en
Ġl etz
Ġkind er
Ġl ast
Ġle arn
hr en
te ll
Ġd an
Ġf all
c on
j e
t s
an gen
a hl
it ies
Ġver w
Ġd rei
Ġd ort
it en
Ġpl ay
Ġbe we
Ġden ken
Ġbe de
v en
s y
Ġt urn
Ġme an
o ol
Ġund erst
sch e
ind en
Ġc our
Ġe igen
ier te
Ġsp iel
Ġz ie
Ġhat ten
Ġan other
ation al
Ġbra in
z ie
Ġth ought
Ġdid n
Ġch ange
Ġnat Ã¼r
Ġmom ent
Ġl a
Ġpa ar
Ġs it
ch ten
Ġver Ã¤nd
Ġgen er
Ġide a
l es
Ġfe el
ing s
w h
Ġih n
b s
Ġimport ant
Ġgr Ã¶ÃŁ
Ġbe lie
Ġs l
hal b
Ġt er
Ġwe g
Ġst ill
Ġc reat
ut en
ul ar
Ġver l
Ġgesch ichte
Ġn um
op e
Ġwe iÃŁ
Ġdar Ã¼ber
Ġge hen
m lich
re chen
Ġwo llen
i x
Ġas k
ĠkÃ¶n nte
Ġit s
Ġbes ch
Ġso nd
Ġver ste
g ar
Ġstar ted
g el
at z
Ġbef ore
al t
Ġre c
Ġex am
Ġs k
Ġm or
ich ten
n o
Ġg ive
Ġs er
Ġmein er
Ġbe h
Ġst and
Ã¤ d
or k
Ġan s
Ġw ent
Ġim ag
Ġbeisp iel
we ise
id s
Ġwer de
Ġ2 00
o ck
s um
i o
Ġwo ll
Ġne ver
a z
p f
Ġsch ool
Ġplan et
il ity
Ġer st
Ġjed er
or en
m a
ach e
Ġb er
ir n
Ġunderst and
Ġcour se
Ġf ound
st r
Ġst ory
Ġp ower
Ġch in
re ich
Ġl assen
Ġab le
p s
Ġse ine
Ġsond ern
k te
Ġc ent
Ġpo int
Ġt re
Ġb ess
Ġh igh
Ġer z
be i
en nen
Ġbet ter
Ġm ight
Ġsch n
Ġviel en
Ġb ot
Ġwur den
Ġs ort
Ġpol it
ol ution
Ġihr en
Ġm ag
it al
Ġw Ã¤hr
Ġcomput er
Ġf u
ie d
Ġne xt
i der
Ġf il
Ġda zu
g ram
Ġb ill
b o
Ġsich er
Ġinter ess
ut zen
ist s
ge f
Ġg ab
ne hmen
Ġd at
schie den
sch ein
k ommen
ĠnatÃ¼r lich
Ġw Ã¤re
st and
f Ã¼r
Ġw ichtig
an z
Ġfun ktion
Ġb us
Ġex p
Ġv is
og ra
k es
Ġjem and
y p
Ġe ach
at t
Ġag o
Ġh und
Ġgl ob
l and
ĠwÃ¤hr end
Ġto get
Ġc r
Ġtoget her
Ġkom men
sch en
Ġe ff
Ġst u
a gen
Ġunser er
Ġs en
ck en
Ġdo ch
, "
Ġsec ond
w ard
d s
Ġc ame
Ġpu bl
am m
and er
stell en
at her
on t
Ġv om
Ġhel p
c o
Ġ 6
in s
Ġso gar
iv en
Ġspe c
Ġden ke
Ġn am
Ġ Ã¤
Ġh Ã¤t
vel op
Ġir gend
Ġne ue
Ġcomm un
Ġnum ber
Ġpl ace
Ġleben s
Ġfra ge
Ġzw ischen
u es
c ted
Ġn Ã¤ch
Ġer sten
Ġt ed
Ġw ater
Ġf our
Ã¼ nd
at ive
st er
Ġfe w
Ġein mal
Ġnat ur
we en
Ġfind en
Ġcomp le
Ġtechnolog y
it ed
Ġph ys
Ġge ben
Ġex pl
Ġok ay
Ġde velop
Ġnicht s
Ġger ade
e hen
r ik
Ġgem acht
in ess
Ġf ol
Ġden en
Ġus ed
Ġoh ne
al th
Ġst ra
im m
Ġglau be
Ġk ur
re ad
Ġv ide
Ġbet ween
m it
Ġm at
Ġch ar
Ġ '
Ġkom mt
c ed
Ġer w
ar beit
Ġihr er
Ġb ro
ur es
er ung
ar ch
iz ed
Ġab s
Ġwe it
Ġinter est
way s
Ġquest ion
Ġd ra
an ted
Ġerz Ã¤
Ġsm all
Ġletz ten
ach en
ge ben
Ġda fÃ¼r
w ir
Ġm ater
Ġlook ing
m s
Ġd one
hr t
Ġpat ient
Ġto o
el s
Ġwissen schaft
Ġo ld
Ġ1 5
Ġj o
Ġdat a
Ġen g
Ġl Ã¶
ier ung
Ġdoes n
Ġ3 0
Ġsch a
Ġinter net
i um
Ġst ru
Ġl ar
Ġmay be
au fen
Ġexam ple
Ġli ve
ĠwÃ¼r den
Ġamer ic
Ġgeh irn
Ġe ig
Ġlo ve
a ve
Ġ5 0
Ġc re
Ġgem ein
Ġs on
Ġj e
Ġze igen
Ġr un
m an
em ber
if ic
g s
Ġd ach
Ã¤ s
Ġd re
ation en
Ġc ap
c y
Ġst re
Ġpro zent
Ġwho le
ze it
r at
d em
Ġbr ing
Ã¶r t
Ġs uch
Ġpass iert
Ġpart ic
Ġl ight
Ġ1 00
a il
Ġsie ht
Ġverste hen
Ġ 9
Ġc or
Ġm ind
l os
Ġver schieden
le d
g est
ab ly
ver s
d r
m o
Ġha us
Ġdar an
Ġste llen
Ġgro w
Ġdi re
Ġg ed
Ġmar k
Ġand er
em ent
f er
Ġr est
one y
Ġkon nte
Ġwas ser
Ġchild ren
un kt
Ġw omen
Ġw anted
ge w
ce pt
Ġc ell
Ġer ste
Ġ 8
Ġgan ze
Ġu r
Ġv ier
th e
Ġpro f
Ġpro b
Ġglob al
Ã¶r en
Ġpos s
Ġf ast
Ġbeg in
Ġj ob
o ff
Ġfra uen
Ġschn ell
ch er
en den
Ġmillion en
t re
u le
con om
Ġan im
Ġ 7
Ġal ways
Ġv ir
ter s
Ġpro gram
Ġm il
t ro
Ġc are
Ġsp ra
Ġco lle
Ġetw a
Ġre ad
im mt
sel ves
et er
t schaft
Ġan f
Ġm ut
Ġl ess
Ġch ang
Ġ [
all en
Ġpro ject
Ġide e
Ġe conom
Ġtry ing
Ġgel d
Ġmo d
Ġbess er
Ġw a
Ġd ank
Ġbe d
Ġne hmen
Ġtim es
Ġwork ing
Ġre as
Ġsu pp
ahr en
f in
Ġf ive
ĠgroÃŁ e
Ġc ou
etz en
s am
Ġg ar
Ġan g
Ġa way
Ġsoll ten
Ġgl Ã¼ck
f ten
Ġd aten
au b
Ġda bei
Ġs ing
Ġhe alth
je kt
ent en
Ġevery thing
Ġfra gen
Ġbelie ve
Ã¤n g
Ġb ook
ro ss
Ġarbeit en
Ġac c
Ġm ot
ent ion
Ġk re
ell e
n a
Ġp ict
Ġs et
ĠkÃ¶n nten
n ess
Ġsoll te
pp e
Ġl ab
Ġsp ace
ge hen
Ġzie mlich
Ġo pen
Ġaf ric
Ġs ign
Ã¼ t
u er
ag t
ÃŁ er
und er
ze ug
iv es
Ġcount ry
Ġh Ã¶
Ġmein en
er nen
Ġmein em
Ġra um
in es
Ġmater ial
Ġbe w
Ġsp rechen
Ġh ard
Ġcomp an
Ġc am
Ġm oney
sch l
Ġexper im
Ġf ut
schie d
i ar
s h
Ġk ids
ra ft
Ġk Ã¶r
Ġme isten
Ġc ity
Ġm as
Ġg re
Ġb re
st Ã¤nd
Ġer inn
isch er
Ġme ans
Ġhe iÃŁ
Ġsag t
Ġso z
Ġdar auf
ie f
Ġres p
Ġp op
v ir
p ar
Ġbek ommen
Ġar ch
m Ã¶
Ġh ar
ver n
Ġwoll te
lich er
f r
u ge
Ġus ing
Ġeig entlich
is en
l ung
Ġen de
w ie
Ġthink ing
Ġto ok
Ġp ra
und e
Ã¤ lt
an ken
r ies
Ġn et
ute t
Ġenerg y
Ġe ur
Ġn a
Ġl u
Ġc le
Ġw alk
Ġg ing
se hen
Ã¤r en
Ġho ch
at es
Ġh ome
g ung
t t
Ġr icht
Ġau ÃŁer
Ġbes te
i end
k un
o gen
at ch
Ġf ood
iv id
Ġpr es
Ġat t
le gen
Ġfr iend
Ġf as
Ġse it
Ġpro cess
Ã¼ h
Ġin no
n f
Ġte ach
Ġwel che
Ġl os
Ã¤nd ern
Ġs in
Ġm ust
Ġwen iger
ad t
Ġh ist
Ġc ol
kt iv
der n
Ġinterest ing
fÃ¼ hl
Ġcre ate
Ġa ir
Ġver g
ess ion
Ġsch le
Ġle ft
s c
Ġr is
Ġgo vern
Ġhal f
schein lich
Ġan t
Ġklein en
Ġen ough
Ġget ting
Ġsen se
ll t
Ġfil m
v ie
ro p
Ġqu ite
Ã¤ ter
r icht
Ġne ur
Ġhe ad
Ġglau ben
Ġnor mal
Ġbec ome
Ġind ivid
Ġb ab
Ġamer ik
Ġst a
Ġjed en
Ġto p
ann t
" .
il t
Ġre cht
ru ck
Ġdan ke
Ġb il
ou se
Ġund er
Ġun gl
Ġvide o
ges ch
f all
k r
Ġc ur
rei ben
ogra ph
Ġfut ure
f te
ir d
Ġcom es
ier ten
kun ft
Ġinno v
c le
g h
Ġst op
Ġprob ably
nd er
Ġear th
al d
Ġvers uch
Ġy ork
Ġb uch
Ġe ben
kt ur
ern e
Ġbede utet
ert ain
Ġele ct
Ġs ache
Ã¤ ft
Ġenerg ie
Ġcon ne
Ġn Ã¤
Ġent sche
r um
Ġg est
it ing
Ġgr ou
Ġsc ience
w are
Ġt est
ĠgroÃŁ en
ĠfÃ¼ nf
ĠmÃ¶glich keit
g a
Ġar m
Ġbus iness
Ġchin a
Ġro b
sy ch
or ies
ro w
Ġsoc ial
Ġl ernen
Ġro om
e ver
Ġw under
Ġi d
Ġp ie
Ġtalk ing
Ġsch Ã¶n
enn t
Ġra d
Ġbi olog
c er
Ġuns eren
Ġfa ce
Ġm ath
Ġgan zen
Ġinv est
Ġuniver s
ul ation
Ġtechnolog ie
Ġhappen ed
n ah
Ġan tw
Ġch e
Ġbra uchen
Ġstu ff
us st
Ġjed es
Ġind ust
Ġ. ..
Ġwith out
Ġch r
Ġma king
c ke
hl t
Ġs w
Ġpro te
Ġbuild ing
ment s
Ġph ot
i ere
ĠÃ¶ ff
Ġcont ro
Ġof fen
Ġmon th
Ġwahr scheinlich
p ort
Ġbr ingen
Ġkle ine
et s
ac es
vir on
Ġges ehen
l ine
Ã¤ us
Ġih m
Ġte am
Ġam az
Ġv oll
in en
Ġihre m
du c
Ġpre t
Ġdach te
ult ur
Ġdollar s
Ġman n
Ġb ody
Ġen viron
i or
z t
Ġen gl
Ġpret ty
y ing
Ġe as
Ġr u
Ġsu b
Ġkom ple
Ġbet ra
hal t
Ġke ep
Ġsy m
al en
Ġwe ise
ĠkÃ¶r per
f ort
k ten
Ġf ig
Ġwo nder
Ġabs ol
Ġany thing
Ġyou n
Ġaf rik
i ft
Ġp sych
ct ure
Ġs ound
Ġein s
Ġ1 8
Ġ Ã¼
Ġb ad
im e
Ġwe e
ic es
Ġse ite
i ally
Ġel se
Ġs ide
Ġunter schied
Ġw es
Ġvers uchen
Ġf al
g ed
Ġo pp
Ġbe aut
ion en
Ġm Ã¤n
Ġre t
an e
Ġt yp
Ġw ind
at ely
Ġver sch
Ã¤nd er
" ,
Ġse x
Ġse em
ach sen
Ġf est
Ġv al
Ġbes ond
ch es
Ġp ap
Ġcom ing
Ġwen ig
ll y
Ġbe im
Ã¤ um
Ġreas on
Ġfor t
n ing
Ġk op
ig es
Ġhin ter
h in
ist er
Ġgr u
et en
Ġb ar
Ġzu kunft
ck t
Ġfra u
Ġver k
i ff
ur s
Ġ4 0
Ġto ld
Ġas s
d ition
Ġall ow
Ġsp Ã¤ter
Ġges agt
Ġs ix
Ġv o
Ġh ope
ur ing
Ġges und
o ch
it ive
Ġli ves
Ġch em
Ġimag ine
qu en
Ġm iss
Ġh il
Ġmen ge
Ġsim ple
Ġm id
Ġk ar
wh ere
Ġon ce
Ġ1 2
Ġsay s
Ġkein en
Ġn utzen
Ġst adt
Ġcount ries
Ġproblem s
Ġac ross
le ben
ern t
o h
Ġges ell
Ġbas ically
Ġwir tschaft
Ġin t
Ġgo es
Ġre d
lie ÃŁ
Ġter r
Ġungl aub
Ġsc ient
Ġd ig
Ġes sen
ĠhÃ¤t te
Ġma kes
Ġafric a
Ġl ater
te m
eren ce
Ġind em
Ġmus ik
Ġb le
un ter
Ġrem ember
ir l
wo hl
Ġpr in
Ġse en
scha ften
Ġsoc ie
Ġe duc
an c
Ġf und
ese arch
Ġsu per
ism us
Ġsit u
Ġle vel
Ġmo ve
c l
Ġr esearch
Ġh our
Ġof t
and en
Ġpict ure
ĠheiÃŁ t
Ġenviron ment
et her
co ver
Ġt em
Ġe y
den ken
Ġli ving
Ġex tre
Ġkur z
Ġre v
Ġhapp ens
Ġexper ience
Ġy et
ous and
Ġmus ic
mo st
Ġau gen
Ġo pt
Ġpartic ular
h o
Ġg ute
Ġjed e
Ã¼ tz
il y
Ġl ink
Ġtra in
it ten
ult ure
Ġle a
Ġsa w
pp en
ot s
ein ander
tell t
Ġha ving
Ġex ist
rie ben
Ġth ousand
Ġask ed
Ġeff ect
at or
Ġun t
Ġc ase
im es
stell ung
Ġl icht
Ġarch ite
id ed
Ġand ers
Ġt ro
ap s
Ġmill iar
Ġerf ol
Ġent de
Ġlang u
Ġway s
Ġyoun g
Ġrel ig
Ã¤h igkeit
Ġor t
Ġeigen en
Ġfunktion iert
iz ation
Ġid ent
Ġwh ile
Ġle g
Ġfamil y
al ity
Ġkon nten
Ġscha ffen
n ung
Ġres ult
Ġs ou
Ġe ing
Ġo per
Ġs or
em at
en te
Ġall er
or n
Ġl ine
Ġwh ether
Ġbill ion
Ġwo hl
Ġper fe
gef Ã¤hr
Ġcomple te
al a
Ġc ertain
Ġr ichtig
w as
Ġf ot
Ġsh are
Ġday s
Ġins ide
m un
ant s
Ġans wer
Ġsel f
Ġsa h
Ġde fin
Ġ2 5
Ġe qu
Ġc al
Ġall en
Ġsing le
s icht
Ġk rie
Ġal most
os s
u p
Ã¤ l
Ġinst it
Ġw atch
Ġs ure
Ġmut ter
Ã¤ m
Ã¶ l
reich en
ap e
Ġnot hing
Ġhe ar
Ġher z
read y
Ġun gefÃ¤hr
iv ing
Ġd el
Ġer kl
ze ich
Ġto t
Ġstat es
d le
w elt
Ġschw ier
Ġbot h
hr er
id ent
r on
z ahl
Ġm ass
Ġevery body
o ot
ere in
Ġsch auen
Ġsay ing
en e
Ġin sp
t on
Ġpr iv
Ġspiel en
Ġbe l
Ġst im
Ġal ready
Ġn ame
Ġer de
Ġsu c
Ġem ot
Ġpubl ic
a f
Ġg irl
Ġposs ible
Ġsch wer
Ġproble me
Ġev olution
Ġide as
u f
Ġwith in
Ġsein er
Ġe g
st ru
Ġver d
u b
Ġp ain
Ġdis cover
Ġs at
Ġgesund heit
ar k
ĠerzÃ¤ hlen
Ġex tra
Ġkl ar
r itt
g ang
s o
Ġfl ie
Ġde v
Ġbe vor
Ġlo c
Ġgu y
Ġmath emat
Ġv ar
Ġco st
ĠnÃ¤ch sten
Ġexperim ent
Ġw om
Ġre f
isch es
Ġn ational
Ġwr ong
Ġmo le
Ġgen ug
h ip
b ra
ur y
Ġex act
am ent
m in
Ġy es
ate g
Ġhel fen
Ã¼n st
mit tel
a kt
Ġne uen
Ġspe ak
h ol
l i
Ġbis schen
Ġal t
Ġher um
Ġlook ed
Ġinc red
ut es
Ġunser em
Ġse i
Ġdar um
Ġer l
Ġele kt
un st
Ġin tell
Ġt w
Ġl ange
Ġsch ul
Ġte le
Ġinter n
Ġt reat
Ġse ch
Ġne u
Ġbeg an
Ġcont in
Ġhund red
Ġm em
Ġhe art
Ġsome one
Ġmark et
Ġp ot
Ġk ennen
Ġlie be
Ġin ner
Ġk ne
Ġof ten
og n
Ġtr ue
Ġhist ory
Ġfra g
Ġprodu ct
Ġw icht
Ġcontro l
z us
Ġk ill
Ġamaz ing
Ġd ich
ch mal
Ġm ess
lich keit
Ġd ise
Ġor der
Ġa ge
Ġan al
Ġad v
Ġha u
Ġmat ter
Ġbe ha
Ġmy self
c om
Ġb auen
Ġman chmal
Ġfr ont
un ch
Ġlook s
Ġcommun ity
sp r
s ide
y n
st ra
Ġf ing
Ġm ic
Ġk unst
Ġbeg inn
Ġeinz el
Ġpro jekt
Ġd na
Ġw in
Ġne in
Ġhe ard
Ġwor ds
Ġbeaut if
Ġw us
Ġis s
ahr ung
Ġau d
os ed
Ġbeg ann
Ġorgan is
Ġk Ã¼
Ġunter nehmen
gan gen
Ġze igt
Ġs ens
Ġco nd
es ten
Ġch allen
Ġrev olution
v o
ie ld
Ġmo de
ĠÃ¼ber all
Ġn ah
Ġer k
Ġb au
Ġkr ank
ste ad
Ġe d
Ġj un
Ġex c
Ġe uch
e ah
Ġsomet imes
Ġide en
Ġla w
Ġgesell schaft
as es
iv ity
Ġtra dition
Ġer n
Ġus a
Ġre den
lich es
Ġh y
Ġn u
Ġin stead
Ã¶ t
Ġle uten
Ġar g
Ġlangu age
Ġcan cer
Ġgrou p
Ġun ited
Ġr ich
ĠâĢ Ķ
Ġnie m
Ġnat ure
m et
ag es
Ġs Ã¼
Ġc ra
Ġcou ple
Ġgovern ment
l ess
Ġn ight
im ate
Ġinformation en
Ġcell s
z ess
Ġuniver se
Ġl iter
Ġcon s
heit en
Ġh ouse
as h
v ious
it z
Ġis n
y stem
Ġso ft
Ġwer t
Ġste hen
Ġbu ilt
ĠgroÃŁ art
Ġsin ce
er a
ken nen
Ã¤d chen
f inden
Ġlie gt
Ġmod el
Ġerfol g
Ġcl ass
Ġstat t
Ġpie ce
ie lt
Ġinter es
Ġf Ã¤higkeit
Ġfig ure
Ġunt il
w or
Ġent ire
for der
u gen
Ġh ol
on es
ÃŁ e
Ġkon tro
Ġmonth s
re t
Ġver halten
Ġr ies
Ġmilliar den
Ġf rei
Ġp unkt
Ġsp end
Ġbeautif ul
Ġp ay
Ġges am
Ġmid dle
Ġd au
th ers
Ġh or
Ġwor d
Ġde p
Ġsome body
i red
Ġf oll
Ġd ir
Ã¤ch e
Ġeng ine
Ġamerik an
i ans
Ġsein en
Ġwork s
Ġn ennen
h ung
Ġfor sch
Ġdes halb
Ġgot t
Ġsch ule
ik er
Ġverb ind
Ġb Ã¼
Ġme et
Ġt as
Ġinc re
Ġander es
os ph
Ġgre en
ie ht
Ġl in
Ġre pr
Ġgeh Ã¶rt
b ed
k er
Ġar ten
Ġwe b
Ġbeh and
Ġs inn
Ġfr Ã¼
utz t
a hlen
Ġt at
Ġd et
sch n
Ġch o
Ġfoll ow
b es
p or
ĠverÃ¤nd ern
Ġkop f
Ġsocie ty
Ġspec ies
i pp
Ġan ge
ĠÃ¤ hn
g lichen
Ġj our
Ġbew usst
m ed
Ġk or
ent ial
Ġplanet en
Ġcompan y
Ġgo d
Ġgr Ã¼nd
Ã¼ck en
ll ig
iv il
Ġv ol
Ġlar ge
Ġm Ã¤dchen
as st
h and
in ation
Ġsag ten
Ġqu ick
Ġ6 0
a ir
d es
Ġsitu ation
Ġexact ly
Ġf ant
Ġst ate
a v
f ol
c c
um ent
Ġt y
at ur
g em
on y
Ġsp r
mal s
Ġz er
Ġapp ro
o y
Ġn etz
ing t
Ġph il
Ġsech s
Ġwas n
ct or
ff t
a pp
Ġbesond ers
Ġth ough
Ġeduc ation
und ert
h le
h au
Ġsch ein
Ġob ject
Ġcomplete ly
Ġc ir
ze pt
Ġta king
Ġdec ided
Ġsuc cess
en de
Ġl au
Ġpl aces
ch an
Ġg ame
ie le
ic ken
Ġer h
w end
Ġh Ã¶ren
Ġon line
Ġevery one
sy stem
Ġhal ten
Ġo ben
is ion
der s
Ġco ol
Ġmus ste
o te
er ing
Ġ19 9
Ġextre m
in nen
Ġd est
gen de
nis se
Ġwom an
g ing
as se
Ġpro v
ĠlÃ¶ s
Ġvie w
Ġdar in
Ġantw ort
Ġp ast
Ġto ol
Ġver m
Ġge fÃ¼hl
u de
v oll
Ġw on
Ġbere its
Ġbeha v
k on
Ġf ly
el d
Ġer reichen
in a
Ġdi st
Ġmo v
Ġy eah
Ġit self
w ork
er te
Ġentwick elt
Ġbeh ind
Ġmic ro
a um
iv ely
f u
ch ter
Ġcle ar
id es
ib ly
Ġind ia
Ġo ce
om mt
Ġstud ents
Ġniem and
Ġst ories
Ġlab or
Ġst er
Ġjahr h
Ġafrik a
Ġan st
Ġde al
Ġour selves
b ild
f ace
w ell
Ġw est
Ġn on
il en
c ing
w and
Ã¶ ff
we it
ab ility
Ġthem selves
Ġkind s
Ġver r
Ġlearn ed
Ġsystem s
Ġste ht
Ġnew s
Ġf le
Ġin te
Ġr ather
Ġgesch ichten
oc us
ĠhÃ¤t ten
Ġal ong
Ġnam ens
Ġameric a
Ã¶ s
Ġcon f
Ġhappen ing
Ġirgend wie
al ten
am es
Ġer kennen
he im
Ġbec ame
Ġs un
Ġg erne
Ġm er
Ġm other
Ġo ber
Ġre du
Ġgo og
ac ter
Ġben utzen
Ġth ird
ra cht
Ġget s
Ġverschieden e
Ġmin uten
Ġturn s
Ġ8 0
j a
are d
Ġfl ug
ĠfÃ¼ hr
Ġstud y
Ġuniver sum
ig ung
Ġmin utes
Ġn er
ar ten
r as
ig ten
us h
Ġm ult
Ġf ree
ort un
Ġsein em
gr und
Ġsou th
Ġkne w
b are
Ġd ro
Ġh uge
Ġin de
Ġv Ã¶
Ġbe ob
Ġent f
Ġteil en
Ġf ocus
Ġmach te
Ġfriend s
Ġopp ortun
Ġpre d
Ġgener ation
Ġw and
Ġco ll
g n
ion al
Ġfre und
en g
Ġa ff
Ġwor t
Ġsoz ial
Ġentsche id
Ġho ff
Ġfamil ie
Ġbe zie
gr ess
i ol
Ġanim als
Ġhour s
Ġi ll
Ġp le
ist an
os p
it te
Ġind ien
Ġcomple x
Ġst Ã¤d
Ġagain st
Ġsoft ware
m m
Ġon es
Ġnatur al
Ġinnov ation
Ġk ap
f Ã¤
h aps
b el
iz in
im mer
our ce
Ġper haps
pt ion
itt ing
r ib
un e
Ġhapp y
om es
r al
z y
Ġst unden
ach ten
ne h
rie b
Ġaut o
Ġle ad
Ġcould n
Ġbab y
Ġbil der
Ġko sten
Ġmor al
Ġe inge
Ġwe gen
Ġme as
Ġbl ack
Ġhau pt
Ġgru ppe
an zen
Ġbes ten
Ġbra ucht
a ur
Ġk il
Ġgen et
Ġspra che
Ġt aus
ah n
r Ã¤
am p
Ġwork ed
Ġgra nd
Ġquest ions
ĠmÃ¤n ner
Ġli sten
Ġor ig
Ġcreat ed
Ġbot t
Ġgu ys
Ġinner halb
Ġmo b
Ġjed em
Ġang st
Ġse ven
Ġo thers
ic ult
Ġad d
Ġconne ct
Ġste ll
Ġeinz ige
ich en
Ġdiff icult
pr ess
ges tellt
ish ed
ward s
Ġa k
ie t
ann te
Ġv erein
Ġaus s
Ġlot s
Ġb ank
Ã¤n ger
a un
p unkt
Ġmit tel
Ġs au
Ġz iel
end et
olog ie
Ġw all
Ġs um
Ġsch re
Ġdig ital
Ġde ep
Ġvor stellen
ĠnÃ¤ mlich
Ã¤ch t
Ġinv ol
lieÃŁ lich
Ġgeb Ã¤u
Ġbest imm
Ġgoog le
b ere
Ġb all
un k
Ġle ast
Ġch ance
Ġde ath
Ġam ount
Ġear ly
Ġinteress ant
Ġl im
Ġser v
Ġkomple x
a den
st off
ist ic
Ġunter s
Ġlu ft
Ġk Ã¼nst
Ġnor th
s k
Ġfu ll
Ġa ktiv
Ġf Ã¤
Ġer geb
ith er
Ġfin ally
hau pt
Ġa v
Ã¶ hn
schn itt
c ul
Ġs qu
fÃ¼ hrt
Ġh old
et t
Ġrel ations
wer k
Ġdi ag
Ġverschieden en
Ġdise ase
Ġbegin nen
Ġmas ch
d ruck
i qu
Ġsy n
Ġob wohl
Ġbewe gen
Ġe ight
Ġpop ulation
Ġmach ine
5 0
Ġare a
Ġbei den
Ġg ave
Ġc y
Ġre cent
Ġro bo
br ingen
Ġgleich e
Ġt ut
Ġl og
ag er
Ġdam als
Ġcent er
Ġameric an
Ġo il
Ġk ultur
Ġbe mer
Ġ1 1
Ġob vious
p id
Ġv ater
le t
Ġ1 6
Ġwoll ten
Ã¼t zen
Ġk reat
Ġein igen
Ġj ap
Ġsa ge
Ġpo or
Ġentwick eln
Ġtre ffen
Ġum welt
Ġout side
ĠfÃ¼ hren
Ġtrans form
Ġd ad
um p
k re
Ã¤t z
zu g
Ġjahrh undert
pl es
Ġimp ro
Ġb ir
Ġte xt
b y
Ġf ield
Ġem p
Ġe th
vie w
w ar
Ġa p
Ġp ick
Ġev ent
Ġgew alt
an ten
ust ellen
Ġperson al
Ġprogram m
it et
te te
Ġthousand s
on en
Ġer halten
Ġda her
Ġunter st
Ġjap an
Ġd uring
Ġs achen
Ġinter act
Ġunglaub lich
Ġpo st
f ra
ort ra
Ġlearn ing
Ġdis c
Ã¤s st
Ġd ru
an te
Ġfant ast
Ġ Ã¤ndern
Ġs and
Ġc ut
ut ions
ck s
Ġdiff erence
Ġb at
Ġmo ving
Ġmed izin
Ġst Ã¼ck
Ġabsol ute
Ġinsp ir
! "
Ġsu d
Ġbehav ior
p ect
Ġc ann
Ġspe z
it ions
ang er
Ġbede ut
r ichten
ak ter
ap t
Ġpatient en
ent lichen
ze ugen
Ġhaus e
l o
Ġyour self
is on
Ã¤ ten
Ġme chan
Ġim age
Ġwee k
w ort
ĠÃ¼ber haupt
Ġpar k
ala x
ig te
hl te
Ġzw ar
Ġa ch
at ure
ien en
Ġreg ierung
Ġmed ia
e f
i ben
Ġt it
Ġcl ose
Ġschw ar
er weise
Ġh iv
Ġl ed
ĠverÃ¤nd ert
Ġchang ed
Ġe her
Ġsh ort
pe kt
Ġbit te
Ġverw enden
Ġma j
Ġta ken
Ġso ld
Ġhand s
Ġbl ue
Ġsim p
a ktion
p ut
Ġd or
ok rat
Ġg iven
Ġen or
Ġfe ed
Ġta kes
Ġpat tern
Ġter ms
g ra
in al
Ġne g
Ġkind ern
Ġcomm on
Ġv e
Ġver fÃ¼
olog y
Ġcent ury
Ġexpl ain
Ġjo hn
Ġg alax
Ġrob ot
Ġp fl
Ġk id
Ġ1 4
ik um
Ġmor gen
p fen
hl er
Ġwonder ful
b re
Ġf ern
Ġpr im
Ġvers ucht
Ġrec ord
Ġu lt
Ġmensch lichen
Ġpers Ã¶n
Ã¤um e
r es
Ġf and
Ġstre et
Ġcompan ies
Ġs end
Ġle ave
Ġeas y
Ġo cc
Ġanf ang
Ġwhat ever
Ġsee ing
h ow
h Ã¤ng
u ld
Ġes s
wh at
Ġerst aun
Ġc ities
op h
Ġneed s
v Ã¶l
Ġt au
Ġha b
Ġdem oc
Ġkom mun
Ġkre bs
Ġeur ope
ten d
ne y
ard s
Ġel tern
Ġ9 0
Ġvir t
Ġpres ent
Ġoce an
Ġd om
ou d
be ite
Ġey es
Ġget an
Ġsol ar
Ġs am
Ġauf ga
Ġtro tz
Ġm ik
Ġz ent
Ġgleich en
Ġaud ience
Ġrelations hip
en ce
Ġc ulture
Ġdes c
Ġverb ess
Ġfall s
Ġbeginn ing
Ġl ow
Ġl age
Ġheraus forder
Ġintern ational
Ġs an
as ed
Ġfund ament
ver age
Ġne ben
Ġwer k
Ġinc l
Ġbo x
z ieren
ot h
Ġsch reiben
Ġall em
ĠnÃ¤ch ste
te xt
Ġre ach
Ġbre ak
ĠgebÃ¤u de
h nt
l ing
p o
on nen
Ġver tra
los sen
Ġrobo ter
Ġw Ã¤
Ġlong er
Ġpra ct
Ġ x
kt or
Ġkon t
Ġbra uch
Ġturn ed
Ġw ider
Ġ1 7
ik en
ha ft
Ġloc al
Ġsimp ly
m ar
am er
Ġwo chen
Ġste p
Ġcommun ic
Ġre i
Ġbu y
Ġsol che
Ġvor her
Ġinteres ted
Ġm ent
Ġpart s
Ġmaj or
s w
Ġentwick lung
Ġt ier
Ġl Ã¤nder
Ġj u
l ic
Ġs icht
Ġo x
Ġpro zess
Ġd ingen
Ġer re
Ġkam en
Ġjun ge
Ġer scha
Ġbere it
Ġmil it
k Ã¼
l in
Ġac cess
Ġindivid u
a ke
Ġf ore
Ġne ar
enn e
Ġpr Ã¤s
Ġgr ound
g o
Ġpro t
Ġcann ot
ur en
gen ommen
aus o
Ġor d
Ġmus e
Ã¤n gt
Ġcon sum
Ġmein es
Ġpr ess
ent ly
Ġreal ized
Ġstru ktur
Ġged anken
Ġt ief
it i
ck er
bar en
h aus
Ġle hrer
op p
h or
Ġre le
ur t
z in
Ġgen auso
sp iel
Ġexp ect
Ġfal sch
Ġnach dem
nah me
o f
Ġh ig
ra um
Ġar beite
Ġper form
Ġver h
Ġtr ied
Ġreg ion
Ġweit ere
led ge
Ġschle cht
Ġintell igen
m el
Ġun ten
Ġtr u
Ġsc re
Ġneed ed
Ġbere ich
.. .
Ġz ahl
iz iert
Ġmus sten
Ġgesch Ã¤ft
Ġpower ful
Ġsie ben
Ġst ay
ser v
pr ession
b or
Ġv iol
Ã¼ cke
om s
Ġsur pr
Ġletz te
mÃ¶ glich
Ġris k
ĠmÃ¶glichkeit en
Ġbetra chten
y ear
Ġf ahr
im p
Ġle iden
Ġne ues
Ġverb re
Ġs ize
an a
is ing
Ġke y
Ġse k
ĠÃ¼ber ras
Ġcon v
Ġ19 8
Ġerf ahrung
m as
Ġ Ã¤r
Ġf ert
fu lly
b au
Ġs il
Ġe t
se in
Ġwor den
Ġgen e
Ġsc ale
ĠfÃ¼ hlen
Ġtag es
Ġpubl ikum
Ġfol gen
Ġvir us
Ġsch lieÃŁlich
in ary
re g
Ġcon c
Ġpos ition
Ġrec ogn
Ġeur op
or ie
Ġjed och
Ġander er
Ġgemein sam
Ġdre am
Ġerinn ern
Ġcir c
Ġg ol
Ġg one
Ġdem okrat
Ã¤nd e
Ġkl im
Ġsl ow
Ġspec ial
Ġbring t
Ġdire ct
Ġk raft
Ġ20 1
Ġc op
Ã¶ tz
ib ility
Ġterr or
Ġperfe ct
b all
Ġm ount
st o
om at
Ġmensch liche
Ġstr ateg
b ook
y ou
Ġf oot
end s
Ġpl ast
our ces
fl Ã¤che
Ġgrund e
Ġindivid ual
Ġh om
Ġf ather
ant wort
Ġthem a
Ġsur v
Ġsud den
Ġb ud
Ġr Ã¼ck
Ġge ist
Ġpl atz
rei fen
iden ce
Ġeconom ic
it ter
is ed
ten s
Ġma in
Ġeigen e
Ġquick ly
b te
Ġf ear
Ġver stand
Ġ1 3
Ġra us
Ġaf gh
rie d
Ġgener al
Ġdire kt
Ġsupp ort
Ġpap er
ar ing
Ġl esen
Ġab ility
Ġli k
Ġste llt
d as
h ood
l am
Ġbe ge
Ġpro p
ĠÃ¶ l
Ġfor ce
Ġpl Ã¶tz
Ġgr en
Ġb Ã¼r
Ġopt im
Ġe ither
Ġre in
Ġme er
Ġum geb
Ġwould n
c i
l ungs
Ġs n
am a
Ġal ter
ĠÃ¼ br
ĠvÃ¶ llig
b an
Ġre pl
Ġc e
Ġwh ite
el te
Ġde ut
Ġen c
zent r
Ġt Ã¶
Ġan sch
Ġze hn
Ġ2 1
Ġt iere
Ġs al
Ġs amm
Ġher vor
ip s
Ġbek am
Ġvis ion
Ġl Ã¤sst
Ġdan ach
Ġtem per
Ġwus ste
Ġcons ider
c in
Ġreal ity
Ġerl au
Ġopportun ity
Ġt age
Ġder en
Ġhum ans
Ġval ue
ra b
Ġph one
Ġbo den
Ġafgh an
w ind
Ġd essen
Ġh on
iz ieren
Ġpar ents
Ġsicher heit
Ġstru cture
Ġentsche iden
Ġth er
Ġf ish
us ion
Ġsp ent
Ġbl ock
fÃ¼ hren
Ġw Ã¤ren
Ġh it
Ġso llen
k raft
Ġs itting
Ġ7 0
Ġwee ks
Ġhil fe
Ġmuse um
b on
ann ten
ia le
Ġsta aten
ick s
lie ÃŁen
Ġstr ong
Ġf elt
Ġj ungen
Ġre qu
Ġfar m
Ġphot ograph
j Ã¤hr
Ġ %
in ed
Ġh osp
im men
Ġdar k
Ġgew or
Ġshow s
Ġmor ning
Ġcolle ct
fall s
Ġmik ro
z ip
Ġt in
Ġan zu
Ġbr it
Ġzwe ite
Ġeconom y
iv ed
Ġchang es
Ġg as
Ġmar kt
Ġpu ll
ĠsÃ¼ d
Ġdet ail
Ġmeas ure
b auen
Ġa cht
Ġw ach
Ġs ong
it es
Ġwel ches
Ġvis ual
Ġappro ach
Ġa kt
Ġin fr
ar s
Ġme ist
ab il
Ġges icht
Ġgesch a
arbeit et
er ungen
Ġk at
it zen
Ġarbeit s
Ġpolit ical
Ġse a
Ġman che
Ġwo che
Ġlo st
Ġfre unde
Ġjob s
Ġcam p
Ġresp ons
Ġbl ood
Ġincred ible
il s
Ġman ag
Ġmo dern
Ġo p
st um
Ġbe ein
ut h
Ġverw and
Ġfunktion ieren
Ġdra w
Ġanim al
Ġster ben
ch sel
Ġs uchen
Ġb om
Ġro ck
Ġfe et
ĠlÃ¶ sen
Ġv ill
il ar
Ġknow n
Ġble iben
Ġmode ll
d ie
is se
Ġz ahlen
Ġat m
Ġent ste
Ġbeste ht
Ġschwier ig
w Ã¤r
Ġi gn
Ġzu erst
Ġgemein schaft
ĠplÃ¶tz lich
Ġe ffe
iz ing
Ġbr ought
Ġverb unden
Ġkr anken
Ġgrow th
v ent
Ġco de
Ġfrag te
Ġal tern
we g
Ġbas ed
Ġbott om
ro te
Ġsch we
ac y
Ġgut en
nah men
Ġe is
el be
ust ain
zie hen
at ors
Ġkon zentr
Ġfl ow
Ġelect ric
Ġpot ential
f ahren
Ġz erst
Ġsch ritt
Ġb orn
Ġo ze
ou ch
n al
Ġh ast
Ġha ll
Ġver antwort
Ġsm art
Ġaut os
Ġsur face
wir k
Ġcolle ge
Ġn ation
Ġn ice
Ġro t
Ġtrans port
Ġunivers ity
Ġeing es
Ġflie gen
Ġe at
ed er
Ġare as
Ã¤ch st
Ġany one
Ġbesch Ã¤ft
Ġf ight
Ġp ath
Ġzu vor
Ġst age
ber t
Ġfa vor
Ġfamil ien
Ġverg leich
u ÃŁen
Ġp f
Ġk aufen
Ġknow ledge
Ġmon ate
Ġinst rum
sicht lich
Ġchallen ge
Ġbe z
Ġwe bs
Ġre ich
Ġpr om
Ġra nd
yn am
g ht
h Ã¶ren
Ġi ce
Ġl aufen
Ġz ellen
Ġaus sehen
Ġcomput ers
ogra f
Ġer mÃ¶
ĠfÃ¼ hrt
Ġimp act
Ġlang sam
Ġbook s
ĠlÃ¶s ung
l icht
u it
Ġc aus
Ġun be
ier end
all e
iv al
ain s
Ġnam en
Ġatt ention
Ġb ur
Ġben Ã¶t
Ġp al
is ieren
Ġfor ward
op s
Ġvo ice
h y
sp ro
Ġstat ist
Ġdevelop ed
ĠglÃ¼ck lich
Ġc ivil
al ien
Ã¼ck t
Ġvers ion
pro du
Ġwr ite
Ġl as
ict ion
Ġko lle
Ġcol or
Ġa verage
Ġr om
ast ru
Ġreal ize
je kte
i for
Ġe mer
Ġmo der
Ġmed ic
Ġfeel ing
Ġb or
Ġbe vÃ¶l
Ġcl os
Ġcar s
Ġstart ing
Ġp un
le tz
Ġaus ge
Ġbl ut
Ġdra uÃŁen
Ġmot iv
is st
ze uge
Ġtechnolog ies
Ġphys ical
Ġmil es
Ġlink s
Ġerkl Ã¤r
p ers
Ġb al
Ġf em
Ġin se
Ġall ein
ill s
ab or
Ġdar aus
Ġcl imate
Ġprodu kt
Ġmean ing
ĠgrÃ¶ÃŁ te
Ġrepr es
Ġd ing
ou ble
Ġl Ã¤ndern
Ġsp ir
ore d
ĠgrÃ¶ÃŁ er
om et
us e
ad es
Ġgel ernt
igkeit en
Ġeng ag
Ġw rote
nd on
Ġg iving
Ġf ire
el ten
Ġle icht
Ġnach t
Ġste lle
Ġsim ilar
Ġgef unden
Ġser ious
Ġpatient s
Ġnet work
Ġerscha ffen
Ġn ord
Ġp ack
Ġcom b
Ġdevelop ment
Ġgrow ing
Ġscient ists
b ol
Ġw ahl
Ġh ung
Ġh Ã¶r
Ġde ad
ze igt
Ġsu g
w a
Ġh ine
ct s
au ft
pro chen
ent ially
Ġst Ã¤r
Ġre p
Ġma p
Ġcon cept
Ġihr es
Ġunser es
Ġde in
Ġref le
o x
Ġer le
ge gen
Ġar en
Ġcr it
Ġeg al
Ġb ist
Ã¤ ÃŁ
Ġstud ent
Ã¤u f
Ã¤u ft
ĠbÃ¼r ger
k erung
o ve
Ġf ur
Ġp an
ge fÃ¼hl
Ġne igh
Ġmach e
Ġfl u
cle ar
Ġliter ally
Ġschein t
. ,
Ġer sch
Ġnach denken
Ġhundred s
z w
ie ten
sch r
Ã¤t ze
Ġstr ess
Ġ5 00
Ġimag es
Ġengl ish
Ġabsolute ly
i fe
p re
ar m
Ġse he
Ġmit t
Ġsp read
Ġ2 4
pe c
Ġgegen Ã¼ber
Ġentde ck
Ġinfr astru
ifor n
Ġfa ir
Ġmin ute
Ġbewe gung
Ġunderstand ing
j en
Ġto m
Ġmit einander
ste in
Ġgeb aut
l agen
u h
z z
Ġzu g
Ġnumber s
Ġelekt r
Ġty pe
Ġmov ement
Ġs le
ou n
Ġver gangen
Ġantw or
Ġw ild
Ġbe ide
ĠmÃ¶ chten
Ġgew esen
Ġjem als
ĠgrÃ¶ÃŁ ten
Ġseem s
Ġkrie g
z ellen
Ġt al
Ġge le
Ġqu al
Ġplay ing
Ġstim me
Ġanst att
Ġs ustain
an ces
Ġp ur
Ġro ad
Ġwissenschaft ler
Ġspra ch
Ġtool s
Ġinte gr
Ġbeein fl
m ut
es ter
Ġe c
Ġn immt
id ge
ĠÃ¼ber leben
Ġrun ning
i ant
Ġso on
Ġr ate
he ad
Ġbo y
Ġgewor den
in os
Ġinstit ution
Ġrecent ly
Ġmar s
Ġpass ieren
Ġcur r
Ġverbind ung
i od
Ġw achsen
Ġse quen
Ġauf zu
Ġwor th
Ġlo ndon
Ġverb ra
Ġbek annt
Ġheraus zu
Ġnah m
h nen
al ter
Ġtr uth
Ġdurch schnitt
Ġtell ing
Ġbegin nt
Ġerkl Ã¤ren
o on
Ġbl ind
ph one
bl ick
Ġgu ess
Ġpos itive
Ġanf angen
Ġkontro ll
b ten
Ġt on
Ġse ll
Ġtats ache
Ġg ives
Ġd ynam
Ġno body
Ġ19 7
zeit ig
une hmen
g liche
Ġthe ory
Ġe hr
Ġex cept
Ġbl og
Ġ19 6
wir tschaft
Ġiss ue
Ġher r
a ben
f ahr
l a
Ġl ern
Ġper iod
Ġ3 00
ĠmÃ¤n n
Ġrei he
at ten
Ġn utz
Ġv ortra
gew Ã¶hn
Ġindust ry
Ġjour nal
e x
i ation
Ġin fl
Ġver Ã¶ff
if ied
Ġto ll
Ã¤ ss
ind et
Ġal one
Ġwahr heit
Ġav ail
Ġam ong
Ġdis k
Ġphil os
ul es
Ġsa ve
z ogen
Ġh Ã¼
Ġso fort
ic y
Ġj ung
Ġre gen
Ġer d
im ens
Ġfl o
Ġtechn ik
Ġmill ions
Ġstud enten
Ġmet h
Ġdevelop ing
Ġricht ung
Ġatm osph
l ang
u elle
Ġar r
Ġte ile
pl oy
Ġfa il
Ġnie mals
er ed
Ġauf ge
Ġexper ien
Ġmust er
u ell
or gan
op er
Ġem pf
Ġklein er
Ġchr ist
Ġdiscover ed
Ġt able
Ġe cht
is iert
Ġcomp ass
for sch
Ġbl ick
Ġey e
as ing
we gen
ust r
Ġvor h
Ã¤l fte
Ġauf re
Ġbek ommt
Ġstand ard
Ġfu ÃŁ
ĠfrÃ¼ her
Ġafghan istan
Ġi ra
Ġg ames
Ġse ver
Ġrelig ion
Ġincl ud
Ġumgeb ung
Ġf ro
Ġl ay
Ġc a
Ġan zahl
Ġpro per
Ġsh ape
Ġobvious ly
Ġj en
ct ions
Ġfr ank
Ġtechnolog ien
ĠkÃ¼nst ler
s etzen
ie g
Ġli f
Ġro ll
Ġmed ien
Ġl ad
Ġany body
hn ung
Ġklein es
Ġson st
Ġson nen
ĠÃ¼ b
Ġkrank heit
gem ein
pec ially
k o
mer ks
Ġern st
Ġklim a
u be
Ġt um
Ġf anden
Ġto d
Ġan n
Ġes pecially
Ġre de
Ġfr Ã¼h
Ġco ver
ile d
Ġstar k
Ġn ine
men s
Ġverb r
Ġstra ÃŁen
it ze
Ġsch Ã¼
Ġknow s
Ġshow ed
Ġben ef
Ġgirl s
w issen
Ġt ouch
Ġha ven
Ġpe ace
Ġtra vel
Ġmed ik
Ġfing er
Ġan w
Ġis land
Ġmed ical
Ġir an
zeug t
Ġt ie
at iv
Ġauf merks
Ġent sp
stell t
Ġtalk ed
Ġnor m
Ġgef Ã¤hr
Ġcreat ing
Ġach ie
Ġcon sc
Ġlie ben
Ġverl oren
Ġpict ures
Ġf ahren
ra el
ke hr
se ite
Ġas king
Ġde f
Ġeinf l
Ġhin aus
Ġverw endet
Ġentf ernt
Ġaufga be
o es
z er
Ġb and
Ġdi str
Ġes t
Ġde b
wo hn
Ġprodu ce
ri ft
Ġwr iting
Ġprin zip
Ġstell te
Ġis lam
Ġgen annt
Ġsu ff
Ġfind et
Ġsub ject
Ġincred ibly
f re
it Ã¤ten
ow s
au er
Ġma ÃŁ
Ġfin anz
Ġabsol ut
Ġd unk
Ġh ot
Ġn ar
Ã¤ fte
ĠÃ¼ber w
Ġinvol ved
Ġa rab
Ġd ram
Ġal ten
Ġcon vers
Ġres ources
Ġdr ive
Ġmet er
Ġaus zu
Ġsol ution
Ġben utzt
Ġmet ho
Ġprof ess
Ġricht ige
Ġenor m
g or
Ġf ab
Ġre ise
Ġinter view
Ġatt ack
Ġtot al
Ġavail able
Ġcompass ion
Ġt ar
te ten
ur ity
se quen
Ã¤n ge
Ġsk y
Ġaufmerks am
Ġst immt
Ġcon st
Ġerfolg reich
m on
Ġl etzt
Ġdi en
Ġver n
Ġvor stellung
Ġbec omes
Ġev ol
Ġpart ner
Ġreg el
Ġdesign ed
Ġcar bon
Ġversch w
m us
en ted
Ġm is
Ġin tro
Ġpre is
teil t
Ġkomple tt
Ġp il
Ġme x
Ġge zeigt
Ġdem on
Ã¤n gen
Ġbild ung
Ġchin ese
ĠstÃ¤d te
ag ieren
Ġspe ed
Ġbig ger
Ġinteress iert
a ÃŁ
Ġfe hler
Ġprof ession
y ond
st re
Ġfot o
b and
w ood
Ġwas hing
Ġge geben
Ġtr ust
ichte t
ĠgrÃ¶ÃŁ e
Ġjemand en
Ġchang ing
on om
Ġh Ã¤lfte
re l
ut age
Ġan c
Ġmit te
ik o
Ġsoz iale
Ġamerik a
Ġk al
ra gen
Ã¤nd ig
Ġoff ice
Ġmet ap
Ġcho ice
Ġbedeut ung
gor ith
c ial
Ġg ingen
Ġf ix
it ation
Ġp ort
Ġz un
Ġbe yond
ra cy
Ġsch rieb
Ġfor est
um b
Ġle ist
pl an
Ġwelt weit
Ġdesign er
Ġcap t
Ġforsch ung
Ġpfl anzen
w ass
z ustellen
Ġne cess
Ġhund ert
Ġrad io
Ġiss ues
Ġwebs ite
t ies
Ġhe im
Ġro lle
Ġbr ill
Ġput ting
Ġversuch e
s on
Ġt Ã¼r
Ġg old
Ġl aut
Ġk an
ro ffen
os ystem
Ġnach zu
Ġmein ung
ĠmÃ¶ gen
Ġho ffe
Ġreas ons
iqu e
d lich
k el
k am
ier ungen
Ġhe ll
if y
Ġgeb oren
Ġzie hen
Ġoffen sichtlich
l age
Ġe ast
ar en
Ġau str
Ġfor men
Ġpl ant
utz utage
ĠverÃ¤nd erung
m ung
Ġl ate
Ġst ick
Ġdav id
w in
is ierung
Ġhe utzutage
Ġze ige
Ġact ion
Ġbas is
Ġmaterial s
Ġdev ice
Ġerre icht
Ġdemon str
s etz
Ġw ish
Ġsch e
Ġhist or
ĠÃ¼br igen
Ġsever al
al es
Ġple ase
h Ã¶r
Ġin f
Ġc art
Ġdi mens
Ġis rael
Ġr uss
Ġde g
Ġentwick lungs
f on
Ġw ann
Ġb ald
te ile
Ġli st
Ġze ich
Ġkom pl
Ġhapp iness
Ġlie f
Ġsym bol
Ġcertain ly
Ġp en
ar ily
Ġre act
kr ank
Ġherausforder ung
Ġfir ma
Ġlo k
Ġtin y
Ġs etzen
Ġr ules
Ġbra chte
Ġeinfach e
Ġfas zin
Ġbetra chte
Ġmasch ine
Ġsle ep
c ome
d o
i ke
Ġl Ã¤nger
ind er
ip le
Ġhin zu
Ġsol ve
Ġtrain ing
Ġpred ict
Ġconsc ious
Ġin fe
uch s
Ġum f
Ġfun ction
Ġgrou ps
Ġprote ct
t r
Ġs ke
Ġin n
Ġgen ommen
Ġgra ph
g te
or ge
Ġto wards
Ġsch mer
Ġcomp et
Ġsound s
l assen
Ġm r
Ġdie d
us sen
Ġr iver
ad a
Ġur spr
Ġhine in
Ġk Ã¤m
Ã¶r ter
Ġchar acter
Ġerw achsen
sh ip
Ġface book
Ġverein igten
b ack
ich er
Ġk en
au l
Ġli ved
Ġqu ad
inn er
Ġstr om
Ġmot or
Ġchr is
Ġsudden ly
Ġhosp ital
z iert
Ġ ere
it or
and a
ab et
Ġgesch rieben
Ġbest immt
Ġschnell er
ĠÃ¤hn lich
Ġinde ed
Ġspir it
Ġfur ther
l im
ad em
oo se
Ġvor aus
Ġgesch ieht
Ġreal itÃ¤t
Ġgleich zeitig
Ġschool s
Ġsor gen
Ġunterst Ã¼tz
Ġdom in
Ġd ruck
Ġm Ã¼
Ġan sehen
ver t
ib r
Ã¤nd ert
Ġjahr ze
Ġev idence
Ġir gende
Ġox y
Ġscre en
p ed
v iel
Ġf isch
it ch
Ġim pl
Ġsp an
Ġsec urity
Ġtrotz dem
Ġeurop a
Ġsug gest
i ate
k n
k rie
Ġ ?
Ġ Â
Ġso b
be w
Ġnormal erweise
Ġmess age
jen igen
Ġg ern
Ġg ang
pp ed
ous ly
Ġbra nd
ak es
arbeit en
Ġproject s
Ġwalk ing
Ġrecht s
Ġparticular ly
Ġbat ter
Ġwach stum
es te
is hing
ent liche
ier s
Ġtra gen
Ġlie gen
f el
h re
Ġsp ort
ik el
Ġtra um
Ġcap ital
Ġeinfl uss
m ing
Ġc ross
ell ow
fÃ¼ hr
ĠÃ¶ k
Ġstra ÃŁe
Ġeinzel ne
Ġergeb nis
s atz
Ġt end
Ġs ource
st on
Ġv ac
un ately
Ġmach ten
for d
Ġa w
Ġb akter
Ġn ennt
al y
Ġer schein
ind ern
Ġon to
Ġzwe it
Ġpass ion
ffe e
Ġextra ord
r or
Ġs ent
ich ter
Ġnot ice
Ġgra d
Ġerk ennt
ĠfÃ¤higkeit en
Ġgesam te
Ġd anger
Ġb acter
ur g
Ġdi v
Ġal gorith
Ġne un
Ġges prochen
Ã¤t zen
Ġkom p
Ġpar ad
Ġson ne
Ġintell ig
bild ung
ies o
Ġevery where
Ġany way
Ġbas ic
Ġbewe gt
Ġdram at
i pl
Ġt v
es h
ra d
Ġver t
Ġscient ific
Ġm ist
ct ors
ab hÃ¤ng
Ġstart s
h ere
or es
Ġan gel
Ã¼s sel
Ġpra kt
Ġbuch st
Ġtot ally
Ġarg ument
Ġfundament al
Ġh yp
Ġbe e
Ġmit gefÃ¼hl
Ġstud ie
Ġwicht iger
Ġlik ely
Ġherauszu finden
i ber
Ġs us
Ġan ges
Ġse arch
Ġverg essen
Ġbegan nen
Ġm ine
Ġl ag
om eter
Ġcar ry
k op
Ġse par
Ġde ine
fl ict
Ġexam ples
Ġcou n
ĠauÃŁer dem
Ġentscheid ungen
Ġvill age
l auf
s a
z te
Ġk ing
Ġsch au
Ġge heim
Ġqu ality
pf er
Ġche ck
Ġwicht ige
m ore
Ġ Ċ
Ġde te
Ġdach ten
Ġcam era
Ġteach ers
ultur al
Ġmiss ion
Ġeinzel nen
eng th
Ġdad urch
l ungen
t ter
u ellen
Ġc at
Ġc it
Ġver urs
Ġge fÃ¼
Ġkon zept
lie d
erst off
Ġober flÃ¤che
Ġsqu are
ĠÃ¼brigen s
Ġse le
Ġmo vie
Ġdel iver
c en
Ġd inos
Ġge arbeitet
Ġmo ved
Ġread y
Ġcle an
Ġschul en
Ġhoff nung
Ġaufmerksam keit
g ru
Ã¶ sen
Ġsch aut
Ġtra ck
Ġspe zie
Ġgut es
Ġele ment
ĠbÃ¼ ro
Ġap art
k om
ro om
ra gt
Ġnach richten
olog ical
Ġob jekt
Ġshow ing
Ġfin de
Ġindust rie
Ġmem ory
Ġbeob achten
Ġdemoc racy
Ġphilos oph
Ġl ose
ra ge
Ġnu clear
Ġbir th
n y
Ġw ol
Ġse iten
Ġver stÃ¤nd
Ġver fol
Ġr at
Ġr ess
Ġpro gress
Ġna he
Ġwus sten
le gt
Ġim med
Ġcon text
Ġent h
Ġkann st
Ġcomp lic
Ġreg eln
Ġbig gest
Ġcent ral
Ġeff ic
Ġmod els
Ġcra zy
Ġbezie hung
Ġkreat iv
Ġet c
b i
f s
Ġnach halt
Ġirgend w
Ġrest aur
Ġexc iting
Ġextrem ely
Ġneigh bor
m p
ur al
sch w
Ġbl au
Ġra in
Ġpo ll
Ġpolit ik
Ġindust r
Ġzer o
neh mer
Ġfert ig
ic le
ese hen
Ġpl ants
Ġevent ually
amer ik
Ġdemokrat ie
Ġoze an
Ġrepres ent
Ġact iv
Ġcreat ive
Ġcr is
Ġ15 0
Ġpartic ip
Ġhar v
Ġemot ion
Ġner v
Ġvortra g
o ten
Ġb reat
Ġb aum
Ġe p
ir m
et ic
Ġre ce
Ġfe uer
sp e
Ġpre c
teil en
Ġtre es
Ġsozial en
Ġansch auen
Ġign or
l ter
Ġn iger
am i
ĠmÃ¶ glichen
Ġ4 00
Ġverl assen
Ġchem ical
Ġjour ney
f eren
ĠgroÃŁ er
Ġfre ed
gend es
Ġsupp osed
Ġlea der
li ke
Ġbestimm ten
Ġbemer ken
t te
ie den
Ġb urn
as ter
ant ly
Ġwant s
Ġpass ierte
ĠÃ¶ff entlich
zeich net
r ate
Ġs Ã¤
re cht
ic kt
Ġaus wirk
Ġmon at
Ġgru ppen
ĠgrÃ¼nd e
Ġdor f
f ore
Ġst Ã¤ndig
Ġwas te
Ġdo or
Ġus ually
Ġtrans l
ĠbevÃ¶l kerung
is ions
Ã¤ chen
ind est
Ġtr ick
ĠgroÃŁ es
Ġimp oss
Ġger Ã¤t
Ġversuch te
ĠbÃ¼ cher
r Ã¼
v ention
st h
Ġbe in
ĠÃ¤ lter
Ġess entially
Ġcit iz
er y
Ġzu gang
Ġhe ut
ab les
Ġsome how
Ġfir men
Ġur ban
Ġindividu als
Ġprot ot
g leich
w ert
Ġsa hen
Ġsa fe
our cen
Ġorgan ization
Ġsk in
ĠnÃ¤ her
Ġanal y
Ġkontro lle
Ġwashing ton
Ġsob ald
on se
Ġj ud
Ġcon flict
Ġsit zen
h ungen
Ġs ad
Ġf ill
Ġn an
Ġli ber
Ġsp aÃŁ
Ġar me
Ġsome where
Ġmon aten
Ġlar gest
Ġret urn
zus ch
h am
Ġb ang
Ġl apt
Ġgo al
id ing
Ġtr ial
ak ing
Ġgre w
r ound
ver ty
Ġges etz
Ġte en
Ġsel ts
Ġtrans par
Ġinteress ante
Ġkar te
Ġin gen
Ġre aktion
Ġdo g
Ġact ivity
Ġmag az
schl uss
d ro
as en
Ã¤ gt
Ġme ant
Ġze ug
Ġzum indest
Ġirgend wo
Ġresp onse
Ġteach er
Ġhig her
m iss
Ġb ase
le y
Ġre port
Ġab end
Ġden kt
Ġge he
ess ed
Ġat om
Ġde pression
Ġqu ant
Ġpers pect
Ġwa it
schl ag
Ġsat ell
Ġobject s
Ġschre ck
Ġp ush
te x
om ing
Ġnach bar
Ġstud ien
Ġacc ount
Ġlu ck
Ġricht igen
Ġpap ier
Ġpriv ate
Ġviol ence
s es
Ġw Ã¶rter
Ġl ower
el ess
Ġ2 000
Ġzwe iten
Ġbess ere
Ġconne cted
Ġble ibt
Ġfavor ite
Ġimposs ible
as a
Ġauf grund
Ġch oose
Ġgesch ehen
Ġpo verty
Ġwatch ing
Ġcoll abor
Ġserv ice
wind igkeit
Ġt aten
Ġth reat
Ġb erg
Ġf oss
Ġl at
Ġc ause
il ities
Ġdo ctor
Ġas sum
we isen
Ġgeb iet
Ġkein er
Ġverl ieren
Ġdefin ition
Ġgren zen
3 0
o ver
w Ã¼r
Ġu hr
Ġun fort
Ġer g
Ġsp re
ik ation
ne te
Ġro le
Ġland es
Ġapp ear
Ġsort s
wass er
Ġs we
Ġb on
Ġb unch
at iven
Ġh Ã¤uf
Ġc ook
Ġz ivil
Ġwor se
Ġpl at
Ġgl ass
fr ont
Ġcontin ue
Ġment al
Ġt ur
Ġk er
Ġor te
Ġmensch heit
Ġfas ter
Ġprofess or
m ann
Ġm ember
Ġg ift
Ġk Ã¼r
ot t
uch ten
Ġcon stru
Ġad ult
Ġthank s
Ġphys ik
y le
ch end
Ġp et
Ġso hn
Ġcl in
Ġnam ed
Ġresult s
d om
o ber
Ġab ove
od ies
wer fen
Ġbuild ings
Ġbeisp iele
Ġber Ã¼
Ġmind s
tem ber
mas ch
Ġcris is
Ġa ids
Ġan gef
Ġinst all
Ġanal ys
i os
le i
ed ia
Ġst amm
am in
Ġle ider
ab l
Ġma le
Ġen j
Ġprodu zieren
Ã¤um en
Ġt el
Ġw ife
Ġh op
Ġdie jenigen
ere i
Ġver letz
Ġex press
Ġarm ut
Ġlea ders
Ġerlau bt
ĠschÃ¼ ler
Ġextraord inary
d ing
k le
l ern
p fl
Ã¤ hlt
em ents
um m
Ġta gen
Ġviel f
Ġstand ing
Ġunivers itÃ¤t
Ġafrik an
Ġrich ard
Ġelectric ity
Ġmedic ine
Ġnachzu denken
a i
b il
m achen
st et
Ġf ine
or ben
Ġzu fÃ¤
Ġdo c
Ġor ten
Ġbeg ri
Ġcont ent
Ġpoint s
Ġafric an
Ġsign al
ĠhÃ¶ her
Ġbil den
ĠÂ »
u ed
Ġm ention
at ory
Ġbl o
Ġbo ard
Ġold er
Ġallow ed
p end
u fen
Ġst ol
ul ate
Ġvor stell
Ġtra g
Ġlar ger
Ġtw itter
Ġconc ern
a w
g ere
z ig
it ung
is ation
Ġge we
ens ive
Ġgew innen
Ġaut hor
Ġbrain s
ĠerzÃ¤ hlt
Ġverbess ern
k a
Â «
Ġwh e
Ġda hin
Ġsh own
Ġrem ark
Ġsign ific
Ġcal cul
Ġmole kÃ¼
Ġerh Ã¶
b ung
y l
Ġw ik
Ġf it
Ġin e
Ġfr anc
Ġperson en
Ġmag ic
ĠhÃ¶ ch
Ġsym met
Ġsuccess ful
Ġarbeite te
Ġcomplic ated
Ġfreed om
Ġp hen
Ġha ut
Ġal th
Ġges p
Ġam b
Ġstud ies
Ġmag net
Ġproduct s
Ġtaus ende
Ġauss ieht
Ġdisc uss
Ġspez ies
Ġsek unden
w ick
Ġp age
Ġge kommen
Ġgen es
ound s
Ġaut omat
Ġcommun ities
Ġdru g
Ġv ict
Ġk ern
Ã¶ st
Ġau ÃŁen
Ġkon fl
Ġverb inden
Ġbeh au
Ġprof it
Ġkill ed
Ġleiden schaft
Ġvergangen heit
d ig
Ġ $
Ġt en
Ġto wn
ct ive
Ġr und
Ġwor te
we is
Ġthere fore
Ġgr Ã¼
Ġtra de
Ġdr itte
Ġ3 5
Ġbab ies
Ġeben e
ĠgroÃŁart ig
Ġc row
Ġun mÃ¶glich
um en
Ġat tra
Ġges pr
ĠgroÃŁart ige
Ġinte lle
Ġaff ect
Ġsyn th
Ġconv in
Ġinclud ing
Ġalth ough
u ern
Ġs ite
Ġg ere
ar tet
Ġso d
ol ogen
ru ption
Ġfind ing
Ġgeb racht
Ġtell s
Ġfin anc
Ġform s
Ġpres ident
legen heit
Ġbiolog y
Ġinfl uen
k ommt
o v
w art
Ġun abhÃ¤ng
im in
ist e
Ġnach richt
Ġarbeit et
Ġser ies
Ġpie ces
Ġvoll er
Ġvar i
Ġmob il
ĠprÃ¤s ent
b u
r Ã¤n
u bl
Ġt ree
Ġw Ã¼n
Ġn enne
Ġc ases
Ġle hr
Ġsec ret
Ġcond itions
Ġern Ã¤hr
Ġincre asing
Ġtau ght
i ately
Ġn ut
Ġk a
Ġent sch
Ġpol icy
Ġfamil ies
Ã¼n ft
mo de
Ġengl and
Ġkrank heiten
Ġclear ly
Ġorig inal
Ġimpro v
Ġintro du
Ġa h
Ġa str
te chn
Ġver st
Ġer zeugen
Ġden k
Ġim m
Ġdar win
Ġfl Ã¼
Ġspra chen
Ġread ing
Ġret ten
Ġallow s
Ġemot ional
Ġtradition al
b uch
l ier
Ġk aum
Ġal te
um s
Ġhe il
Ġsh ift
Ġup on
Ġbr ief
Ġbef inden
Ġend ed
Ġstra ight
Ġwes tern
Ġgesam ten
Ġentscheid ung
i us
Ġv ul
Ġwe chsel
Ġso wohl
iz ations
Ġhow ever
Ġright s
Ġwirklich keit
Ġpos it
Ġrun ter
w ill
Ġw Ã¼
Ġg al
Ġc old
Ġbe zug
Ġab stra
Ġact ual
Ġkom b
Ġsur ger
Ã¼h ne
Ġmole c
Ġintellig ent
sch ritt
Ġal ive
Ġpr ison
Ġpart y
Ġstar s
Ġentw eder
Ġzusammen h
pe cted
Ġsmall er
Ġexc ited
Ġaff ord
Ġin tens
Ġto ile
Ġan geb
ink en
ure d
Ġad dr
gh ter
Ġmeet ing
Ġperspect ive
2 0
d essen
Ġ Ã¤u
Ġt Ã¤
Ġe pid
un t
Ġwo hn
bo ard
Ġmass ive
Ġlin ie
Ġmount ain
Ġther ap
Ġantwor ten
Ġress ourcen
d imens
ing u
Ġmo nd
Ġdec ision
Ġchin es
att le
Ġdep end
sto ffe
Ġdistr ib
Ġindustr ial
z we
Ã¼ gen
ver se
ul pt
ust er
Ġmach ines
Ġke pt
Ġtra f
Ġsol chen
Ġgef ragt
Ġeff ort
Ġtru ly
Ġcrit ical
Ġpur p
Ġfranc is
m Ã¤ÃŁ
p ret
le br
ier ter
ne in
ast rop
Ġla unch
Ġsecond s
ĠfÃ¼hr te
Ġbestimm te
Ġfantast ic
Ġocc ur
Ġphen omen
an ke
Ġst ock
Ġr id
Ġex t
Ġdes p
ass ung
wer ke
Ġeinz ig
Ġwr itten
Ġcolle ag
Ġresp ond
Ġeben so
Ġtreat ment
Ġincre ase
Ġingen ie
c ol
h i
Ġw ieso
Ġm essen
ie gel
Ġh Ã¤nde
Ġc ard
Ġz it
Ġr an
Ġle bt
Ġhim self
Ġbewe g
Ġflug zeug
hy th
Ġmedik am
Ġd eter
it ude
ar f
Ġl ust
Ġha m
ic ians
im al
Ġind ian
Ġcl im
Ġreg ierungen
Ġpol ice
Ġbeing s
Ġche ap
Ġamerikan er
Ġbewusst sein
Ġdesc ri
Ġrecogn ize
is es
al tet
Ġwe ight
Ġnot wend
Ġpr ice
Ġerf ahren
Ġ4 5
licher weise
Ġentde cken
Ġries ige
Ġve h
Ġmilit ary
Ġmeth od
Ġepid em
Ġthe orie
ar ia
Ġl es
Ġab ge
pl ay
Ġber Ã¼h
Ġmathemat ik
Ġamerikan ischen
Ġvertra uen
Ġsamm eln
e ch
v ision
es se
Ã¤ hlen
Ġall gemein
Ġsp ect
Ġfr ieden
Ġany where
Ġdr itten
Ġgra du
Ġenvironment al
Ġfrei heit
Ġprov ide
Ġdru gs
ĠgeschÃ¤ft s
imp an
Ġverstand en
Ġconvers ation
Ġunfort unately
p fe
Ġl ines
Ġdass elbe
Ġent schieden
Ġmus lim
Ġbis her
Ġger man
Ġthrough out
ri ere
Ġgreat er
Ġkr it
Ġspec ific
Ġsin ne
Ġass oc
hol en
Ġunters uchen
Ġmasch inen
Ġehr lich
Ġtel es
Ġis ol
Ġst ore
Ġwar ten
Ġpr Ã¤
Ġany more
Ġgef Ã¤ng
Ġsl ight
Ġsk ills
Ġexp ensive
c a
h il
Ġp assen
ic ed
Ġer leben
Ġle isten
Ġch a
ism s
Ġear lier
Ġbed ro
Ġrob ots
Ã¤us ch
Ġelekt ron
Ġpattern s
Ġintelligen ce
p ol
t ime
st es
Ġf Ã¶r
Ġin nen
Ġc ru
Ġk ol
se it
os m
Ġkon sum
Ġfall en
Ġvide os
Ġhil ft
Ġbacter ia
Ġth row
Ġein ander
Ġwe ib
ind ung
Ġsch Ã¶
he y
Ġhand eln
Ġsol utions
Ġnie dr
Ġkam pf
pro gram
Ġnet wor
Ġmob ile
k ar
Ġm el
os sen
Ġfa c
gl icht
Ġtele fon
Ġbeob ach
Ġschmer z
Ġsod ass
u ck
w ers
Ġo d
Ġl Ã¤uft
Ġun er
Ġsp iele
ul f
Ġsu bst
Ġta x
Ġmon t
Ġsim pl
Ġschl imm
Ġwel cher
Ġhim mel
alt ung
Ġexpl or
ĠhÃ¶ he
Ġarchite cture
Ġbud get
ĠermÃ¶ glicht
Ġurspr Ã¼n
Ġbakter ien
i at
r ation
Ġt anz
Ġdi vers
eren ces
Ġgeb ra
Ġgeb urt
Ġcont rib
Ġben utz
Ġfin al
Ġameric ans
af rik
ĠgrÃ¼nd en
g al
n ers
Ġm ad
Ġthe ater
Ġp ak
Ġk ore
Ġar zt
Ġwor ry
ĠÃ¼ber tra
Ã¤h ig
Ã¤us er
Ġserv ices
Ġkranken haus
ing ungen
Ġse p
ind ust
se its
Ġnum mer
ĠauÃŁer halb
Ġsta at
Ġpain ting
Ġletzt es
Ġimmed iately
h m
Ġf angen
it tel
or g
Ġl Ã¤ch
Ġun f
Ġab sch
ill e
Ġsp ielt
ab el
Ġges tellt
Ġsh ot
pl atz
Ġem ploy
erg ie
Ġfamil iar
stÃ¤nd ig
Ġint u
Ġpract ice
Ġmetho de
h em
m at
Ġn one
im s
Ġex isten
Ġdes wegen
Ġher unter
ute d
Ġze igte
Ġwill ing
Ġfl uss
gr Ã¶ÃŁ
Ġgreat est
Ġglobal en
Ġhealth y
Ġprin c
Ġcost s
Ġord nung
Ġauswirk ungen
v ant
Ġt our
in o
ic a
il ien
Ġr ise
Ġent stand
Ġgen ome
Ġinter pret
Ġunter sche
Ġheraus finden
Ġwa iting
Ġergeb nisse
Ġbetrachte t
k ur
o ke
Ġd Ã¼r
Ã¤ te
et ze
Ġver me
Ġr ange
ant wor
Ġher stellen
ieren de
Ġbef indet
Ġexp and
ĠerzÃ¤ hlte
Ġresp ect
ĠÃ¶ff entlichen
Ġentde ckt
Ġverr Ã¼ckt
Ġce lebr
ĠhÃ¶r te
m ark
Ġt or
Ġein kommen
th rop
Ġdar f
Ġfam ous
Ġhuman ity
Ġeff iz
Ġersten s
Ġlisten ing
Ġdetail s
b et
z immer
Ġm ig
Ġb an
le x
Ã¤nd en
Ġbr ust
ges etzt
Ġho tel
Ġsystem e
Ġgra v
Ġbeaut y
Ġplast ic
Ġgescha ffen
Ġzun Ã¤chst
indust rie
f rie
ie ll
Ġh art
Ġh Ã¤lt
st ud
Ġzu stand
ff ic
Ġbec oming
stell e
Ġhand elt
arbeit er
Ġengl isch
mittel n
Ġengine ering
Ġinstrum ent
Ġcurr ent
Ġsep tember
e c
Ġb odies
Ġn ahrung
ar a
Ġk Ã¤
ic o
Ġan wend
sch t
Ġsch ne
men d
Ġzeit punkt
ĠÃ¶ kon
Ġelect ron
Ġfot os
Ġgenet ic
Ġunterst Ã¼tzen
Ġere ign
p assen
Ġg h
Ġf en
Ġk m
Ġein zu
Ġj ump
Ġauf t
ac ity
schie de
Ġstr ange
Ġkam era
Ġdec isions
teil ung
Ġphys ics
Ġbeste hen
Ġgovern ments
Ġphot os
Ġgol f
Ġfinanc ial
Ġb ib
et te
ro chen
Ġle gs
Ġcom fort
Ġwer en
Ġam e
Ġph Ã¤n
Ġlie bl
Ġkl in
Ġinc ome
Ã¼t ter
Ġfot ograf
Ġaddr ess
Ġm Ã¤cht
Ġh em
Ġc ry
le ist
am s
Ġfor get
Ã¼s s
Ġmal aria
Ġgrund legen
Ġverk aufen
Ġvar ious
Ġinteres se
Ġult im
ĠwÃ¤ hlen
Ġaltern ative
n am
z unehmen
in ing
re pr
os ition
Ġmy ster
ies en
Ġsh ar
Ġlo ved
Ġem ail
Ġir on
ss ystem
Ġneur ons
Ġwunder sch
Ġwunder bar
Ġkolle gen
Ġtum or
frie den
Ġh ang
Ġin iti
Ġmehr ere
Ġprodu ction
Ġrem ind
Ġerw Ã¤h
Ġelect r
Ġcitiz ens
Ġenj oy
i kt
s weise
in ter
Ġwe ap
Ġr ule
Ġman ip
bar keit
Ġfar be
Ġhund erte
Ġfol gendes
ĠauÃŁer gewÃ¶hn
Ġlevel s
vo lle
Ġtas k
b lich
n ungen
ie ÃŁ
ent wick
il ing
ct ures
Ġim mun
Ġaus l
Ġfr ustr
Ġres er
Ġdr ink
Ġdr iving
gr Ã¼nd
Ġber uf
Ġtyp es
Ġval ues
Ġeffect ive
b it
i ot
l en
Ġn asa
ar ies
al og
ag o
ĠkÃ¶n ig
Ġget roffen
Ġart ikel
iver s
Ġfu el
Ġkre is
Ġwalk ed
Ġfas cin
Ġorganis ation
Ġnetz werk
Ã¤tz lich
Ġperform ance
Ġenc ou
h me
z Ã¼
Ã ©
Ġu g
Ġsch Ã¼tzen
âĢ Ļ
pl ant
Ġsel ben
ient s
Ġkl asse
Ġsur ve
Ġeinz igen
Ġbede uten
ĠverÃ¤nd erungen
Ġcreat ivity
Ġteach ing
Ġant i
Ġwin ter
Ġtar get
Ġneighbor hood
Ġm ix
an ter
st Ã¼ck
Ġein stein
Ġwe tt
Ġge be
Ġfor th
Ġle id
ant ic
Ġerf ahr
Ġgehirn s
Ġhy dro
Ġbehand lung
Ġfollow ing
Ġharv ard
Ġangef angen
Ġ 000
Ġh ous
Ġha ir
Ġer ne
Ġhe y
Ġpr ior
Ġland sc
ri pt
Ġapp le
Ġfound ation
Ġschle chte
Ġfort schritt
ĠlÃ¶s ungen
Ġzweit ens
Ġt iss
Ġw esen
st a
Ġer for
Ġsh ap
Ġus es
ste hen
Ġra ise
Ġag ric
gr ound
Ġinv ented
Ġter m
Ã¤s ent
Ġdire ction
Ġbed Ã¼r
Ġcal iforn
Ġstim men
Ġfly ing
Ġschwar z
Ġeffe kt
Ġdanger ous
feren z
er k
Ġb Ã¼hne
at ives
Ġh irn
or gen
Ġdo ctors
ce ed
Ġdem and
ain ed
Ġnie der
Ġinv ent
Ġdec ade
Ġwichtig ste
Ġstru g
Ġerinn ere
Ġsex ual
Ġsor ry
Ġflo or
ĠverstÃ¤nd nis
Ġsurger y
Ġt isch
Ġsch icken
Ġmy th
Ġsa ving
Ġher zen
Ġjahr es
Ġjemand em
Ġdiag ram
Ġbehau p
d ings
Ġw ald
ann ing
Ġhel d
Ġsl ide
Ġmater ie
Ġpop ular
Ġsum mer
t es
Ġd ance
Ġh us
re ten
Ġn Ã¼tz
Ġha ck
Ġj an
Ġst unde
Ġun ge
ag s
Ġho le
Ġland wirtschaft
Ġfre m
Ġwen ige
Ġ9 9
stÃ¤nd e
Ġak zept
Ġvirt ual
Ġdesc rib
Ġrand om
u ll
z ul
Ġt es
Ġi lle
es th
ie ÃŁen
Ġb aut
re es
Ġc ultural
Ġun ver
sch irm
ke y
Ġch air
Ġno te
Ġapp ly
Ġbi o
ma ÃŁ
Ġged acht
Ġcare er
Ġneg ative
Ġbege ist
a el
i est
Ġh Ã¶rt
or ien
Ġc ust
Ġsch m
Ġge orge
Ġwor ten
Ġat l
hl ung
ri fft
no st
ma ÃŁen
Ġerw arten
Ġsuch e
Ġeben falls
Ġarchite ktur
Ġerstaun lich
b Ã¼
w ise
Ġa id
be wer
Ġar men
Ġgr as
Ġgut er
red it
Ġfar ben
Ġpolit ics
gef unden
Ġdiag n
Ġhon est
repr ene
b ahn
h ib
Ġd rop
Ġv alle
Ġge k
ul s
Ġsel ten
Ġdis app
Ġuse ful
Ġglob ale
Ġunglaub liche
Ġgesundheit s
Ġhy per
Ġstatt dessen
Ġkil ometer
Ġremark able
c ies
p ack
Ġa ware
Ġin j
Ġj ene
ge fÃ¼hrt
Ġman uf
Ġaus w
Ġtr ouble
Ġart ist
ĠfÃ¼ hlte
Ġdec ide
Ġdec ades
Ġconne ction
ĠÃ¶ff nen
Ġnah men
Ġbezie hungen
Ġverbr ingen
Ġpak istan
Ġcaliforn ia
Ġm c
Ġp aul
Ġsp richt
Ġaus druck
Ġgro s
Ġac cept
Ġbo ys
Ġganz es
Ġinstit utions
Ġdest o
Ġunters uch
b rechen
h an
Ġa head
Ġw is
Ġw ood
Ġf at
ir es
Ġbe zahl
Ġwe alth
Ġab zu
Ġdo k
ann e
Ġli ste
we il
Ġaus sch
Ġcon cl
Ġbr u
Ġbi om
Ġchar les
Ġprote in
Ġmilit Ã¤r
Ġbal ance
Ġenorm ous
ĠphÃ¤n omen
c ar
i ated
pr Ã¼
Ġbest and
Ġaut om
Ġbro ad
Ġunterschied liche
Ġlaw s
ĠkÃ¼r z
o chen
r ig
z ust
ch em
Ġh inge
Ġe chte
Ġo sten
Ġv ent
Ġcom mer
Ġfra me
lie gen
Ġpol ize
Ġschl ag
Ġunderst ood
Ġsocie ties
Ġcond ition
Ġtemper ature
wÃ¤r ts
y m
Ġm Ã¤r
ie b
Ġc atch
il es
Ġre chte
Ġoff ic
Ġinst ance
ĠfÃ¤ llt
Ġkonzentr ieren
Ġheut igen
Ġmanuf act
ul ieren
Ġtr iff
iel ten
Ġbiolog ie
halt ung
Ġsym pt
Ġerfahr ungen
Ġs enten
Ġb ienen
Ġz o
Ġsch rift
Ġfor ces
Ġent reprene
Ġkom me
keit en
Ġeinfach en
Ġmost ly
ktion en
Ġ19 4
Ġcomm it
ha ben
Ġstat us
Ġexperim ents
Ġtest s
ĠverfÃ¼ g
Ġbom b
Ġjahrze hn
Ġkreativ itÃ¤t
Ġfrancis co
ĠgefÃ¤ng nis
y a
Ġm assen
ie gen
Ġun ique
ier ungs
se h
Ġma x
Ġgl am
Ġpr int
Ġgro ss
Ġzeit en
Ġhelp ed
cept ion
Ġposs ibly
Ġ7 5
ga ben
Ġbir ds
Ġkont akt
Ġpress ure
Ġmanag ement
p iel
s ichtig
t ube
Ġhe at
Ġste ve
Ġcl oud
Ġres pekt
Ġeffect s
Ġverm ut
Ġjahrhundert s
Ġnetwor ks
a ign
Ġ &
Ġt ens
Ġi p
st ag
Ġk ir
Ġre chten
gen cy
Ġau ge
Ġpro jekte
Ġsp aces
Ġvor bei
Ġcomp on
Ġide al
br it
Ġerf unden
Ġpat ent
Ġchar akter
Ġemp ath
Ġsurv ive
Ġklima wand
l ight
Ġw id
Ġwe ge
Ġj ul
Ġver an
Ġge gangen
ber g
Ġsp itze
Ġwer te
ahr ungs
Ġsein es
Ġsur round
Ġstre ets
Ġmaterial ien
gesch ichte
Ġbiolog ical
Ġoper ation
Ġshare d
Ġchallen ges
Ġconf erence
Ġtit el
Ġdirect ly
Ġcamp aign
Ġwik ip
er as
Ġp y
ar ian
Ġyou tube
Ġer fÃ¼
ge ht
Ġr en
Ġch ir
Ġdes ert
sp ra
Ġger ing
Ġhal b
Ġeigen schaften
Ġfeed back
ĠverfÃ¼ gung
Ġkont in
Ġverantwort ung
Ġpun kte
Ġd ur
st adt
Ġbe teil
un sch
et h
ann ien
Ġte x
Ġwo hin
Ġco ast
Ġkon stru
Ã¶r ung
Ġend lich
Ġ6 00
ĠschÃ¶n heit
min ister
Ġspeak ing
Ġdise ases
ĠfrÃ¼ hen
Ġcop y
Ġslight ly
g ten
s ie
ie te
or fen
us agen
Ã¶ se
enn ung
Ġwor st
Ġwho se
Ġfre ude
Ġdesign ers
Ġfun ny
Ġeigen es
Ġsicher lich
Ġwichtig sten
Ġbus h
Ġprof ound
Ġmas ter
Ġterr ible
lo ad
Ġverh Ã¤lt
Ġinfrastru cture
Ġaustr al
i ppe
w s
w enn
Ġa hnung
at te
Ġzu h
ĠkÃ¶n nt
Ġpre vent
Ġschl uss
ĠnÃ¤ch stes
Ġcap acity
Ġsoz usagen
Ġcontro ll
Ġherz ustellen
Ġbel ow
Ġbehand eln
Ġoxy gen
Ġirgendw ann
ĠÃ¤u ÃŁ
Ġd ouble
Ġg all
an cy
ar ter
ra id
Ġse ien
Ġun bed
Ġsch r
est s
Ġmo on
Ġgesch ah
Ġad apt
Ġ200 8
Ġaller dings
Ġpriv at
Ġtw ice
Ġtele vision
Ġrepr Ã¤sent
rÃ¤ ge
Ġtriff t
r t
Ġsch utz
Ġor g
Ġsom mer
Ġgr Ã¼n
Ġaf raid
Ġprodu kte
ĠgrÃ¶ÃŁ ere
Ġmat ch
Ġextre me
Ġmarket ing
Ġfle x
Ġkap ital
war um
Ġentste hen
i be
Ġg ent
am mt
Ġab hÃ¤ng
Ġhe av
Ġbu b
Ġspe kt
Ġad op
Ġzus ch
Ġgeh ir
Ġtre mend
Ġsupp ly
ĠhÃ¤uf ig
ĠbedÃ¼r f
Ġvalle y
l ose
Ġb Ã¤ume
an ced
Ġk ulture
al itÃ¤t
Ġz elle
om os
Ġact ive
Ġmich ael
Ġem iss
Ġprodu ced
Ġschl af
Ġrec y
Ġteam s
Ġamaz on
Ġsau erstoff
Ġju gend
Ġ201 0
Ġkontroll ieren
Ġhyp oth
Ġdinos aur
Ġrestaur ant
Ġeinzig art
" -
d ed
p a
Ġa ster
Ġw Ã¤r
Ġto chter
Ġbe it
ra y
Ġj Ã¼n
Ġst abil
de ut
Ġun c
sch utz
Ġr hyth
wh y
Ġimag ination
Ġerst es
Ġjo y
tre ten
Ġinstit ute
Ġdest ro
Ġsn ow
Ġsustain able
Ġlapt op
Ġpurp ose
Ġwikip edia
b ur
b ank
f ar
r ight
Ġw ire
Ġn Ã¶t
Ġbe at
Ġdi pl
th in
men te
os c
Ġcon serv
Ġgesch le
sel ben
Ġres ist
Ġgescha fft
Ġcaus es
Ġlern te
Ġatmosph ere
ĠkÃ¤m pfen
mode ll
g le
p ft
Ġd opp
Ġb ought
Ġto lle
pp ing
Ġent lang
Ġco oper
Ã¼s se
Ã¤hr t
Ġeinfach er
Ġhigh ly
Ġwes ten
Ġhaupt s
mar kt
Ġcust om
brit annien
k y
l ook
t aus
in ct
Ġs etz
Ġm ur
Ġc ro
Ġk ennt
Ġbe antwor
Ġy ellow
ut t
Ġer zeugt
Ġge legenheit
Ġqu e
Ġfre unden
Ġhal t
Ġpubl ished
Ġexpl ore
dr Ã¼cken
ĠnÃ¤ he
Ġkar riere
so ft
Ġclos er
Ġrep ubl
Ġbeeinfl usst
Ġniger ia
Ġaster o
en ch
Ġw al
Ġin sel
ic les
Ġre icht
Ġre form
Ġver f
Ġge ograph
hl ten
Ġcon sequen
Ġsh ock
iz es
Ġbeg onnen
pro f
Ġorgan izations
Ġans wers
Ġhar m
Ġexist iert
ĠfÃ¤ llen
ĠÃ¤r zte
Ġbrill iant
Ġirgende in
Ġspre che
Ġs ick
Ġg ig
Ġf ok
Ġl ack
Ġbe le
ct ing
Ġle gen
os h
Ġwork ers
ĠfÃ¼ hlt
ĠgrÃ¶ÃŁ eren
Ġlight s
Ġprogram s
Ġwa ffen
ĠschÃ¶n e
Ġhor iz
Ġcy ber
Ġerlau ben
Ġinfrastru ktur
Ġmedikam ente
e te
u z
Ġ2 3
Ġgesch windigkeit
Ġpo et
Ġart ists
Ġmed ium
Ġsm ell
Ġapp ar
Ġplay ed
Ġcor re
Ġcor ner
Ġgar den
Ġcho ices
cul es
hil fe
afrik a
Ġn ahrungs
om as
Ġne ug
Ġauf genommen
Ġent er
Ġgen utzt
Ġkl ingt
Ġanal og
Ġfocus ed
Ġorig in
Ġanc ient
Ġzusammenh ang
u ing
ch nen
Ġm and
ou th
ill ion
ist isch
Ġsom it
Ġbes uch
Ġdiff erences
Ġgew icht
Ġkl ass
Ġko hlen
Ġscient ist
Ġfern sehen
Ġwerk zeuge
Ġbrauch te
Ġfem ale
Ġstol z
v al
Ġg ather
Ġfl ight
Ġspe ech
Ġlie ÃŁ
Ġweiter hin
Ġphot o
bra uch
Ġdau ghter
Ġmer k
ĠermÃ¶ glichen
Ġdunk el
Ġconscious ness
Ġmagaz ine
Ġfen ster
c r
Ġa lex
Ġp ig
Ġj er
Ġj ack
Ġr ough
Ġne uer
ieren den
Ġra pid
ĠfÃ¼ hle
Ġapp lic
pro ble
Ġans atz
Ġhelp ing
Ġstop ped
Ġsw itch
Ġdig it
Ġpriv ile
Ġevol ved
Ġdeg rees
Ġentwicklungs l
ĠgefÃ¼ hle
Ġ Ã¤ndert
Ġs atz
Ġe ure
Ġne hme
Ġwar m
Ġch ic
pp er
Ġpl us
Ġbr idge
Ġph ase
Ġpa id
Ġschl Ã¼ssel
Ġletzten dlich
Ġeas ily
Ġpsych olog
Ġdev ices
ogn itive
Ġspend ing
ĠstÃ¤d ten
Ġsurpr ising
Ġexperien ces
Ġachie ve
ĠmÃ¼ ll
Ġsignific ant
a x
Ġe ating
Ġso gen
Ġst an
Ġre agieren
im eter
Ġr ational
ver stÃ¤nd
Ġgen om
Ġgl as
Ġunter schiede
ater ial
ĠgroÃŁ britannien
Ġwieder um
Ġla den
Ġbring ing
Ġrespons ibility
Ġg un
Ã¤ hn
Ġha bt
Ġst ation
Ġauf w
Ġaut h
Ġverw ir
Ġ[ "
Ġopp os
Ġperfe kt
Ġverhalten s
Ġple as
Ġhab it
Ġtemper atur
Ġkomp on
Ġcolleag ues
d i
Ġt ieren
es is
on ie
Ġf old
Ġn ations
Ġl angen
Ġer stellen
Ġr Ã¼cken
Ġent schied
Ġsel ber
Ġtra ur
Ġstud io
Ġgra b
Ġmark ets
mÃ¶ gen
ktiv itÃ¤t
Ġentf ern
Ġstell ten
Ġdor thin
Ġcommunic ate
Ġvorh ers
masch ine
d on
g in
Ġd ying
Ġi phone
or gung
Ġv en
Ġnot iced
Ġco ffee
Ġbit ten
rat ic
Ġris iko
Ġhear ing
Ġmole cules
Ġverbind ungen
Ġbehand elt
Ġredu ce
Ġhoff entlich
zw ischen
Ġbegri ff
g ust
h ouse
Ġ Ã¤nder
er ten
Ġf ell
Ġk enne
Ġer Ã¶ff
iz itÃ¤t
Ġra re
Ġra ce
Ġag ree
sp re
Ã¤n glich
ĠgroÃŁ teil
Ġstud ying
Ġhand y
Ġnor den
Ġcreat es
Ġpolit ischen
Ġseem ed
Ġty pen
Ġcomplex ity
Ġimpro ve
Ġcommunic ation
ĠmÃ¤nn ern
Ġangel es
Ġdivers ity
c an
g lie
Ġd h
Ġg ilt
Ġf urch
Ġv og
Ġbe ach
et y
ter m
ot he
Ġpro z
Ġvor bere
Ġknow ing
Ġste in
Ġac adem
ok ay
br uch
Ġpu zz
Ã¤h le
Ġfeel s
Ġbro ther
Ġeins atz
Ġries igen
Ġlead s
Ġkomplex itÃ¤t
Ġfore ign
Ġmetap hor
d ien
f eld
t ten
at om
Ġv an
te ch
al ing
Ã¼ ben
ent y
ce ll
Ġas pect
he ben
end es
Ġda vor
Ġher o
ang t
Ġprodu ziert
Ġapp l
Ġko stet
Ġinteress anter
Ġcor por
Ġacc ord
Ġinvest ieren
Ġgesell schaften
Ġve get
Ġzent rum
Ġfarm ers
Ġira q
Ġvielf alt
Ġvul ner
6 0
Ġm ort
le un
ab t
for men
Ġdenn och
Ġdifferent ly
Ġ200 7
Ġposs ibility
Ġbre ast
Ġfas h
zeich nen
Ġopportun ities
Ġwand el
Ġinspir ation
Ġrelationship s
ĠprÃ¤s ident
Ġintelligen z
Ġsek unde
ĠbeschÃ¤ft igt
wohn er
krie g
Ġeffic ient
Ġlandsc ape
Ġerfor schen
Ġgent le
e k
i h
w ater
Ġh ind
Ġh ielt
Ġo ly
Ġv ast
Ġein sch
Ġr it
Ġda gegen
Ġsa f
Ġkn ochen
Ġgew Ã¶hn
Ġpass ed
Ġpolit ische
Ġchr omos
Ġwin z
Ġhol z
Ġner ven
Ġentste ht
p ass
s etzt
Ġ 0
Ġm art
ie ty
Ġder zeit
Ġuns icht
Ġ2 2
Ġpr esen
Ġgem e
Ġwahr neh
Ġexp on
Ġvis it
Ġdefin it
Ġinsp ired
Ġtaus end
jÃ¤hr igen
Ġchic ago
Ġoly mp
Ġg ps
Ġg aben
Ġk auf
Ġto des
el f
de te
Ġdies elbe
Ġpro to
ul ations
Ġ2 7
Ġpr ize
Ġbr an
Ġad dition
Ġmom ents
Ġgef angen
Ġexpl os
Ġna v
Ġwind ow
Ġident ity
mm ern
Ġnear ly
Ġhung er
mut ter
Ġ196 0
dimens ional
Ġdesp ite
. '
Ġw unsch
Ġwir st
Ġsa ÃŁ
sp rechen
Ġlo ch
Ġpart ners
Ġgot ten
ond s
Ġgew onnen
Ġstr ength
geb aut
Ġmiss ing
Ġlink en
kre bs
Ġmeist ens
miss ion
d y
i as
z il
Ġa vo
Ġs hr
an er
Ġk Ã¶
Ġk unden
sch te
Ġall t
um e
ld er
ist ry
Ġsh oot
Ġsh aring
Ġgrund s
Ġbro ken
Ġdre hen
Ġkurz em
Ġleg al
Ġcond u
pekt ive
t est
at ic
Ġf ett
et was
us ed
el er
Ġse as
id ung
we chsel
Ġste igen
ain ing
Ġpar is
Ġko hle
Ġbesch reiben
gew icht
Ġinvest ment
Ġmilliar de
Ġ25 0
esten s
Ġhor r
Ġschwar ze
Ġplast ik
Ġame isen
Ġcommer cial
Ġtremend ous
Ġneug ier
g ro
m acht
Ġw ow
Ġs em
Ġth omas
nd e
Ġb read
Ġo pfer
Ġf o
Ġf ach
ed en
Ġal ph
ver b
Ġch urch
Ġum gehen
Ġste cken
Ġdurch gefÃ¼hrt
ak er
pr int
Ġpre p
Ġaut or
Ġmin ister
Ġeng age
Ġneur onen
Ġhinter grund
Ġkommun ikation
Ġgol den
ĠtÃ¶ ten
ival ent
Ġec osystem
Ġbee ind
Ġtiss ue
Ġfash ion
d et
f il
Ġf eld
Ġsp l
Ġco al
Ġzusammen arbeit
Ġentwick elten
Ġbot schaft
ĠÃ¤ lt
Ġjo in
Ġexperim ente
Ġerinn ert
zeich en
Ġdiscover y
ony m
Ġ199 0
Ġinde pend
Ġkil omet
Ġbege g
Ġdeut sch
Ġbeeinfl ussen
Ġunbed ingt
5 00
e y
Ġc ult
is ierte
Ġz ut
Ġwe iss
Ġre isen
Ġwas s
Ġsp Ã¼r
Ġaus bildung
Ġinter face
ru pt
Ġpo llen
ac ed
Ġkl ang
Ġbo ston
Ġbere chn
Ġcr ash
Ġgemein de
Ġgest alten
Ġnu ll
Ġfore ver
Ġatmosph Ã¤re
Ġkal iforn
Ġcompet ition
Ġluck y
Ġwundersch Ã¶n
f ter
v a
is ser
Ġk oll
Ġzu frieden
ach te
Ġau st
and id
au ght
Ġsp ot
Ġum zu
Ġnot ion
Ġtr end
Ġent werfen
Ġother wise
oll ar
Ġweiter es
Ġdre ht
Ġunterschied lichen
Ġverk auft
Ġkommun izieren
Ġmeer es
Ġmoder nen
Ġbuchst Ã¤
Ġmember s
Ġliebl ings
b ased
l aden
p ted
y pt
at ers
Ġp ip
Ġein druck
ent licht
Ġan ru
Ġmit ten
ul en
Ġnoch mal
Ġbra zil
Ġob jekte
Ġtalk s
Ġmas se
Ġna ja
richt ung
Ġverr Ã¼ck
Ġaufga ben
Ġbrit ish
ĠÃ¶k osystem
Ġultim ately
Ġvermut lich
b ie
b as
Ġge fÃ¼hrt
ick et
Ġdis or
Ġkl assen
Ġhum or
Ġgra f
Ġscha fft
Ġacc om
Ġvoll kommen
Ġdien st
Ġdescri be
Ġhus band
b ing
p art
r ing
z ial
Ġs ir
re ci
Ġp ac
or gt
Ġk it
Ġse ed
Ġfor g
id et
Ġco re
Ġev ents
stell er
Ġdis play
Ġele ments
Ġheraus gefunden
Ġrel ativ
ĠmÃ¶glich erweise
Ġfu lly
Ġrelig ious
Ġident if
Ġdep art
Ġerh Ã¤lt
Ġdro gen
Ġsold aten
Ġwerk zeug
ĠbenÃ¶t igen
Ġfair ly
Ġnecess ary
Ġverurs acht
Ġselts am
Ġastr onom
Ġg iant
us ive
Ġme ilen
Ġsch Ã¤d
Ġsch uld
Ġpro st
ĠÃ¼ber zeugen
Ġbet rifft
if ten
Ġcl a
gr iff
Ġlos s
ipp ed
des ign
Ġlau fe
Ġeth n
ĠbenÃ¶t igt
ĠverÃ¶ff entlicht
Ġdisk uss
ĠunterstÃ¼tz ung
t alk
u ert
Ġd ol
Ġo l
Ġj ames
Ġer r
sch ule
Ġsch u
Ġch ann
Ġfr ench
ĠÃ¼ber zeugt
iz en
Ġro ten
Ġhal te
Ġspiel er
Ġsit zt
Ġweit eren
Ġpartic les
lly wood
Ġident itÃ¤t
fÃ¤ lle
Ġverbre itet
jÃ¤hr ige
Ġira k
Ġbenef its
Ġzuh ause
l aufen
s ame
Ġd Ã¼n
Ġs zen
at ter
at ively
Ġwe ird
id a
ĠÃ¼ber le
Ġbr as
Ġunter nehmer
Ġbes itzen
Ġho hen
Ġpol io
gr en
Ġacc ur
zus ehen
ĠkÃ¼ mmern
bere ich
Ġtranspar en
Ġblo ÃŁ
c raft
d a
Ġt rop
st ab
un te
Ġver kehr
sen s
Ġfe hl
hal te
Ġho st
Ġexper t
Ġshould n
Ġtre ib
Ġwissenschaft liche
Ġscha ff
ĠkÃ¶r pers
Ġtyp ical
vo llen
Ġmode lle
Ġlau tet
fra ge
Ġkat astrop
Ġnecess arily
ĠzufÃ¤ llig
ĠbuchstÃ¤ blich
d ollar
g ern
Ġa x
Ġa ffe
Ġthe men
Ġg Ã¤
ul ous
kt oren
Ġwer fen
ild et
Ġbeg ren
ungs f
ungs kraft
Ġinv is
Ġapp reci
Ġturn ing
Ġrec over
Ġbro wn
los s
Ġbed ingungen
Ġeas ier
Ġengine ers
Ġuniversum s
Ġeinges ch
Ġfail ure
Ġquad rat
Ġaccord ing
b aut
i ffen
r om
s qu
er c
Ġd inner
ch ern
at ures
it zt
Ġbe wir
ed y
Ġso wie
Ġre ichen
Ġli br
we ite
Ġalle ine
Ġgew issen
Ġrel ated
Ġrem ote
Ġbild ungs
Ġchar ge
Ġerw artet
Ġverk auf
Ġemot ions
Ġentire ly
Ġdau er
Ġbez ahlen
ĠerklÃ¤r t
Ġmitt l
Ġtal ent
Ġqual itÃ¤t
forsch ung
Ġfab rik
Ġoppos ite
r ess
Ġw il
nd en
Ġm outh
Ġb ul
ic ate
Ġsch lieÃŁen
Ġman h
Ġaus gest
ze iten
Ġcon cent
Ġus w
Ġlie d
Ġgel angen
Ġgegen seit
Ġimportant ly
Ġerst er
Ġlebens mittel
Ġstru ctures
ific ation
Ġhau fen
Ġed ge
fol ge
lo sen
Ġ198 0
Ġdeut lich
Ġrespons ible
Ġanc est
Ġparad ig
Ġverfol gen
Ġleader ship
c les
m y
v on
Ġb ound
Ġf er
Ġf iel
Ġwe der
Ġzu k
Ġqu ote
Ġkon text
sp ap
Ġmat ters
Ġander em
Ġrelig i
hol t
Ġorganis ationen
Ġprotot y
Ġplat form
Ġgere cht
ĠÃ¼bertra gen
w ide
Ġt ank
Ġm und
Ġm amm
Ġk ick
Ġein st
Ġdi abet
Ġst o
Ġst erne
Ġre pe
Ġr ing
Ġges chen
Ġno ise
Ġgr ass
Ġjust ice
Ġbr ut
Ġkon ferenz
Ġem b
Ġele ph
ĠnatÃ¼r liche
Ġcreat ures
Ġ200 5
Ġmot h
Ġwahrscheinlich keit
Ġverd ienen
Ġfigure d
Ġcir cle
Ġphenomen on
Ġwett bewer
Ġhaupts Ã¤chlich
Ġkohlen stoff
m mer
in halb
Ġd ou
Ġm ouse
Ġh ur
Ġe he
im ent
der t
ell er
ist ische
Ġat tem
ib ilities
Ġinter agieren
Ã¤t sel
Ġob s
Ġtra ffic
Ġback ground
Ġlie ber
Ġem bra
igh ten
geb racht
Ġplanet s
Ġbill ions
Ġbro t
Ġunivers al
Ġfrag ten
wissen schaft
Ġmex ico
Ġzuk Ã¼nft
n un
p ern
Ġt ough
Ġd ate
Ġw ide
Ġb ird
ic ity
ot a
Ġsch iff
um ents
be we
th is
Ġda ÃŁ
Ġvor be
Ġbr ings
Ġra ised
Ġproble men
Ġpre vious
Ġdra g
Ġcap able
Ġcle ver
Ġwunder bare
Ġfrei will
Ġtransform ation
Ġrele vant
Ġbud d
z ut
Ġt u
Ġa ffen
Ġthe ore
Ġe cke
an zie
Ġbe ine
ig end
Ġha iti
Ġre ag
Ġre con
Ġer we
Ġr ou
Ġauf s
Ġas ia
Ġpr oud
Ġad am
Ġreg ular
Ġfre quen
Ġschl immer
Ġphys ic
Ġacc ident
fr ist
Ġcol ors
Ġfal sche
Ġhope fully
Ġlea ving
Ġadv ant
Ġamerikan ische
Ġherausforder ungen
po int
Ġop in
Ġvergleich en
Ġsuff ering
k an
Ġb ag
Ġu t
Ġe hem
st ar
Ġl asst
Ġv ag
ke hren
Ġmo ves
id den
Ġste m
Ġbr enn
Ġfa ces
Ġpo ten
Ġgegen teil
ĠÃ¼berras cht
Ġnorm ally
Ġcart oon
Ġwhe el
Ġkonfl ikt
ĠÃ¶kon om
f ir
v it
as che
ra le
ic an
Ġse ctor
Ġst or
Ġre por
Ġch icken
ist ischen
Ġtr ip
Ġsh ip
Ġfa ith
Ġbet t
Ġbu ll
fÃ¼ hrer
Ġcall s
Ġgew isser
Ġhin weg
ha fte
Ġless on
Ġopen ed
Ġerinn erung
ga be
Ġwes entlichen
Ġaugen blick
Ġopt ion
Ġklimawand el
Ġcorre ct
8 0
a ff
h Ã¶
i op
m ord
Ġbe es
Ġj ungs
Ġun i
Ġch ap
kt on
we gs
Ġfr anz
Ġtr ib
Ġget Ã¶
iz z
Ġro bert
if ik
Ġcont act
Ġgeh abt
Ġexper ten
tel n
old s
Ġbild schirm
je kten
Ġbesch leun
Ġfol ge
Ġstra nd
Ġmind estens
Ġhead s
Ġbab ys
ĠÃ¶ff entliche
Ġmajor ity
Ġlad y
Ġleist ung
Ġsepar ate
gru ppe
Ġkomb in
Ġkaliforn ien
g u
o ge
v as
Ġs ar
Ġf el
it el
ar r
Ġbe m
id ents
Ġfl or
Ġverb racht
Ġdr ittel
Ġoff er
tra g
Ġbess eren
Ġnam es
Ġeins etzen
Ġwes entlich
Ġarchite ct
Ġsequen ce
setz ung
Ġkompl iz
Ġfoss il
Ġadult s
Ġweap ons
Ġjan u
Ġmanh att
b est
c il
en ken
Ġt Ã¤t
Ġb ow
Ġh Ã¤ngt
re w
an ia
ro t
Ġun less
Ġne ut
Ġch ip
Ġges te
Ġges tern
og ram
ap se
Ġkind heit
Ġste ckt
Ġfra gt
Ã¶r per
me ister
Ġzwe if
Ġgew isse
Ġsur ge
pro b
Ġverw end
Ġbesch re
Ġ200 9
Ġirgend etwas
Ġvoll stÃ¤ndig
Ġspr ing
Ġdist ance
Ġfle isch
Ġspez ial
Ġconsum ption
Ġstruktur en
Ġinfluen ce
Ġcha os
Ġagric ulture
Ġdok ument
Ġvog el
r is
z Ã¤
Ġt s
Ġd un
Ġw Ã¤chst
Ġp ortra
Ġre produ
ul ated
Ġma c
Ġob ama
wer te
Ġbest immen
Ġpa ir
Ġchild hood
Ġungl Ã¼ck
Ġelekt ro
Ġbau ern
Ġlead ing
Ġverwand eln
ĠgefÃ¤hr lich
l u
in de
ch ung
Ġh ill
Ġn est
Ġv ere
gen er
sch re
Ġge e
Ġsp ider
ÃŁ t
ite te
if ically
Ġnew spap
Ġhel ps
Ġdesign s
Ġzie le
Ġinteress ieren
Ġmot ion
Ġbil dern
Ġpain t
Ġhol en
Ġschein en
Ġtit an
Ġcollect ive
ĠkÃ¼rz lich
f un
f ern
g esehen
l Ã¶s
n ot
Ġh Ã¤user
Ġg ay
Ġp urs
Ġbe ar
el a
ic ated
Ġan ts
Ġver te
Ġer weit
ag ne
Ġfr ied
Ġex hib
Ġges etze
Ġus er
Ġwhen ever
Ġcomp ared
Ġpr Ã¼
Ġob ser
Ġlo ck
fÃ¼ gen
Ġho he
Ġgew inn
Ġcont ra
Ġlet ter
Ġpar all
ĠzurÃ¼ck zu
Ġwel chen
Ġgenau er
Ġbelie ved
Ġverl ust
Ġfour th
Ġoper ating
Ġemp ower
Ġslow ly
Ġfight ing
Ġvac c
Ġdoc ument
Ġintelle ct
program m
ĠdÃ¼r fen
Ġpolize i
n etz
n issen
Ġt ue
Ġw it
Ġm Ã¼tter
Ġp as
Ġl auf
Ã¤ llt
Ġst ift
Ġun w
ation ale
ag ed
Ġwor Ã¼ber
Ġde inen
Ġro w
ru ction
Ġbeg ins
bl ing
Ġbo at
Ġaut onom
Ġmet ers
Ġged anke
Ġmult iple
Ġwall s
Ġschre ibt
Ġmorgen s
Ġdream s
Ġvorh anden
Ġprofession al
Ġprakt isch
Ġbegeist ert
er in
Ġt ap
Ġg am
Ġl ob
Ġwe in
Ġan gew
Ġst one
Ġsch impan
ck te
Ġex erc
Ġze ichen
Ġfa iled
Ġvers us
Ġpol ar
Ġgra de
Ġgef ahr
Ġmag n
Ġfil ter
Ġstu ck
Ġseit dem
Ġtrain ed
Ġill usion
Ġgrand m
Ġgalax y
Ġcoun ter
p un
p os
y es
Ġs etzt
Ġm u
Ġg ap
as i
le ge
al er
Ġso ph
Ã¶ ÃŁen
Ġver lie
ink el
Ġro of
Ġbr ight
Ġra hmen
Ġbet re
Ġfl Ã¼ss
Ġsc ulpt
richt ungen
Ġnormal en
Ġru h
Ã¼tz t
Ġvol unte
Ġgalax ien
Ġrequ ire
Ġcivil ization
ĠÃ¶ffentlich keit
Ġteles c
Ġdestro y
ĠgetÃ¶ tet
Ġmanhatt an
g ment
o z
Ġt esten
or row
Ġl achen
Ġc aught
Ġund erg
Ġso il
Ġer a
sch rift
Ġr ound
Ġdo zen
Ġhat e
Ġeinf Ã¼
Ġcont r
Ġglau bt
Ġbas iert
Ġfin ished
Ġerz Ã¤hle
Ġatt ach
Ġsuc ceed
Ġmicro soft
ĠfÃ¼hr ung
Ã¤cht nis
Ġaktiv itÃ¤t
Ġhold ing
Ġsurpr ise
Ġmanag ed
Ġconst antly
Ġheim at
Ġdeg ree
Ġgewe be
Ġwis dom
Ġglam our
Ġinvis ible
Ġa st
Ġb ie
as ion
Ġp ounds
Ġc ow
Ġz ell
Ġz immer
Ġwe ar
Ġst imm
Ġme at
Ġr um
Ġex ch
scha ut
Ġph ones
Ġcl osed
Ġpre m
Ġstar b
Ġger Ã¤te
Ġtrans ition
Ġorgan isms
Ġschn itt
Ġdre h
sw ert
Ġfem in
Ġinse kten
Ġschau te
Ġmention ed
v ere
z elle
Ġw ahre
Ġs ister
Ġe chten
Ġto x
ir t
Ġbe ll
el ine
Ġzu cker
Ġre ve
ay s
Ġr as
Ġr Ã¤tsel
ck et
Ġsp iegel
Ġfr esh
Ġde press
Ġte uer
Ġpe ak
Ġste uern
wer ten
Ġstud ied
Ġapp e
Ġfact ory
Ġhigh est
Ġkur ze
Ġcre ation
Ġacc eler
Ġdau ert
ipp ing
Ġeurope an
tend ed
Ġperfect ly
Ġverantwort lich
Ġcurr ently
Ġnorm ale
Ġkompl iziert
ĠtÃ¤ glich
Ġgeschle cht
Ġd ry
Ġm aus
Ġn annte
Ġp eng
Ġl unch
Ġz unehmen
ic ted
Ġse at
ier n
ge ber
ill ed
ri age
Ġins ight
Ġkar ten
Ġequ ip
Ġverh indern
Ġserious ly
Ġconcern ed
Ġfascin ating
Ġille gal
Ġdisapp ear
a ven
f angen
Ġd ue
ro ll
Ġwh om
Ġan atom
Ġdi alog
Ġver zwe
and em
au ern
th at
ff er
Ġvor teil
Ġinter aktion
Ġph osph
Ġ3 2
Ġlet ters
Ġsol id
Ġang esehen
schl Ã¤
stru ktur
li fe
Ġinteract ion
wÃ¤r t
Ġeinges etzt
Ġinstitution en
Ġbenef it
Ġgerman y
ĠschÃ¶ nen
Ġprinc iple
Ġtex as
b a
b lichkeit
c are
i i
Ġw ave
Ġb ieten
ic ke
Ġauf hÃ¶ren
Ġar ms
Ġde fen
Ġpl anning
Ġent ertain
Ġher gestellt
od es
Ġ2 6
if ying
Ġcl ick
Ġdam age
Ġfin anzie
Ġbel o
itz er
Ġlim ited
Ġcy cle
Ġsurpr ised
Ġincreasing ly
Ġnut r
kar te
Ġauth ent
Ġindepend ent
e per
l Ã¤ss
s inn
Ġa th
Ġd ere
Ġh omes
re if
Ġv ibr
Ġein iger
le m
ur f
Ġes c
Ġdies el
Ġum ge
Ġtr Ã¤gt
Ġget r
Ġcomp are
Ġkom m
Ġevery day
Ġph ant
Ġland schaft
Ġpar ent
Ġschw ester
Ġerf inden
Ġplan e
Ġ200 4
Ġfil me
Ġvir gin
Ã¤ng st
Ġinvest ig
Ġeg ypt
Ġmathemat ics
Ġdeep ly
Ġgalax ies
Ġeurop Ã¤
Ġerle b
Ġerle bt
Ġdeb ate
Ġdescrib ed
Ġstan ford
Ġfurch t
" ]
p et
Ġb ay
Ġh Ã¤nden
an ischen
Ġp fer
le tt
Ġwe ather
Ġwe aring
Ġge halten
Ġman age
Ġma ps
Ġmar ried
Ġimp f
Ġdr in
Ġ19 50
Ġteil chen
Ġcomm and
Ġstand ards
Ġabs icht
Ġeconom ics
Ġant ib
Ġversuch ten
Ġsou l
Ġequ ivalent
com put
Ġarg ue
Ġfollow ed
Ġlim it
Ġstrateg y
Ġtom orrow
Ġkore a
Ġpy ram
k or
Ġb ob
Ġb attle
Ġp fe
qu e
Ġno v
Ġbr on
Ġtechn ical
Ġho ffen
Ġschl a
ffe kt
Ġpolit iker
Ġ6 5
Ġbusiness es
Ġexist ieren
Ġtreat ed
Ġredu zieren
Ġord inary
fÃ¼hr ung
d re
o de
Ġst off
Ġre ward
Ġsch ien
Ġno bel
Ġres ource
Ġdr an
Ġentw orfen
Ġkr Ã¤fte
Ġindivid uen
Ġlangu ages
Ġyes ter
Ġforsch er
bes ch
Ġverbre iten
Ġ197 0
Ġdisk ut
amerik a
Ġanalys is
Ġbru der
Ġdepart ment
Ġmoth ers
m itt
m uster
w el
Ġ q
en k
en ess
Ġm am
Ġp in
Ġl ernt
Ġc ateg
Ġdi am
Ġre chn
Ġsch ock
isch t
ul iert
os is
Ġgro wn
ud es
ĠmÃ¶ gliche
Ġob serv
Ġart ific
Ġpers pektive
Ġdis s
Ġho llywood
Ġarbeit eten
Ġgel esen
Ġbit s
zent rum
Ġabs or
Ġcol on
Ġtem por
Ġoce ans
Ġbemer kt
Ġzug Ã¤nglich
Ġbatter y
Ġemploy e
Ġuntersche iden
Ġavo id
ĠgÃ¤ be
Ġdiabet es
Ġadvant age
Ġparall el
Ġequip ment
h el
p at
u a
w agen
es ch
Ġh idden
Ġg Ã¼
ic on
icht s
Ġun end
ver brauch
isch em
we iten
Ġdes ire
Ġsa ved
ien s
Ġmus st
Ġqu asi
ger Ã¤t
ĠmÃ¼s ste
Ġinv ited
Ġkr ise
Ġorgan ic
Ġequ al
bra cht
ci ples
Ġstatist ics
Ġerschein en
Ġveh icle
Ġug anda
Ġbeantwor ten
Ġwahrneh mung
1 1
d aten
at oren
Ġn utzt
Ġin put
Ġp ian
ot ic
ach er
au lt
Ġhe ir
Ġor ient
Ġwo her
Ġher an
olog ist
pl ane
ges ell
Ġmon itor
Ġ19 5
Ġbo ot
Ġgegen satz
ĠweiÃŁ en
ĠÃ¤ g
Ġrad ik
Ġunterschied lich
Ġval u
Ġprin ciples
Ġfield s
Ġbrauch e
Ġbekam en
Ġunbe k
fahr t
Ġerkennt nis
Ġgeheim nis
Ġteen ager
Ġintu ition
Ġeffiz ient
Ġyester day
f ig
Ġh i
Ġn ationen
Ġp ed
Ã¤ st
ur ies
Ġab gesch
Ġwar ming
ant a
ad s
Ġda ily
Ġtr ends
con ne
Ġbelie f
Ġverl angen
Ġstre am
Ġvo ices
Ġpay ing
Ġforsch ungs
Ġlau gh
Ġdiag nost
kre is
Ġbrauch ten
Ġsurv ival
Ġinn eren
Ġken ya
Ġspan nen
ĠnÃ¶t ig
Ġnav ig
Ġmittl eren
Ġattem pt
Ġtheore t
h es
Ġa qu
is ierten
Ġto ler
ra g
ic ing
Ġan h
ol it
Ġaus geb
Ġex ists
ĠÃ¼ber prÃ¼
Ġen able
pl ace
Ġhin ten
Ġem pt
Ġbef re
Ġschw immen
Ġmin im
Ġsit z
Ġgener ations
Ġcr ime
Ġhard ware
schl agen
unter nehmen
Ġerk annte
Ġgren ze
Ġhon or
Ġdraw ing
Ġeffe ktiv
Ġproper ty
Ġentsp richt
Ġverschw inden
Ġfaszin ierend
kn own
Ġgehir ne
Ġdeutsch land
i ors
k et
p asst
Ġg ates
Ġin it
Ġin cent
Ġbe halten
Ġit alien
Ġun gewÃ¶hn
am t
Ġge omet
Ġch art
Ġas p
Ġno vel
Ġsee le
Ġhas n
Ġart icle
fl Ã¤chen
Ġwen igen
Ġ200 6
Ġfu hr
Ġstu pid
Ġted talk
Ġje ff
Ġkrie gen
Ġwicht igen
Ġcirc um
Ġmotiv ation
Ġka ffee
ĠberÃ¼h m
c ast
k eln
n el
er es
Ġh urt
ll er
Ġc ognitive
Ġan nehmen
Ġzu ge
Ġer led
Ġsch ick
Ġr ie
Ġwar s
Ġas pekt
kt ions
Ġsh oes
Ġthink s
Ġste ps
Ġsu gar
hal ts
Ġlie ÃŁen
Ġstar ten
Ġscha den
gew alt
Ġanim ation
stÃ¤nd en
Ġarm y
Ġwenig sten
Ġfant as
Ġmeist e
Ġerwachsen en
Ġrece ived
ĠmolekÃ¼ le
Ġmolec ule
Ġlust ig
Ġgh ana
Ġchir urg
bewe gung
s et
Ġg ree
Ġf ische
Ġp ages
Ġbe ina
Ġst ad
Ġver hand
Ġaus einander
Ġma int
Ġsu bs
Ġwelt raum
Ġbra chten
Ġsc ene
Ġart s
Ġsol ch
ord in
ord nung
Ġplay er
Ġstre it
Ġresearch ers
Ġgesundheit sw
fra gen
Ġess ential
Ġtie fe
Ġelectr ical
Ġsenten ce
Ġverte id
Ġbeina he
k ont
m ern
n ow
Ġw ander
Ġs ucht
Ġb f
Ġp ink
Ġp ure
Ġto ward
Ġz og
Ġr ural
Ġfor d
Ġle bte
and ers
Ġli qu
Ġta il
Ġviel er
Ġpol y
Ġele mente
Ġschl au
Ġset ting
Ġhar der
Ġprocess es
Ġ12 0
Ġwatch ed
Ġbel ong
Ġengine er
Ġjapan ese
Ġfantast isch
Ġsold iers
Ġelektr izitÃ¤t
ĠÃ¼b erein
Ġpil ot
kop f
Ġdol ph
n s
v in
Ġw uchs
Ġb one
Ġe w
Ġe arn
Ġf Ã¤ngt
Ġwe llen
am b
ess er
Ġcan ada
Ġsc an
wer den
bl es
Ġcont ain
utz ung
Ġgener ationen
Ġsign als
Ġlu x
Ġair plane
Ġschle chten
Ġcur ious
Ġadv anced
Ġsau ber
ĠpersÃ¶n lich
Ġox ford
Ġmount ains
Ġentdeck ung
Ġaw ful
Ġdistrib ution
Ġbeweg ungen
Ġausw ahl
Ġkilomet ers
Ġschimpan sen
Ġgrandm other
a be
c ers
f isch
g as
n immt
u um
st u
is f
Ġwe ile
us ch
us hing
Ġre par
Ġauf gew
Ġwo bei
Ġfe ind
Ġworld wide
Ġag re
ac le
Ġad vert
Ġstar ke
Ġstr ang
Ġexper ts
bo x
Ġerw art
Ġwissenschaft lichen
Ġgar ten
ĠheiÃŁ en
Ġinvest ition
Ġass ist
Ġemot ionen
spiel en
ĠverÃ¶ff entlich
Ġdimens ions
bew esen
Ġnerv ous
Ġprotot yp
Ġfill ed
Ġgespr Ã¤ch
Ġassoc iated
ĠabhÃ¤ng ig
a ppe
g ers
o ons
Ġk art
Ġdie t
Ġab schluss
Ġsp aren
ĠfÃ¼r s
ĠÃ¼ber zeug
Ġen em
Ġro te
Ġbr Ã¼
Ġper man
Ġzeit alter
Ġdr Ã¼ben
Ġhin sicht
bar es
Ġpar as
Ġschl agen
Ġbewe isen
Ġfeel ings
ma il
Ġfol ks
Ġcor tex
Ġposs ibilities
Ġgest orben
Ġvo te
Ġlea ves
sk op
ĠbeschÃ¤ft igen
Ġinse cts
Ġanw enden
Ġlaunch ed
Ġbezahl t
Ġheav y
m ine
m od
u el
z ur
Ġt ons
Ġs ingen
Ġin fin
Ġv i
te le
Ġan onym
Ġj Ã¤hr
Ġun ion
Ġman gel
ul a
Ġvie t
her r
Ġus ers
Ġgr ie
Ġnach ts
Ġqu iet
Ġsu it
Ġcl ip
inn ing
Ġhel den
Ġele f
Ġpar te
Ġentwick elte
ĠnatÃ¼r lichen
Ġbesch rÃ¤n
Ġans icht
Ġkur zen
Ġvier tel
Ġlos ing
Ġdefin ieren
Ġcontin ent
Ġverbind et
res p
Ġdemoc ratic
Ġmitt ler
Ġjournal ist
Ġexperien ced
glie der
n ach
p an
p ower
s l
z ed
Ġt enden
Ġi i
es tern
Ġh ir
as ten
Ġf is
Ġer mut
Ġer setzen
sch au
Ġsch iz
Ġge Ã¤ndert
se e
se x
Ġauf bauen
Ġsp Ã¤t
Ġwor ried
Ġex pression
ze p
Ġzwe ck
fl ug
fl uss
Ġad min
pro jekt
Ġbeispiel sweise
Ġmil ch
Ġwind ows
zus etzen
Ġorganis men
Ġneg ot
Ġhig gs
Ġlif et
Ġbein hal
mÃ¤ÃŁ ig
Ġorg ans
Ġadop t
Ġsaf ety
Ġgeme inden
Ġpeng u
d own
e ben
j o
r ieren
Ġw ra
an en
Ġf ellow
Ġin halt
Ġp ow
Ġan gesch
Ġun gleich
au ber
Ġch ain
Ġor ch
ad el
Ġcon tem
olog ists
Ġsu bt
Ġkom ment
Ġbl ow
Ġcl oth
ak te
stell ungen
Ġir re
Ġcar ol
Ġbesch lossen
Ġsta ats
Ġjeden falls
Ġyork er
Ġwonder ing
Ġmicro sc
mÃ¶glich keiten
Ġcaus ed
Ġmoder ne
Ġengag ement
Ġest abl
Ġbreat h
Ġmolec ular
Ġauft au
Ġgrundlegen de
ĠnÃ¼tz lich
ĠverfÃ¼g bar
Ġmax im
b ru
f allen
Ġt all
Ġm t
an ze
te lt
Ġz Ã¼
Ã¤ nen
Ġre view
Ġun it
Ġsp oke
ĠÃ¼ber legen
Ġma k
Ġvor ne
Ġgr Ã¶s
ste igen
Ġgl o
Ġqu elle
Ġper ce
Ġverb l
Ġstud ieren
Ġgef ahren
Ġexpl an
Ġcou rage
Ġschle chter
Ġru b
Ġident ify
Ġlaw y
Ġnorth ern
Ġinternational en
Ġvertra ut
Ġlas er
Ġaufre gend
Ġerschein t
Ġentsch uld
ĠerwÃ¤h nt
Ġhoriz ont
Ġmart in
. Â«
d urch
i ffe
j ust
Ġd ot
Ġb und
Ġf iber
it als
Ġp enn
Ġein heit
ro s
Ġan genommen
Ġan throp
Ġr io
Ġge g
Ġim ple
Ġsp in
Ġaus maÃŁ
ib ung
Ġtr Ã¤ume
Ġste igt
ard o
Ġkon sequen
Ġfa kten
Ġgesch m
Ġfl at
Ġfl ag
Ġdesign ing
Ġsm ile
Ġinform ations
Ġko oper
Ġsupp ose
ograph y
ged acht
Ġhor m
Ġdeal ing
Ġfreund in
Ġdigital en
Ġconv ention
Ġzerst Ã¶rt
Ġdynam ic
Ġarr ived
stre am
krank ungen
gru ppen
ĠsÃ¤ ug
Ġnachbar n
Ġcrow d
Ġentstand en
Ġsurve y
Ġautom ob
Ġemiss ions
Ġrough ly
Ġwit ness
Ġvalu able
f ach
u c
u ous
w ich
w ing
en der
Ġw agen
Ġc osm
Ã¼ st
Ġver grÃ¶ÃŁ
Ġun l
Ġle bten
op hren
Ġvor fahren
Ġgr id
Ġmus cle
Ġkon kur
issen schaft
Ġev il
lie ben
Ġcall ing
Ġstr ing
Ġhal be
Ġtrans plant
Ġbewe is
ogra p
land s
Ġ9 5
Ġopen ing
Ġelect ro
Ġche f
Ġlin ien
Ġmov ies
Ġill ness
Ġill ustr
Ġmedizin ische
ĠstÃ¤r ker
Ġverbra chte
Ġcover ed
Ġmetho den
Ġjahrze hnt
Ġoxy to
Ġconstru ction
Ġconvin ced
Ġcomfort able
Ġshap es
Ġstrug gle
Ġlibr ary
Ġartific ial
j em
ie ben
Ġp asst
Ġwe tter
Ġst ood
im inal
Ġle bewesen
Ġauf gebaut
ag ing
Ġsp ont
Ġent gegen
Ġgesch ickt
Ġpo ster
Ġselbst verstÃ¤nd
br idge
Ġwel chem
Ġgef allen
Ġplay ers
Ġexpl od
kr Ã¤fte
Ġtest ing
Ġbesond ere
Ġkill ing
Ġnetz werke
Ġerstaun liche
Ġgeist es
Ġaufzu bauen
Ġske pt
Ġker l
ĠfÃ¶r dern
Ġaustral ia
Ġbras ilien
f ish
g eln
n Ã¼
r aten
u k
Ġt onnen
in ted
Ġa gend
Ġd ick
Ġb are
Ġf an
Ġz Ã¤hlen
Ġbe et
ier er
Ġr ates
Ġsh all
ien cy
Ġpr ime
Ġfe hlen
Ġwur z
Ġmar riage
Ġem bar
Ġir r
Ġbek Ã¤m
Ġfact s
Ġfin ish
Ġimport ance
Ġbewe ise
Ġspiel te
Ġthought s
Ġtre ten
Ġspec ifically
Ġjo e
Ġvir en
Ġwa ke
Ġneur on
Ġschwier igkeiten
Ġclass room
Ġvol k
heim er
Ġinspir iert
Ġzerst Ã¶ren
Ġzeich nen
Ġbuchst aben
ĠunabhÃ¤ng ig
Ġentwicklungsl Ã¤ndern
Ġbeeind ruck
Ġphosph or
Ġschiz ophren
Ġoxyto cin
b urg
Ġp andem
Ġto y
Ġein deut
Ġwe i
Ã¤ ne
Ġver mitteln
be ll
Ġdo ktor
Ġli es
we ile
Ġor ange
Ġex ec
ien e
Ġdar stellen
Ã¤nd erung
Ġhad n
ĠgroÃŁ mutter
Ġad mit
Ġgeh ol
Ġbek om
Ġzusammen zu
Ġfact or
Ġrel atively
Ġcor ruption
Ġerinn erungen
Ġpres er
Ġinnov ative
anc en
li othe
Ġintern ationale
Ġspez if
Ġschwar zen
ĠÃ¼br ig
Ġconsider ed
Ġann oun
ĠmaÃŁ stab
Ġreact ion
Ġbase ball
Ġnotwend ig
ĠverhÃ¤lt nis
ĠjÃ¼n g
Ġgrunds Ã¤tzlich
Ġkit chen
g lied
Ġt we
Ġd op
Ġg ain
Ġo ct
Ġf if
Ġf eder
Ġp hr
Ġv ess
Ġk enn
Ã¤ ger
Ġan teil
Ġj im
Ġr out
Ġr ene
se c
Ġmo squ
aus piel
Ġex pected
Ġte eth
Ġtr icks
Ġcon ver
Ġsh op
Ġbes uchen
Ġbet roffen
Ġgeh Ã¶ren
pen den
Ġexp ed
Ġ7 00
Ġant ar
Ġsat urn
forder t
Ġpick ed
Ġblock s
ĠerklÃ¤r ung
Ġdef ine
Ġwol ken
Ġbeobach tet
Ġgraf ik
Ġverzwe if
b ut
h ar
h ab
h Ã¤lt
j ahr
w ow
Ġw isst
Ġm all
Ġf Ã¤hig
Ġund erne
Ã¼ hen
Ġso w
gen e
ind ungen
Ġpro ve
Ġman if
Ġim per
Ġmit arbeiter
os ing
Ġpl att
Ġgen der
Ġste el
ose x
Ġmehr heit
Ġpo ol
Ġgeb eten
Ġreg ard
Ġzus Ã¤tz
Ġprodu ktion
Ġsol ange
Ġput s
Ġmet al
Ġkam p
Ġzie ht
Ġbro thers
Ġprote ins
Ġkeep ing
Ġeffect ively
Ġmole k
Ġtradition ellen
Ġverr ing
Ġconnect ions
ĠfÃ¤ lle
Ġlik ed
Ġrepres ents
Ġregen er
Ġlay er
Ġdimens ion
Ġschreck lich
Ġallgemein en
Ġgradu ate
Ġcompon ents
Ġdinosaur ier
Ġconsequen ces
Ġopin ion
Ġunderne ath
a e
d est
f ert
f Ã¶r
Ġs ources
Ġb ip
Ġg and
Ġp eter
Ġto ten
Ġz one
Ġz Ã¤h
Ġver teilt
Ġsch Ã¤tzen
Ġle hren
qu alitÃ¤t
Ġsh o
Ġgr Ã¶ÃŁen
Ġkon front
Ġbes che
me hr
Ġag ing
Ġpre gn
Ġorgan ized
ograph ie
Ġhil fs
ĠvÃ¶ gel
Ġbrit ain
Ġentdeck te
Ġimpl ic
Ġtrial s
Ġniedr ig
Ġexisten ce
Ġhydro gen
Ġunge he
Ġsetz te
p ing
Ġt ony
Ġw itz
Ġh en
Ġh ide
it ern
or ient
Ġl ou
Ġz ahn
Ġwe is
ent iell
Ġst ro
Ġst yle
Ġst ammt
Ġr ief
ver halten
id imens
Ġor bit
Ġum geben
Ġcon gress
Ġ2 8
Ġwill i
Ġra b
Ġwhere as
Ġsc en
Ġpo em
Ġsm s
ri x
Ġirgend jem
Ġfol gt
Ġbro ke
Ġsta ff
Ġchem ik
Ġarchite kten
Ġwohl stand
Ġhol es
Ġhor se
Ġlabor atory
Ġecht zeit
Ġcarry ing
Ġzit at
Ġpleas ure
Ġcult ures
Ġsoph istic
Ġschla fen
Ġliqu id
a urs
b ors
e ine
r us
w en
ch ron
Ġm ama
on ic
Ġh ob
re chte
as chen
Ġo st
Ġp ill
Ġv ort
Ġv Ã¶l
Ġpro port
Ġhe isst
ann er
ell y
os es
Ġwer bung
Ġde eper
Ġsh el
Ġthem e
Ġcomp ar
Ġwill st
Ġfe wer
Ġmar ch
Ġac qu
Ġger Ã¤usch
Ġsm ith
net en
Ġbere ichen
Ġpolit icians
Ġfil ms
Ġfol gende
Ġris iken
Ġprote ction
Ã¤us e
Ġtyp ically
Ġloc ation
Ġerl aub
Ġappro pr
rÃ¤ gt
Ġenc oun
Ġcapt ure
Ġclin ical
Ġexerc ise
Ġemploye es
] .
h Ã¶rt
s ource
v ille
Ġt ape
Ġn Ã¤hr
Ġj es
Ġal ters
Ġsch atten
est ic
ist ers
ab ol
Ġum s
Ġen den
Ġhier arch
iz er
Ġmus ical
Ġper ception
Ġfl ies
ip e
Ġsol cher
ren nen
Ġend s
Ġverste ht
Ġ200 1
Ġstu fe
Ġdra uf
Ġcolle ction
Ġchem istry
Ġwirtschaft lichen
Ġsitu ationen
Ġevolution ary
Ġvar iety
Ġadv ent
system e
Ġkomplex e
iqu es
Ġbereich e
Ġrequ ires
Ġdunk le
Ġmex iko
Ġtranspar ent
Ġhous es
Ġdipl omat
Ġmort ality
a der
c ons
it ution
ar io
Ġc ast
is ationen
em ble
Ġan erk
Ġver ab
ol es
Ġen s
Ġact ions
Ã¤t ter
Ġfe bru
Ġfa cing
Ġleben ser
ph ones
ak ed
Ġvers ich
ĠmÃ¼s sten
Ġgra mm
Ġprodu cing
Ġverste he
Ġsk ill
Ġvide osp
Ġris ks
Ġrob ust
Ġrad ical
Ġfest stellen
Ġverd opp
Ġfing ers
Ġadd ed
Ġprim ary
ĠpersÃ¶n lichen
Ġlad ies
Ġbirth day
Ġverme iden
grÃ¼nd et
sta at
Ġbaut en
Ġbub ble
Ġforg ot
ĠÃ¤g yp
Ġempt y
Ġadmin ist
c el
l v
z ten
Ġb ug
st imm
Ġp m
Ġp ingu
Ġein k
Ġbe denken
Ġso viel
Ġan re
hr ung
Ġst ere
ach stum
sch er
Ġal z
ib an
end ing
art ige
Ġsh ad
Ġen zy
Ġste he
Ġro h
Ġdurch s
Ġbeg le
Ġmar y
Ġsystem at
ale d
Ġgeh Ã¶r
Ġfre ien
Ġapp lied
Ġlang er
Ġko chen
kl en
ĠweiÃŁ e
Ġbesch loss
amm elt
Ġ8 00
Ġur s
the it
Ġcam eras
Ġcam bridge
nah m
lieÃŁ t
Ġsat isf
Ġkor ruption
Ġkultur en
Ġcut ting
Ġled ig
Ġwider stand
Ġaustr alien
Ġerwachsen e
Ġswe et
Ġintelle kt
Ġbie tet
Ġexch ange
Ġgesundheitsw esen
a ppen
f ri
k arten
z ing
at ar
Ġh ing
Ġh indern
Ġwe ak
om a
ur m
Ġst ir
Ġre ef
Ġgo als
Ġwor auf
ist ent
Ġaus gel
ĠÃ¼ber t
Ġtr illion
Ġbl ieb
Ġcl ock
Ġwirk liche
ug ht
Ġgel Ã¶st
acht ung
Ġfar mer
Ġsit es
Ġgener ally
Ġ200 3
Ġ8 5
Ġtop ic
Ġsitu ations
Ġcra ck
ote chn
ĠfÃ¼hr ungs
ĠpersÃ¶n liche
Ġprot est
ĠÃ¼berras chend
Ġemer ging
ĠbevÃ¶l ker
Ġernst haft
Ġmedik ament
Ġumf eld
Ġdinos aurs
Ġsatell ite
Ġintrodu ce
Ġvulner able
Ġchann el
Ġfranz Ã¶s
Ġintellect ual
comput er
Ġcircum st
Ġagend a
Ġledig lich
- ,
f oot
h ne
s m
Ġd um
Ġd ots
Ġd umm
ie lle
Ġf ein
ich e
ar re
Ġl ic
Ġc ous
Ġc ents
Ġc ub
un ken
Ġj h
Ġre chen
Ġun ex
ber n
Ġauf nehmen
est yle
Ġvor an
Ġvor zustellen
Ġdar unter
Ġkann te
Ġbes essen
iel en
Ġworld s
Ġsc ript
ac ters
Ġdr iver
ha i
Ġins ul
Ġrel ative
Ġcent ers
Ġchar acters
Ġbro ok
vers orgung
ĠhÃ¶ re
Ġmathemat ical
spr uch
ĠgroÃŁart igen
Ġries en
Ġkor allen
Ġfern seh
Ġvirus es
Ġrepl ace
Ġsong s
ĠstÃ¤r ke
pre is
ĠberÃ¼ hrt
Ġgesp ielt
Ġmanufact uring
Ġzo om
Ġdefinit ely
pun kte
Ġlifet ime
Ġalz heimer
d ies
o st
Ġa er
Ġk osm
Ġre fer
Ġer stellt
Ġge gend
um in
ber s
Ġnot es
Ġde fe
ien ces
Ġgen Ã¼
olog ische
Ġkon gress
Ġdis aster
ale m
Ġmin er
pro zess
kl Ã¤r
Ġbelie b
Ġinterest s
Ġneur osc
Ġrad iation
Ġass ign
Ġint uit
Ġleg it
Ġnu kle
Ġmult i
Ġsam ple
Ġconsum er
Ġhom o
schr itte
Ġsell ing
ĠunterstÃ¼tz t
Ġdiscuss ion
Ġconvin ce
Ġexisten z
Ġgrav ity
Ġoffic ial
Ġvorhers agen
Ġcla im
Ġdiskuss ion
Ġaffe cted
Ġviet nam
d is
k Ã¶
k ind
o sen
Ġa chten
Ġa tem
Ġd ed
Ġd iction
Ġb iz
Ġin g
Ġin her
Ġk b
Ġk y
Ġan ger
Ġse id
ol oge
ver mÃ¶gen
ly ing
Ġat oms
pp y
Ġte uf
ik a
Ġwo fÃ¼r
Ġinter essen
Ġbu ying
Ġres c
Ġarbeit er
Ġger Ã¤us
ath ers
Ġtrans fer
Ġgegen wart
ins on
Ġcor al
Ġkre ieren
Ġset t
Ġenviron ments
Ġchem ie
Ġmem ories
bes ond
Ġbehav iors
Ġwest lichen
Ġsouth ern
Ġsyn chron
gra d
ĠpersÃ¶n lichkeit
Ġsend ing
schr Ã¤n
Ġspezie ll
Ġchemical s
Ġquant um
Ġsatell iten
Ġdere k
Ġdiesel ben
Ġverbl Ã¼
7 0
b ieten
d am
k ung
u ation
w est
Ġs ides
Ġth ro
Ġh un
an throp
Ġf ed
Ġl ager
Ġc as
Ġc redit
us es
ic ious
Ġge grÃ¼ndet
se y
be vÃ¶l
Ġhe ight
men ted
Ġges ichter
ĠÃ¼ber nehmen
Ġher ren
Ġact ing
Ġaf tern
Ġsc rat
ob i
Ġmar ke
Ġsim ulation
Ġlang weil
Ġel imin
Ġgef Ã¤llt
Ġgener ate
Ġgemein same
Ġru fen
Ġverk nÃ¼
Ġwirtschaft s
Ġbau ch
Ġmeet ings
war eness
Ġenor me
Ġocc up
Ġrele ase
Ġrele ased
Ġrom ant
Ġjung er
ĠmolekÃ¼ l
Ġvict ims
Ġkonfl ik
Ġdeter min
Ġspect rum
ĠmÃ¤cht ig
Ġentreprene ur
Ġrapid ly
Ġgegenseit ig
Ġdou bt
Ġflor ida
f aces
m or
v is
w esen
Ġw ahn
Ġl am
Ġk u
ur a
ot ing
Ġr ig
Ġfor ced
Ġli ft
ien z
ang ing
Ġhier her
Ġro llen
Ġra y
Ġwissen s
Ġtechn iques
Ġhand el
Ġperson ally
Ġbest Ã¤t
Ġins besond
Ġmet all
Ġlang frist
Ġgrund le
zie hung
Ġnatur ally
Ġcor n
Ġbesser es
Ġwa ves
Ã¤lt igen
Ġeas tern
Ġtas te
Ġweb seite
ĠÃ¤hn liche
Ġunters ucht
Ġverbess ert
Ġsil icon
Ġsicherheit s
Ġparad ox
Ġburn ing
Ġine vit
Ġgebra ucht
Ġshar ks
Ġveran st
Ġpac ific
Ġvag ina
Ġbeinhal tet
Ġwei hn
Ġmanif est
bevÃ¶l kerung
k ultur
w enden
in er
Ġs ilen
it arian
Ġein iges
Ġha cker
Ġso was
Ġst ahl
Ġun like
ke hrt
Ġsch icks
Ġr ide
Ġfor mer
se ins
Ġle ktion
Ġas pe
Ġsh ut
ute te
Ġam y
Ġunter haltung
Ġfe ature
Ġmir ror
Ġob st
Ġpo le
Ġrem ain
Ġstand en
Ġber ichten
bo den
Ġstu hl
Ġkre uz
Ã¤us ern
Ġkeep s
cl ing
Ġeing el
Ġmess ages
ĠsÃ¼ ÃŁ
Ġwert voll
Ġdet a
Ġorig ami
Ġak adem
Ġgalax ie
Ġult ra
Ġfahr rad
sto ffen
Ġdurchschnitt liche
icher heit
Ġzivil isation
bil den
Ġdahin ter
Ġepidem ic
ĠberÃ¼h mt
Ġempath y
Ġexplos ion
Ġprep ared
Ġnewspap er
b om
d p
m ill
Ġm ile
Ġh ut
Ġh its
re te
Ġe u
it a
Ġp ause
or ted
Ġbe er
Ġzu hÃ¶ren
Ġse es
Ġal b
Ġau gust
op y
op ter
Ġpro s
uch e
Ġent fer
Ġmensch licher
olog ischen
Ġbr Ã¼cke
ru h
Ġkon serv
Ġbl umen
Ġag gress
Ġind ic
Ġspe ich
Ġdam en
Ġgood s
Ġinv ention
Ġweiter er
Ġcour t
Ġmoment an
kr ise
Ġkrie gs
ĠkÃ¼ mmer
Ġsens es
Ġdest ruction
Ġmov ements
Ġstrateg ie
abil ities
Ġpf lege
pers on
ko sten
Ġlief ern
Ġlok alen
wÃ¼r d
ĠgrÃ¼ nen
Ġiniti ative
Ġencou rage
Ġakzept ieren
ĠÃ¤uÃŁ erst
Ġdigit ale
ĠselbstverstÃ¤nd lich
Ġrene w
Ġentfer nen
a ffen
g ibt
k ungen
k ins
m es
Ġt ab
Ġb os
Ġp ion
Ġp ul
Ġl ass
ur ance
ro ph
ic ip
Ġun us
op f
ag ers
Ġar ist
art ig
Ġ19 1
gl ing
Ġerf indung
ĠverÃ¤nd erte
pf ung
imm ing
Ġcare fully
Ġhealth care
ĠsÃ¼ den
Ġstatt f
Ġdep ends
Ġengag ed
Ġproper ties
Ġeffic iency
bu ild
Ġanwend ung
Ġgerecht igkeit
lÃ¶s ung
Ġjes us
Ġscrat ch
Ġinsbesond ere
k ap
p ra
r ative
Ġa the
Ġh u
Ġh oney
Ġo ught
ar i
Ġl ength
Ġbe ibr
Ġre ven
Ġver schl
Ġer forsch
Ġim press
ill ing
Ġsp er
ers on
Ã¶n t
Ġwill en
Ġfa ke
if er
stell te
Ġgew in
Ġreal en
Ġtechnolog ical
Ġbo om
Ġmom ente
Ġrun s
Ġless ons
gehen d
Ġsign ale
Ġlink ed
Ġschwier iger
Ġref erence
Ġintern al
Ġliter ature
Ġanst ren
Ġpract ical
Ġrock et
Ġpf und
Ġneigh bors
Ġtal iban
Ġgele bt
Ġenth Ã¤lt
Ġerg ibt
Ġintrodu ced
techn ologie
Ġencou ra
Ġip od
Ġspekt rum
Ġaust aus
Ġaftern oon
z ung
z ipl
Ġt anzen
Ġw ine
st ers
Ġl Ã¤nd
Ã¼ se
Ġha ar
ro oms
Ġan schein
Ġver gewalt
Ġle be
Ġman ager
Ġgo re
Ġwor an
Ġno ten
Ġpl ot
Ġnach den
Ġcomp l
Ġbes itzt
Ġbl att
hal f
ak ers
Ġmar ine
Ġdr iven
Ġgew iss
bar er
Ġteil weise
ha ften
Ġla ke
Ġser ve
los igkeit
Ġpra y
Ġinnov ations
Ġpsych iat
Ġrelig ions
Ġeg o
Ġgott es
Ġerh ielt
Ġauss age
Ġreach ed
Ġpull ed
Ġtransport ation
Ġprom ise
spro zess
Ġinn ere
ĠgrÃ¼ ne
Ġkomb ination
ĠlÃ¤ch eln
Ġtelesc ope
Ġmittler weile
ĠvÃ¶l ker
Ġing red
f assen
k at
m ot
y al
Ġb icy
Ġh ug
st ation
Ġn ir
all ed
Ġsch auspiel
Ġdo gs
au st
Ġvor zu
Ġvor teile
Ġgr at
Ġ2 9
Ġqu arter
Ġfe atures
Ġsc ar
Ġlo ad
Ġpre fer
Ġreg ions
Ġzw ang
Ġbesch rieben
Ġphys i
Ġfal schen
Ġwirtschaft liche
Ġoper ate
Ġsens or
Ġbott le
Ġinteressant es
Ġaktiv itÃ¤ten
Ġrecord s
Ġpresent ation
Ġsil k
Ġstatist iken
Ġsustain ability
Ġafrikan ischen
Ġauthor ity
ĠursprÃ¼n glich
Ġbib liothe
Ġerne uer
ĠbedÃ¼rf nisse
Ġeindeut ig
b age
f le
r ass
t a
Ġw Ã¼s
es ie
Ġg dp
Ġu pper
Ġf Ã¤hrt
Ġn ase
Ġp um
Ġc ards
ra in
Ġan stelle
Ġun mittel
Ġauf nahme
ul ating
Ġsa c
ive au
Ġmensch liches
Ġgesch lossen
Ġzwe imal
lie f
Ġwel ten
Ġrem o
ĠweiÃŁ t
io gen
Ġmil k
Ġgar age
Ġinnov ationen
osph Ã¤re
Ġkor re
Ġspr ingen
Ġtaus enden
Ġhosp itals
Ġcomb ination
ĠÃ¼berw inden
Ġcollabor ation
bil der
ĠerhÃ¶ hen
leist ungen
Ġwire less
Ġconserv ation
proble m
Ġaccur ate
Ġgeschen k
Ġrou te
Ġphant om
Ġsophistic ated
Ġunus ual
a ber
g reg
h st
o le
en ergie
Ġs ed
Ġm i
Ġf iction
Ġn in
Ġl on
Ġl oud
Ġk ateg
Ġbe iz
Ġso weit
em en
Ġwh ist
Ġme ister
Ġpro be
Ġman chen
ag on
ĠÃ¼ber qu
Ġvor der
Ġmen gen
Ġste uer
Ġco ca
Ġro s
Ġunter richten
Ġbl auen
ug el
ak s
Ġgew Ã¤hlt
Ġeven ing
tern al
other ap
Ġbek annten
Ġfact ors
Ġbi ke
Ġform ed
Ġfall ing
je cted
anz ig
Ġsen den
Ġfol ie
Ġkur s
Ġdire ctor
Ġanf ing
Ġbed arf
Ġsing ing
Ġversch m
Ġdau erte
Ġdro pped
Ġkosten los
put ation
Ġcirc uit
ĠsÃ¼d afrika
Ġverwand elt
Ġkonzentr iert
Ġkan ada
Ġken ia
Ġalgorith ms
Ġmist ake
Ġmist akes
rÃ¼ st
ios ity
Ġrid ic
Ġbehaup ten
Ġpuzz le
gesell schaft
Ġgehol fen
Ġhen ry
Ġirgendjem and
9 0
] ,
e le
g ie
h h
v ation
w Ã¤
in st
Ġv eter
ig ungen
ic ian
Ġan schaut
am ing
sch uld
ke ys
Ġle ichter
we iÃŁ
Ġaus gew
ik ations
Ġdem ograph
Ġent rop
Ġqu er
pl Ã¤tze
Ġbes agt
Ġwirk ung
Ġzeit ung
wer ken
Ġgrund lage
arbeit ung
sc ale
Ġtro cken
Ġmechan ical
Ġfoot ball
Ġton ight
Ġblog s
Ġjen er
Ġest im
Ġmetap her
Ġforest s
pfl anzen
Ġautomat isch
Ġveh icles
Ġdiagram m
spra che
Ġpoet ry
Ġtraur ig
Ġentertain ment
Ġantib iot
Ġchemik alien
f rei
f assung
n ungs
u ps
v able
Ġd ut
Ġs ight
Ġb oo
Ġf ingen
Ġn ick
Ġp ump
Ġc ure
Ġbe zeichnen
Ã¤ den
Ġdi ver
Ġj osh
ly n
Ġze hnt
Ġinter vention
Ġmein te
Ġunter en
Ã¶r ungen
me chan
Ġlie b
Ġverb rechen
ges etz
Ġgra y
Ġ5 5
Ġbill ig
Ġfunktion ierte
Ġphys ically
Ġsw im
Ġbetra cht
Ġline ar
Ġincre ased
Ġsun light
Ġfundament ally
Ġkolle kt
Ġerd be
Ġdramat ic
Ġanges tell
Ġpoll ution
Ġhop ing
ĠflÃ¼ cht
Ġgeburt stag
Ġereign is
bÃ¼ cher
Ġjahrzehn ten
Ġzusch auer
prof it
Ġancest ors
Ġpoten zial
prob ieren
Ġts un
Ġerweit ern
Ġpian o
Ġexped ition
Ġencoun ter
fri end
i ppen
u hr
Ġa wareness
Ġm im
Ġm isch
re chn
an es
an ische
Ġo oh
Ġv oc
Ġk abel
le vel
Ġwh ales
Ġse ht
Ġer ic
ol ar
ct ic
Ġle on
be hÃ¶r
op ath
Ġim it
Ġch impan
men ge
aus end
Ġaus ser
ik es
Ġpl ans
ate ful
Ġkn app
Ġdar gestellt
Ġhow ard
Ġviel es
ĠfÃ¼ hrer
Ġeinfach es
Ġdr Ã¼cken
Ġ3 6
Ġben e
Ġeinz eln
Ġans ieht
Ġber lin
Ġvis ible
Ġeig ent
Ġbiolog ische
Ġfig ures
Ġwes halb
Ġfort schritte
Ġhil f
Ġunglaub lichen
Ġverd ient
Ġamount s
Ġdisc ipl
Ġmechan ism
Ġrecord ed
Ġzent ral
Ġincl ude
Ġtru ck
Ġphotograph s
Ġhall o
Ġmeaning ful
schr iften
Ġdemonstr ation
Ġspirit ual
Ġactiv ities
Ġinterpret ation
Ġgek auft
Ġkir che
zep te
Ġchimpan ze
e e
l ines
r ier
y eah
Ġth ir
Ġh ub
Ġg Ã¼nst
Ġo hren
Ġc up
le ib
et ten
Ġan hand
Ġzu fall
Ġver he
Ġab ra
ol a
Ġsch Ã¼t
Ġsch Ã¤tz
be ing
Ġwie viel
ill a
Ġaus geben
Ġat men
Ġum her
Ġtr inken
Ġdurch fÃ¼hren
Ġcl ou
Ġdr ess
vel y
Ġgeb iete
Ġwahr nehmen
Ġcomput ing
Ġsond er
Ġprocess ing
Ġneur ow
Ġsw imming
Ġpsych ology
Ġfal se
ches ter
Ġexist ing
Ġult imate
lin ie
Ġgemeinsam en
Ġinstrum ents
Ġbor der
Ġcrit ic
Ġfro h
Ġtravel ing
Ġconst ant
Ġdete ct
Ġspezie llen
Ġrestaur ants
Ġparticip ate
Ġbemerken swert
Ġbon ob
Ġvorstell ungskraft
Ġverst Ã¤r
Ġoccur red
Ġconcl usion
Ġkontin ent
Ġschr itte
Ġsogen annte
Ġerleb nis
Ġelef anten
Ġembar rass
l ad
n ommen
o ted
u its
Ġh ipp
an nen
Ġc ath
ir at
Ġab fall
Ġr Ã¶
Ġr ennen
Ġle iten
Ġout come
Ġsc ared
Ġcl ub
Ġ3 3
Ġgew Ã¶
Ġsol ved
Ġglau bte
Ġpercent age
Ġinst in
Ġcreat ure
Ġbro w
dr Ã¼ck
Ġsign s
Ġequ ally
Ġtw enty
Ġbau te
Ġliter atur
osph ere
Ġschein bar
ĠfÃ¼hr ten
Ġexplain ed
Ġrequ ired
Ġgesicht s
Ġbez Ã¼
fre und
Ġruss ia
Ġfaszin iert
Ġnachhalt igkeit
Ġirgendw el
Ġaufgew achsen
f Ã¤higkeit
l ass
l ings
w ald
Ġt ick
Ġt ack
in ction
Ġa gency
Ġo kt
Ġp c
Ġl Ã¼gen
Ġv it
Ġst ern
Ġer ror
Ġr b
Ġr ush
Ġsp o
Ġsp ann
Ġch ol
Ġex tens
Ġma il
Ġsh ame
Ġpl ate
Ġwo von
Ġdar stellung
Ġsome what
Ã¤t zt
sp h
ac les
Ġres on
Ġpre par
Ġdr ives
gr iffen
Ġmon key
Ġele ction
Ġmin i
Ġinst ru
Ġexp ans
Ġgar ant
Ġprote cted
Ġint im
Ġmem or
Ġorganis ieren
Ġinvol v
Ġmedizin ischen
ograf ie
Ġmitt ag
Ġtie fer
Ġconvers ations
Ġlok ale
Ġbatter ie
ĠwÃ¼ ste
col n
Ġexplor ation
Ġelectron ic
Ġframe work
Ġjahrzehn te
Ġseas on
Ġhorr ible
ĠspÃ¼r en
Ġaccom pl
Ġcircumst ances
Ġinsul in
Ġsilen ce
a a
c ious
f i
v est
Ġt reiben
Ġa pr
Ġm elt
Ġb ol
Ġin ten
Ġp or
Ġl ungen
is ph
Ġein stellung
ig em
un ge
Ġzu zu
Ġse h
Ġst ap
Ġst Ã¼cke
Ġun com
gen ce
Ġwor um
ze igen
Ġdes er
Ġsa v
qu ality
Ġsh ang
Ġnach gedacht
Ġdar stellt
Ġbet reiben
Ġfl Ã¤che
Ġnew ton
Ġhin unter
Ġfun ctions
Ã¤u fer
Ġfar b
Ġverste ckt
Ġbill ionen
Ġmat rix
Ġstre t
Ġset s
Ġprote ine
Ġopt ions
Ġperfe kte
Ġeg gs
ĠkÃ¼ ste
met ho
Ġkor an
Ġmoral ische
Ġocc asion
Ġterror ism
Ġirgende ine
Ġblau e
Ġlapt ops
Ġcook ing
Ġphysik al
ĠerhÃ¶ ht
ĠprÃ¤sent ation
Ġabstra ct
Ġchines ische
Ġingenie ur
Ġhem isph
Ġentreprene urs
Ġgeograph ic
Ġfok uss
ih ad
Ġembra ce
Ġerwe iter
Ġcloth es
Ġbekom me
b od
m eter
m aking
n or
p al
Ġs kl
Ġh ook
Ġe ier
it ers
it ors
Ġp ix
is l
Ġz auber
Ã¼ lt
un ate
ro gen
Ġst ernen
Ġauf bau
ell ing
ab y
Ġ1 000
Ġtr i
Ġtr ug
ste chn
iert es
Ġmus h
Ġph arm
Ġcl ar
Ġover all
Ġover wh
Ġreg ionen
Ġzus Ã¤tzlich
auf nahme
Ġbas ierend
Ġverl ang
Ġsk ulpt
ĠlÃ¶ cher
Ġged Ã¤chtnis
ĠglÃ¼ck licherweise
Ġverg lichen
Ġru f
Ġafrik as
Ġpsych ological
ane ously
Ġeduc ational
Ġchallen ging
ĠstÃ¤d t
Ġtit le
Ġsicht bar
Ġoze ane
Ġclos ely
Ġfrank ly
Ġprinzip ien
Ġverschw unden
Ġlok al
Ġsymmet r
Ġposit iv
Ġingenie ure
Ġhous ing
Ġuntersuch ung
bur gh
Ġeleph ant
Ġphr ase
Ġoverwh el
a ids
l as
p el
v ier
Ġt ast
at i
Ġg le
Ġin zwischen
Ġp izz
ing ly
Ġbe fe
Ġan x
Ġan get
Ġan nahme
Ġre verse
Ġun fall
Ġab h
im a
Ġr ating
ck ten
Ġauf gere
Ġsp enden
Ġbut ton
Ġaus stellung
Ġtr ig
Ġout put
ah nen
Ġqu ellen
Ġfa ktor
Ġbet rieben
ges amt
Ġreg ime
Ġreg ierungs
Ġtats Ã¤ch
Ġmet abol
iss ion
Ġ4 2
Ġber Ã¼ck
ster ben
Ġgemein schaften
vers ion
gesch windigkeit
Ġcur iosity
duc ing
Ġresult at
Ġdefin ed
system s
Ġdeath s
Ġsand wich
opp ing
Ġvergangen en
Ġdeb atte
Ġtrack ing
Ġbemerken s
Ġgros se
Ġpresen ce
Ġappreci ate
Ġwettbewer b
Ġvacc ine
ĠgenÃ¼ gend
Ġbeibr ingen
Ġabra ham
ĠbezÃ¼ glich
b ir
g ely
g reifen
l ades
r ated
in i
ch ild
at a
Ġc ave
le b
ut her
ur z
Ġwir ken
Ġer he
um ente
th al
Ġaus bre
Ġaus gesetzt
qu elle
Ġsh ark
ne iden
Ġgr ippe
Ġgr ateful
Ġam ate
for est
Ġsc ore
Ġres il
Ġhand le
Ġgem Ã¤l
Ġem bed
Ġgu ard
Ġstat ement
Ġja zz
Ġkr Ã¤
Ġsl ums
Ġstory tell
Ġeconom ists
Ġnet t
Ġarchite cts
Ġadv ice
Ġniem anden
Ġlin coln
Ġmer ken
bel ie
Ġkomplex en
Ġlog ic
Ġult ras
Ġfolgen den
Ġzerst Ã¶rung
Ġcomb ine
Ġroad s
Ġchrist mas
Ġisland s
Ġimpl ant
Ġpassion ate
Ġenth us
Ġbang lades
ĠhÃ¶ch sten
ĠernÃ¤hr ung
Ġfok us
Ġwenigsten s
Ġperman ent
penden ce
ĠbevÃ¶lker ungs
Ġclou ds
h um
l ag
l Ã¤uft
m aterial
r Ã¤ume
v ol
w r
z um
Ġh ieÃŁ
Ġh ielten
Ġe isen
Ġp ir
Ġl ung
Ġl ying
Ġk ond
Ġk ath
Ġk alt
Ġein t
Ġso vie
Ġj et
Ġr Ã¤ume
ann ed
Ġch ips
Ġch ancen
Ġent t
Ġkind es
Ġact s
pt ions
Ġunter wegs
Ġviel mehr
fl Ã¼
Ġmar ken
Ġger et
Ġpol ic
ish ment
Ġheraus f
Ġcount y
Ġjo ke
Ġlar gely
Ġcor resp
Ġcolle cted
Ġbre it
Ġyoun ger
Ġoper ations
akt or
Ġtreat ing
Ġdep th
Ġfle w
Ġcoll apse
Ġkap itel
fra u
Ġstrong er
Ġmeasure d
Ġflow ers
Ġcomb ined
Ġlif estyle
Ġsubject s
Ġcart oons
Ġastr on
Ġtherap y
Ġschne e
leist ung
Ġgentle men
Ġspl it
Ġparadig m
Ġbron x
Ġexplan ation
Ġschicks al
Ġeingel aden
Ġshang hai
g ut
k ette
l inge
o ÃŁen
Ġ :
Ġt ent
Ġb ese
Ġg ulf
st immen
Ġf urn
Ġl y
is men
Ã¼ che
ur er
em a
ve led
Ġun known
Ġab we
Ġsch rei
Ġden s
um ines
Ġne ither
Ġauf nahmen
men sch
Ġcom ment
Ġno se
Ġsh akes
Ġent halten
Ġkn ock
Ġze igten
if iz
Ġwhere ver
Ġtra fen
Ã¤r m
Ġtechn ique
Ġvers agen
Ġstar ben
Ġger icht
Ġhin auf
Ġgeb rochen
Ġreg ul
Ġpar ks
Ġaut ism
Ġzusammen arbeiten
Ġrel ate
Ġter min
reich e
Ġmag ie
Ã¼nd en
Ġdre ie
Ġstre ben
Ġcur ve
Ġroom s
Ġwonder ed
Ġfund ing
Ġsor ge
Ġproduct ive
Ġerk annt
Ġbemer kte
Ġbehavior al
Ġrecord ing
Ġsam en
Ġfoot print
Ġverbra uch
Ġnutz ung
ĠverÃ¶ff entlichen
Ġsonnen licht
Ġfix ed
bew usst
Ġstamm zellen
Ġwechsel n
Ġclim b
Ġdiagn ose
Ġdopp elt
Ġque en
Ġapplic ations
dien st
Ġzweif el
Ġapr il
a ver
f ather
f liegen
h our
w inkel
Ġd v
Ġd ow
Ġw ired
es ome
Ġn g
Ġk os
Ġein schrÃ¤n
Ġbe ige
Ġbe achten
Ġbe zeichnet
Ġst Ã¼r
Ġre zept
ge geben
sch auen
th ese
Ġhe ben
Ġmo sk
Ġch ose
Ġfr ance
Ġnow here
Ġgen ieÃŁen
Ġunter sch
Ġunter richt
Ġleben dig
Ġfl ower
Ġmar sh
Ġland en
Ġmon keys
Ġdown load
Ġpar king
Ġschw anger
Ġrem ove
Ġear s
Ġ200 2
Ġbus y
Ġhund e
Ġerw ar
ĠerzÃ¤ hl
Ġoffen bar
Ġrelig ionen
ogn it
Ġsens ors
Ġmult ipl
Ġzent r
Ġneben bei
Ġ201 1
Ġterror ismus
Ġentscheiden d
Ġlangsam er
Ġrom antic
Ġconcept s
ĠhÃ¼ hn
Ġinterview s
Ġruss land
Ġhinzu fÃ¼gen
Ġinfe cted
Ġwachstum s
Ġalgorith m
Ġmobil tele
Ġuner war
ĠmÃ¤r kte
Ġbeteil igt
Ġdefen se
Ġgetr ennt
Ġorch est
Ġglo be
1 00
r ome
v ater
Ġt ill
Ġa ck
Ġth in
Ġb Ã¶se
st ieg
Ġf ox
Ġf ishing
it ure
Ġin k
or a
Ġl Ã¼
ig ern
ig are
et ch
et ische
Ġan passen
Ġj ose
Ġst ack
Ġre tt
Ġal ien
ol ate
Ġsch ach
Ġsch me
Ġmit nehmen
Ġli ver
ff iz
Ġde ploy
Ġdes per
Ġpe er
Ġsh ell
Ġpl ug
Ġag es
Ġsc ott
Ġzeit raum
Ã¼s sen
Ġmar g
Ġrem ains
Ġprogram me
Ġstop pen
Ġfort une
Ġbar rel
Ã¤l te
Ġvar iation
Ġsens itive
Ġtas chen
Ġrobot ic
ĠÃ¼berras chung
Ġinstrum ente
uell er
Ġnar rative
Ġschaut en
ĠÃ¤lter en
Ġvorstell ungen
Ġod d
ĠauÃŁergewÃ¶hn lich
Ġentfern ung
Ġumzu gehen
Ġcontr ast
Ġbund es
rÃ¼st ung
1 0
k ol
k ore
m om
w alk
en se
Ġt ube
in sel
Ġd ame
Ġb ahn
Ġn annten
Ġc er
ut ze
Ġha w
ro lle
Ġwir kt
il er
Ġver schie
ind ert
Ġr ick
be kommen
Ġvon einander
id enten
ist ics
etz ung
Ġfe hlt
Ġbes orgt
Ġgesch w
Ġev al
Ġwelt weiten
Ġpo cket
Ġgra in
Ġ20 50
Ġins gesamt
Ġbede utete
co de
Ġricht ungen
Ġpres se
legen heiten
Ġair port
Ġwunder voll
Ġoffen en
Ġred wood
Ġmusik er
Ġleg o
Ġmem br
Ġpot entially
Ġphil anthrop
Ġprov iding
Ġmittel s
Ġsau di
Ġjohn son
Ġbox es
Ġstay ed
Ġmikro ben
Ġmikro skop
Ġdein er
Ġarab ischen
Ġnachbar schaft
Ġassum e
ĠhÃ¶ch st
ĠprÃ¤ z
Ã¤usch ung
Ġcontroll ed
Ġbegeg nen
Ġbudd h
Ġgeschm ack
ĠsÃ¤ug et
Ġmosqu it
Ġappropr iate
Ġunex pected
ĠgerÃ¤us che
Ġpizz a
Ġaufgere gt
c alled
g ant
z iel
z ahlen
Ġd ust
Ġi v
Ġb ath
Ġh ip
Ġf ung
Ġn om
Ġl ens
Ġc ash
Ġwe igh
Ġha wa
Ġder selben
Ġan griff
Ġan zusehen
Ġan gene
sch icht
Ġr wand
Ġch ief
Ġaus gang
Ġdes k
art igen
Ġro ot
Ġsu ic
Ġkon z
Ġleben den
Ġra p
Ġtun nel
Ġdec line
Ġgegen wÃ¤rt
Ġletz ter
Ġcr icket
Ġeig entliche
Ġged icht
Ġwa hlen
Ġant icip
Ġpap ers
Ġleg isl
Ġequ ation
Ã¤l ter
Ġwom it
Ġcontin ued
Ġwin zig
Ġaud io
Ġjahrh under
Ġredu ziert
Ġtransform ed
ĠÃ¼berras chen
Ġconc ert
Ġrecogn ition
Ġhall u
Ġbor ing
ĠhÃ¶r ten
Ġrep air
Ġtie fen
Ġdimens ionen
Ġsport s
Ġverurs achen
Ġarme e
Ġkol on
Ġereign isse
Ġgrundlegen den
Ġerne ut
Ġrepubl ik
Ġvorbere itet
Ġschu he
Ġbewir ken
Ġsurge on
Ġmaint ain
Ġfis her
Ġkonsequen zen
Ġkamp agne
Ġaspe kte
i hen
i able
s ver
Ġd Ã¶r
Ġw oo
Ġi con
Ġb ond
Ġb ones
Ġh ers
Ġe b
it ik
Ġl g
Ġwe m
ic it
Ġan zusch
Ġver ur
Ġer geben
Ġal arm
Ġr ang
Ġr Ã¶nt
Ġsh ake
Ġher oes
Ġgl ad
for ce
Ġbl Ã¤tter
Ġind ones
Ġsc ary
Ġmill enn
ient en
gr ession
int s
geb ra
geb iet
Ġbi ol
Ġbelie bt
Ġverl iert
io x
Ġerw Ã¤r
the orie
Ġang em
ĠhÃ¶ here
Ġwunder baren
Ġhinter lassen
Ġallow ing
Ġkrie ges
Ġschwier ige
Ġclass ic
Ġeinge hen
Ġlim its
spiel er
Ġdirect ions
Ġvill ages
ĠstÃ¤r k
Ġdein em
Ġkontroll iert
Ġaw esome
Ġthreat en
Ġclin ic
ĠwÃ¼n schte
Ġintu itive
Ġcompon ent
Ġnov ember
Ġerwart ungen
Ġpengu ins
Ġlebenser wart
Ġgrundle gend
Ġerdbe ben
b m
b ot
m esser
er ie
Ġt ib
Ġa te
Ġh ong
re ts
Ġg ip
te en
Ġto wer
ir k
us ions
ro l
Ġst Ã¤m
Ġre putation
ot o
sch m
Ġsch am
Ġall gem
Ġch oc
Ġch amp
ik ing
ahr scheinlich
Ġfe yn
Ġra w
ges pr
Ġkle idung
Ġkl ug
br ingt
Ġplan en
Ġkam eras
Ġverl auf
Ġsk i
Ġber u
Ġwichtig es
els on
Ġje w
Ã¶rt lich
ĠglÃ¼ck licher
Ġfut ter
Ġearth qu
ĠkÃ¼ hl
Ġarg uments
Ġvol ume
Ġconf idence
Ġober en
eng ine
Ġfantast ische
Ġsam ples
Ġverbre itung
Ġconc rete
Ġmain ly
Ġkranken h
Ġarr ang
Ġdien en
krank heiten
Ġumf assen
Ġlat in
ober flÃ¤che
ĠflÃ¼ gel
Ġtoile t
Ġdepend ing
ĠlÃ¤ch er
Ġgros sen
Ġsympt oms
Ġsurround ed
Ġresist ance
Ġhabit at
Ġcorpor ate
ĠverrÃ¼ck te
Ġtransparen cy
conne cted
stu hl
Ġconvention al
Ġmolek ular
Ġbrook lyn
Ġbese it
a ktiv
c al
g ent
l ock
m ale
Ġt am
Ġth ick
Ġp ushing
Ġc ens
Ġv ital
Ġbe un
Ġbe ute
Ġbe wer
ur op
Ġwh ale
Ġj on
hr te
Ġver z
Ġab ente
Ġwas h
Ġme ga
all ow
im ine
Ġge zogen
se her
um ble
ag net
Ġaus ger
Ġcon stra
Ġmach st
Ġever est
Ġsu pern
Ġkon go
Ġkom pr
Ġra m
Ġlo op
Ġ3 1
Ġschw eden
Ġpa z
Ġtrans c
Ġcomput ern
kl us
Ġsl ides
Ġstand s
Ġinteress anten
Ġjo ined
Ġdre idimens
Ġpop ulations
Ġatt rib
Ġleg acy
Ġdefin iert
Ġpain ful
Ġnational en
Ġgreen house
Ġfeed ing
Ġment or
Ġspread ing
Ġantwor tete
Ġfab ric
ĠzufÃ¤ ll
ĠernÃ¤hr en
Ġdritten s
Ġrecy cling
Ġapplic ation
fÃ¶r m
Ġweis heit
Ġwahn sinn
Ġanschein end
ĠgemÃ¤l de
Ġgeret tet
Ġbeun ruh
h op
k Ã¼r
l ers
l ager
m ach
n ern
r ans
Ġa ston
Ġb a
Ġb oss
at ik
le g
Ġwe d
ed ing
un clear
ve y
Ġun belie
Ġab gesehen
Ġsch alt
Ġle gt
Ġsp az
Ġsp here
Ġfr Ã¶
Ġde pr
Ġda zwischen
Ġcon go
Ġen l
Ġher stellung
Ġgen ius
Ġkind erg
Ġco ach
ans as
Ġbr un
Ġqu anten
Ġbu ck
Ġres ol
ger Ã¤te
Ġ3 50
Ġad m
Ġgel ang
Ġgel assen
Ġele v
ok ing
Ġglau bten
Ġcar ried
Ġmin us
Ġschl acht
Ġdec re
Ġorgan ism
Ġdan cing
Ġcent uries
ium s
Ġcol umb
ĠschÃ¶n es
Ġident ical
Ġsure ly
Ġdet ro
Ġange ht
Ġeinge fÃ¼hrt
Ġgenet ische
ett i
Ġinteract ive
lin ien
Ġelektr ische
Ġsuff er
Ġletzt lich
Ġlate in
Ġsche itern
Ġalgorith men
Ġdramat ically
Ġspezie lle
Ġphilosoph y
masch inen
Ġcelebr ate
Ġunc ertain
ĠÃ¤lt ere
Ġimple ment
Ġpregn ant
Ġtsun ami
Ġfeyn man
b eln
f ung
n Ã¼tz
n Ã¼gen
Ġt ort
in form
Ġd sch
Ġd ign
es ign
on na
Ġh Ã¤ngen
an lage
st Ã¼cke
or ous
Ġst ab
Ġver sp
Ġsch icht
der ung
Ġaus ges
ib el
Ġges etzt
Ġte a
Ġte ch
Ġvor hin
Ġgl ac
Ġro ots
Ġfa ced
Ġgesch Ã¤fte
Ġfl ip
Ġcl int
Ġbeen den
Ġho ll
Ġgem Ã¼se
Ġsol ving
Ġkein es
Ġpar aly
Ġoff ered
Ġben j
Ġeinz us
esen ted
Ġown ers
Ġrec ommen
Ġber ge
Ġexpl o
Ġkur ve
Ġdra ht
Ġcare ful
Ã¤ng ste
Ġbiolog ischen
Ġkrie ge
Ġpriv acy
Ġgesam t
Ġdau ern
Ġmicro bes
Ġgenet ischen
ĠgebÃ¤u den
Ġkreat iven
ĠÃ¤r m
Ġbom bs
Ġfrank reich
Ġsele ction
Ġgespr Ã¤che
taus ende
Ġpresen ted
Ġheir aten
ĠzÃ¤h ne
Ġneurow issenschaft
ĠrÃ¶nt gen
b al
f one
h undert
n es
r ich
r ia
u ÃŁ
Ġa kte
on a
on ed
re ht
Ġn elson
Ġp itch
Ġc and
Ġc af
is ely
le ute
Ġbe ides
ig ungs
Ġan ten
Ġse ction
il it
Ġfor mal
Ġpro ced
th ink
Ġch ile
Ġcom ics
ang el
Ġout com
Ġinter akt
Ġfe iern
Ġra u
Ġra il
Ġmehr eren
Ġfir m
rei ft
Ġtechn ischen
Ġerf assen
Ġzusammen ge
pe are
ri ff
Ġins urance
Ġgu ar
Ġschl ussen
Ġja il
Ġgef ol
wh ile
Ġdat ab
Ġstru ck
Ġcor rel
Ġverschieden er
Ġgrow s
Ġinteresting ly
Ġverg nÃ¼gen
ho f
Ġerfol gs
Ġunternehmen s
Ġincre ases
Ġty r
gem acht
Ġprov in
po x
Ġsicht weise
Ġviol ent
Ġpal m
Ġrom an
wissen schaften
Ġking dom
Ġnachhalt ig
Ġprec isely
Ġtransl ate
Ġautomat ically
Ġext ent
ĠerwÃ¤h nen
Ġrit ual
Ġdisor der
Ġdisor ders
Ġprototy pe
Ġfif th
Ġschlussen dlich
e g
g f
i fen
m Ã¤n
r id
Ġt enn
Ġs s
Ġs ang
es ity
Ġp our
Ġc ord
Ġse vere
Ã¶ ser
Ġun vor
am en
Ġsch ild
Ġpro jekten
Ġhe ilen
Ġsp ons
Ġvor wÃ¤rts
Ġunter r
Ġkon g
Ġkom mer
Ġag ent
Ġind ischen
fÃ¼ gt
Ġvers orgen
Ġperson ality
Ġpar am
Ġschw ere
ha gen
Ġfin ance
amm lung
Ġje we
Ġsuch te
Ġacc um
Ġna hen
Ġris ing
Ġexist ed
Ġwohl be
Ġkill er
Ġjun e
Ġhouse h
Ġcoll aps
Ġbank s
Ġlim b
Ġinteract ions
gra de
Ġzent rale
Ġhig hl
Ġrefle kt
Ġentdeck ungen
Ġcoun cil
Ġapart ment
Ġbedro hung
Ġexplor ing
Ġtes ted
Ġmc don
Ġappar ently
Ġkompon enten
ĠÃ¤nder ungen
Ġkauf te
Ġreag iert
Ġdun klen
Ġzunehmen d
Ġenem y
Ġkonfront iert
Ġungehe uer
Ġstret ch
Ġlebenserwart ung
' ,
b ly
f are
m art
o id
t tern
x im
Ġa ra
Ġa ktion
Ġm old
an i
Ġo s
st amm
Ġn ic
Ġp ad
or tex
Ġc d
Ġc od
Ġwe isen
ur b
ra u
hr ough
ot es
Ġun re
Ġab ges
Ġab ends
and t
Ġne igen
Ġcom ic
Ġex cl
ĠÃ¼ber sch
Ġpr ices
Ġhere in
Ġfl Ã¤chen
Ġtra ged
Ġbeg reifen
Ġlie bte
ungs system
Ġdis zipl
Ġstar ken
Ġger uch
Ġhin blick
Ġkl av
Ġwieder holen
Ġ19 00
Ġteil nehmer
Ġweiter entwick
Ġgegen den
ler nen
Ġbere chnen
Ġvis uelle
Ġchr on
Ġwirtschaft sw
Ġmusik al
oot h
Ġschul ter
Ġkne e
Ġkap utt
Ġconsum ers
Ġnation ale
spro ble
ox ide
zw ungen
Ġsequen z
Ġphilos op
Ġwol f
Ġverfol gt
Ġbreat he
Ġdistrib uted
Ġext inct
Ġdeter mine
Ġmont ere
Ġpainting s
mark et
Ġmur der
Ġastero id
Ġhind urch
Ġtransparen z
Ġax is
Ġruh ig
Ġvirgin ia
ograp her
ĠÃ¤gyp ten
Ġexpans ion
Ġack now
d ach
k ul
k Ã¶rper
Ġt ired
Ġd icht
Ġb ord
Ġn iveau
ich ert
ing er
om agnet
Ġan halten
Ġan fÃ¼hrer
Ġst ig
Ġst un
il a
Ġver fahren
Ġr on
Ġr ut
au ben
ze hn
Ġtr iv
Ġour s
Ġfl ood
Ġbra ch
Ġob esity
sp ar
Ġshe ep
Ġdr ing
Ġho her
Ġmal en
Ġlet s
ichte te
Ġ20 20
Ġoff iz
Ġwen den
ĠzurÃ¼ck kehren
Ġel ite
Ã¤u fe
kl asse
Ġchin esen
ĠlÃ¶ wen
Ġdank bar
Ġang ry
vir us
Ġwalk s
Ġcol ony
Ġinvest iert
zeich nungen
Ġrepr esented
ĠÃ¤hn liches
Ġpoor est
Ġinspir ieren
Ġrei hen
Ġperform ing
Ġsal es
wind et
Ġengag ing
Ġempf inden
Ġproper ly
Ġentsp rechen
Ġattack s
Ġschmer zen
viel f
Ġjud ge
Ġselts ame
Ġlat est
Ġdenk weise
Ġintens iv
Ġbrust krebs
ec d
Ġelectron ics
Ġdrink ing
Ġaspect s
Ġallt Ã¤
Ġalph abet
Ġchap ter
schlÃ¤ ge
Ġabsor b
Ġagre ed
ĠlÃ¤nd lichen
Ġbibliothe k
Ġbiol umines
" ?
c ase
k eten
r itten
er er
Ġt iger
as ste
le ton
ig r
ut ing
Ġer m
Ġsch ok
ck ing
op es
Ġim men
ag h
Ġsp innen
Ġas ien
Ġvor gehen
ink ommen
ack en
Ġbr ian
Ġra ising
Ġwelt krieg
Ġlo vely
Ġres olution
Ġsystem en
Ġgeb ur
Ġzw anzig
Ġeigen schaft
pf el
ĠÃ¤ ra
Ġwissenschaft lern
ail s
Ġeconom ies
Ġgovern ance
Ġunder water
Ġpsych ologie
Ġfal ten
Ġmem e
Ġproduct ivity
stra ÃŁe
Ġclass es
Ġexpect ations
Ġ201 2
Ġske let
Ġmand ela
Ġbesuch te
Ġalex ander
Ġacadem ic
Ġanru f
Ġobs essed
Ġattach ed
Ġmicrosc ope
ĠbekÃ¤m pfen
Ġfeder al
Ġlangweil ig
Ġpros per
Ġinten se
Ġshakes peare
Ġbeige bracht
iox id
Ġoutcom es
Ġmontere y
b aum
l ast
n ight
o ben
in c
Ġw att
Ġs ill
Ġm io
Ġm ike
Ġb ern
at o
Ġg let
st Ã¤t
Ġc ab
Ġc andid
is a
Ġk ab
Ġein richtungen
Ġdi verse
Ġj ac
ge we
Ġr ice
Ġle ap
Ġli kes
Ġaus ged
Ġaus machen
Ġfr ighten
Ġum gang
Ġde z
qu ently
Ġtr Ã¤umen
Ġpl aced
Ġwo zu
Ġus ual
for ward
Ġro se
Ġbet rieb
Ġfl ash
ign et
Ġbei j
Ã¤r t
Ġad just
Ġstud iert
Ġgew ann
Ġhand ys
Ġtrans mit
ĠzurÃ¼ck gehen
Ġinst ant
Ġko hl
Ġwr iter
Ġspiel zeug
Ġimag ined
str ateg
Ġfunktion en
mit telt
Ġsing ap
Ġcol um
Ġbesond eren
Ġref uge
wend ung
Ġprov ided
Ġanst ieg
Ġmeas uring
Ġconnect ing
Ġfahr zeug
Ġhom osex
Ġce o
jÃ¤hr iger
Ġcaus ing
Ġbor ders
Ġelektr ischen
Ġamong st
Ġdistr ict
Ġnar row
Ġschau e
ĠwÃ¼n sche
Ġbib el
Ġimmun e
zÃ¼ ge
Ġfrem den
Ġflex ible
ĠwÃ¤r me
fil m
Ġwass erstoff
Ġidentif izieren
Ġjanu ary
Ġverwend ung
Ġexhib ition
Ġvolunte ers
Ġtox ic
Ġadvert ising
Ġcarol ina
Ġlic ense
Ġdiction ary
Ġbicy cle
Ġleon ardo
Ġspo ken
Ġembed ded
Ġchoc olate
f Ã¤h
i ath
l esen
m ein
u ft
w ander
ch el
Ġb rechen
Ġg y
Ġu b
Ġe lder
Ġf usion
it ory
Ġn it
Ġp ale
Ġc oo
Ġv ierte
Ġyou th
Ġst il
Ġst aub
Ġre build
am ine
ach s
Ġle uchten
Ġmit glieder
th ur
Ġsp ar
id ay
Ġum stÃ¤nden
Ġsa al
Ġtr ies
Ġvor sichtig
Ġgr anted
Ġgr iff
Ġgl Ã¼h
zu kommen
Ġwant ing
Ġhapp ier
ac ing
ac ted
Ġover come
Ġback wards
ges te
Ġgem essen
Ġgra ce
Ġwieder hol
Ġ20 30
Ġsm oke
Ġschl ug
ĠzurÃ¼ck ge
Ġwahr en
Ġwahr haft
Ġgleich gewicht
Ġgemein nÃ¼tz
Ġeconom ist
Ġhard ly
Ġris ik
Ġsw eden
Ġfort unately
Ġflie ge
Ġpot ent
Ġtas man
Ġ199 9
Ġinde x
Ġlog ik
Ġpark inson
Ġpfl anze
Ġstep hen
kÃ¼ ste
Ġrecogn ized
Ġanderer seits
Ġurspr ung
Ġphilosoph ie
Ġnerv Ã¶s
wÃ¼r dig
Ġappear s
Ġcheap er
Ġsimpl icity
Ġhack ers
Ġcommit ment
ĠerfÃ¼ llen
Ġcontroll ing
Ġkulture lle
Ġinteressanter weise
Ġklassen zimmer
Ġasp ir
Ġhorm one
Ġvess els
Ġimplic ations
Ġstir bt
Ġbiz arre
Ġfurn iture
Ġbenj amin
b Ã¼r
b ab
d ra
p u
s u
u ity
v olution
Ġ Ã¶rt
Ġa im
Ġw ound
Ġs ink
an lagen
ar es
Ġl ese
Ġc m
Ġk uh
Ġzu recht
Ã¶ ten
Ġre cher
ter y
Ġsp Ã¤ten
Ġas ide
uch tet
Ġex tend
Ġum so
Ġum wand
ĠÃ¼ber setzen
ĠkÃ¶n ne
Ġsa ÃŁen
Ġent ered
Ġher ange
Ġsee k
ah men
Ġqu ar
Ġbes ucht
Ġbes itz
Ġwork er
Ġhas sen
Ġwelt bevÃ¶lkerung
Ġsy nd
Ġsel be
Ġtra veled
Ġnat ive
rie bs
Ġdr ill
Ġ19 0
Ġ19 2
Ġstr Ã¶
Ġsim ul
Ġtrans ist
Ġwel come
gel assen
Ġsecond ly
Ġchar ity
Ġerw Ã¤hn
Ġset i
ischer weise
Ġelect ions
Ġsym ph
Ġkar ik
Ġint ention
Ġstim ul
akt oren
Ġtele phone
Ġneu igkeiten
Ġadv oc
Ġhy br
Ġkil o
Ġinvol ves
Ġball oon
Ġreach ing
Ġbreak ing
Ġpract ices
Ġschlecht es
mel zen
Ġcamp us
produ ktion
Ġemer gency
Ġrefle ct
Ġjen en
Ġachie ved
Ġdomin ant
Ġdiv ide
Ġbreat hing
Ġanaly se
Ġinstall ation
Ġafrikan er
Ġmagnet ic
Ġsynth etic
Ġentsch lossen
Ġmyster y
zÃ¼ g
Ġrepubl ic
Ġprivile g
Ġsogen annten
Ġproz esse
Ġpartners hip
ĠwunderschÃ¶n e
Ġseed s
Ġportra it
Ġlob by
Ġsculpt ure
Ġinit ial
Ġteuf el
Ġthro wn
Ġdens ity
9 9
r in
v ide
Ã ¡
Ġw ing
ch tern
Ġg Ã¤n
Ġu tter
an aly
Ġo hr
Ġin ject
Ġl ap
Ġk andid
le te
Ġbe herr
Ġy ield
ere ien
Ġan ste
Ġst ations
sch iff
Ġpro ben
th ere
ag ger
Ġges ammelt
Ġpl enty
Ġen kel
zu bringen
Ġfa ktoren
Ġbl Ã¶
Ġleben d
Ġbet on
Ġob l
Ġcl ay
Ġpers u
fÃ¼ hlen
Ġdis gust
Ġimp ul
bl ock
ord net
Ġaut ismus
utz end
Ġfu els
Ġexp ort
iven ess
Ġphys ische
Ġchar lie
Ã¤s ser
fin ed
Ġpres c
gesch Ã¤ft
Ġchem ische
lieÃŁ end
cl ass
Ġadv ance
Ġtas ks
Ġredu ction
Ġmoral ischen
rÃ¤ ger
Ġgrand father
Ġeth iop
Ġprogramm ieren
Ġinteract ing
Ġkommun ikations
Ġvirt ually
Ġaccess ible
Ġ13 0
Ġhit ze
ĠerklÃ¤r te
Ġflu id
Ġsuggest s
Ġharv est
Ġrece ive
Ġtur b
ĠberÃ¼ hren
Ġcustom ers
Ġirgendein em
Ġdunkel heit
Ġwinz igen
Ġemb ry
Ġjanu ar
Ġneut ral
zÃ¤ hl
appe ared
Ġinfin ite
Ġwilli am
Ġbos n
Ġnir gend
irat et
Ġdetro it
Ġclint on
Ġguar ante
Ġjewe ils
2 00
4 0
a vor
b rochen
c or
j u
m ers
p ap
u als
z one
Ġd ict
Ġw ings
ie llen
Ġh Ã¤ss
Ġg or
Ġg reifen
st unden
Ġin kl
Ã¼ mm
ion alen
Ġit aly
Ġdi oxide
Ġj ones
Ġst able
Ġver arbeiten
ge h
sch ild
sch ool
Ġr ichten
Ġden se
Ġne ander
ff end
Ġch am
kt is
Ġaus nahme
Ġvor schlag
Ġent z
Ġkind ers
Ġfl ick
if ted
Ġtechn ische
Ġpre tend
Ġdis appeared
Ġ3 7
Ġem ph
auf gaben
Ġschw ach
act ion
iss es
geb Ã¤u
Ġ4 8
Ġafter wards
ucht ung
Ġbild et
kl ar
Ġplay s
sam keit
Ġair craft
Ġsta ir
gesch lagen
Ġwunder volle
ĠÃ¶ff net
Ġengl ischen
Ġopp osed
Ġsex y
Ġbar s
Ġint r
Ġcal c
Ġspeak er
Ġdir ty
Ġtas che
Ġcho sen
air s
Ġspr ung
Ġdist ant
Ġhoff nungs
ĠwÃ¤ lder
Ġcommunic ations
Ġprop ag
Ġkat ze
Ġign ore
Ġfro zen
Ġjen seits
Ġvern Ã¼nft
Ġcapital ism
Ġnan o
Ġliber al
pfl anz
ĠÃ¶kon omen
Ġcry ing
Ġprint ing
Ġconsequen ce
Ġshoot ing
Ġszen e
Ġkatastrop he
Ġbeschre ibt
Ġappe ared
Ġbelo hnung
Ġincent ives
Ġinvestition en
Ġgand hi
Ġerforsch t
Ġzehnt aus
Ġrwand a
Ġkinderg arten
Ġdign ity
b c
f ast
k oh
w l
Ġt ip
ch s
Ġs i
Ġs und
Ġs ession
Ġm ri
Ġb m
Ġb ier
Ġh ans
Ġe hren
st ern
Ġp urch
le ment
al te
Ġbe am
Ã¤ ck
ur ation
Ġan gehen
Ġre tro
Ġre fr
Ġver scha
ter t
Ġun its
gen cies
Ġer ad
ben e
ver stand
Ġle cture
Ġauf treten
ann ter
Ġaus ein
Ġte e
Ġvor s
Ġsh opping
Ġkn ie
Ġco ck
ru f
ru g
Ġra uch
ens ystem
Ġlie fer
Ġdis h
Ġad oles
Ġkl ingen
Ġhel ium
Ġbef Ã¼r
Ġpass ing
gl es
Ġinv ite
Ġbas ket
ian ischen
Ġklein ere
Ġverw ende
Ġsk ull
Ġimag ing
Ġber icht
Ġ7 2
Ġang le
ĠglÃ¼ck s
Ġafric ans
Ġeben en
Ġrad i
Ġdel hi
Ġdev ast
Ġmathemat iker
Ġbeha ve
ĠkÃ¼ che
Ġjun i
Ġsinn voll
Ġdro ve
Ġconsum e
reg ierung
Ġoptim istic
Ġverbra uchen
Ġdynam ics
Ġflo ating
zer o
Ġest imate
Ġcapt ured
Ġdiv ided
Ġanges ichts
Ġreaktion en
Ġanalys ieren
ĠhÃ¶ch ste
Ġsymmet ry
Ġchines ischen
Ġweap on
Ġfascin ated
Ġsaving s
Ġille g
Ġcommit ted
Ġcooper ation
Ġdolph ins
Ġpow ers
Ġcontem por
Ġplatt form
Ġshad ow
Ġweihn acht
child ren
b us
c us
f ine
l an
Ġd ung
at ts
Ġh eter
re en
Ġg ast
Ġe hre
Ġp au
Ġl ichter
is er
us ing
Ġit al
Ġj ur
Ġj am
Ã¶ nen
Ã¶ ss
Ġre h
Ġver lieÃŁ
Ġab and
Ġle iter
der m
Ġwar tet
Ġch est
Ġat omen
Ġvor gang
Ġmus kel
Ġmus cles
ru fen
sp ers
ĠfÃ¼ ÃŁe
Ġdr um
Ġreal m
iÃŁ en
Ġgel b
Ġwieder her
Ġerf inder
Ġcomm od
tel es
Ġ4 4
Ġsec ure
angen e
Ġabs ur
Ġlight ing
ĠhÃ¶ hlen
Ġeur o
ĠauÃŁer ord
Ã¼h le
Ġversch le
Ġresult ate
Ġsens oren
Ġries iges
atur en
Ġadd ing
Ġprim itive
Ġakt uelle
Ġersch re
Ġignor ieren
ĠhÃ¶her en
Ġbrief ly
Ġcopy right
Ġdipl om
Ġalph a
Ġprototy pen
Ġrepe at
Ġdestroy ed
Ġrepar ieren
Ġneurosc ience
Ġirgendwel che
Ġearthqu ake
Ġkommer zie
Ġschok ol
r est
Ġt ight
Ġd ys
Ġd ump
Ġd utzend
Ġs alt
Ġb ach
Ġb ible
st ate
Ġf els
Ġand rew
Ġk g
Ġk ognit
Ġha ie
Ġj ane
Ġver pf
Ġver zer
Ġab use
Ġdies mal
Ġden selben
Ġge teilt
um ps
Ġne oc
Ġpro sth
ce pted
Ġmo ore
Ġch im
Ġcom edy
ad o
Ġtr ibe
Ġcon ce
Ġact or
Ġyour s
zen z
ru cken
Ġleben de
Ġdurch zu
Ġsc anner
Ġbeg r
Ġeinfach heit
Ġverb rennen
Ġger aten
Ġgeb ieten
Ġgra us
Ġgra ff
Ġgel ie
Ġben utze
geb ung
Ġorgan ize
Ġshould er
Ġber uh
Ġexp osed
Ġphys iker
Ġpartic le
dr Ã¼cke
Ġang iogen
Ġsign ed
mÃ¶ gliche
Ġgest artet
Ġru he
Ġret ire
Ġversch windet
Ġint ent
Ġtem po
Ġextra ct
Ġgott a
Ġkreat ive
Ġcirc a
Ġfear s
Ġcollect ing
Ġausge geben
ĠstÃ¤r ken
Ġexperien cing
organ isation
Ġchrist ian
Ġhistor ical
Ġsus pect
Ġsearch ing
Ġtrag Ã¶
Ġsynth es
Ġschlimm ste
Ġcontrib ute
Ġbenutz ten
Ġanwend ungen
Ġatl antic
Ġrhyth m
Ġastero iden
Ġzufrieden heit
Ġexpert ise
Ġbegren zt
fir ma
Ġuni form
Ġdreh te
Ġath let
Ġfantas ie
Ġparte i
stimm ung
Ġurs ache
Ġridic ulous
Ġtri ang
Ġsuic ide
- -
c ence
f ree
f Ã¤hig
o ster
p op
s ah
Ġa in
ch r
ch ar
Ġm umb
Ġp itt
Ġl asse
Ġto ys
Ã¼ d
us alem
ic ation
Ġdi lem
Ġse vent
Ġst icks
sch u
Ġle hre
and elt
Ġat tend
Ġex akt
Ġex ternal
Ġcon ven
ste ine
Ġnach mitt
Ġgen oc
Ġwill kommen
ble iben
Ġfa cial
Ġbet rÃ¼
Ġind igen
Ġ. .
Ġpo ison
Ġpart ies
Ġnat han
Ġpol iz
Ġkein em
geb iete
Ġbi as
Ġbi od
Ġorgan ismus
bo ot
dr ingen
par k
Ġpra x
Ġindust ries
fort able
Ġfest gestellt
ho ben
Ġflie ÃŁt
Ġlin ke
app t
Ġ199 8
Ġenor men
Ġkey board
spro gram
organ isationen
Ġislam ic
Ġmis er
Ġmetap h
Ġske lett
Ġemotion ale
ĠgrÃ¼nde te
Ġcalcul ate
Ġmuslim s
pol itik
Ġschlimm sten
Ġeffiz ienz
Ġneighborhood s
zust and
Ġsympt ome
Ġsetz ten
ĠerÃ¶ff net
Ġneugier ig
Ġrecover y
Ġrecon stru
Ġmam mals
Ġspannen d
Ġanonym ous
Ġpingu ine
Ġkonflik te
Ġsac red
Ġremo ved
Ġchol era
Ġdilem ma
e ing
g Ã¤nge
m ass
w is
in y
Ġa sth
Ġw Ã¤nde
Ġm ice
Ġe ch
Ġp it
Ġl it
Ġk h
Ġz Ã¤
Ġbe ur
Ã¼ ll
Ġso ap
Ġan bieten
Ġst ieg
Ġab und
gen der
Ġge Ã¶ff
Ã¼r en
Ġhe aven
kt ar
ist in
Ġde ck
Ġtr at
Ġtr itt
Ġvor n
Ġro cks
Ġbl ank
Ġfl og
pr in
Ġdis ney
Ġhand lungen
Ġwieder holt
Ġlet ting
Ġprodu ces
Ġsm ooth
Ġgu er
Ġgu ide
Ġsim ult
Ġ4 6
Ġeinz iges
con tro
str om
Ġpubl ish
rat es
stÃ¤nd ige
Ã¤us chen
Ġfig ur
Ġelse where
Ġass oz
Ġmiss ed
Ġessen ce
Ġrev ol
Ġleg te
Ġbel ast
ub a
Ġgesundheit ssystem
Ġflie gt
Ġalt es
Ġcontin ues
Ġheart s
Ġtradition elle
Ġvol ks
Ġ199 4
Ġprov ides
Ġtau chen
Ġdom estic
ĠprÃ¤s identen
Ġzug leich
fahr er
Ġlern ten
Ġaufre cht
Ġtouch ed
Ġentsp re
Ġnahe zu
Ġtoile tte
Ġweib liche
ĠhÃ¶he punkt
Ġgebra uch
Ġklin ik
Ġcry st
Ġug ly
Ġprivile ge
.' "
Ġfett leib
Ġbound aries
ĠflÃ¼ss igkeit
Ġesc ape
dre hen
Ġdiskut ieren
Ġklav ier
g Ã¤nger
l aub
y on
Ġt ja
Ġd p
Ġd oug
Ġs ulf
Ġh ire
Ġg ib
Ġn ag
Ġp ile
Ġv el
Ġk ra
Ġk redit
al ys
Ã¼ te
Ġwe t
ut s
ur gen
et ts
Ġj elly
Ġver lei
Ġab ed
Ġer zeug
Ġme g
im et
Ġr ent
Ġge zwungen
se k
se iten
be llen
Ġsp ots
Ġaus gaben
he orie
ab rik
Ġum stÃ¤nde
Ġges unde
Ġde ar
ĠÃ¼ber gang
Ġtr Ã¤nen
Ġmus keln
Ġkon zepte
Ġwelt all
Ġsc ales
ĠgroÃŁ zÃ¼g
Ġcl iff
Ġtechn iken
Ġdis p
bl og
Ġcont ains
Ġzw Ã¶l
Ġorgan e
Ġgener ated
Ġstill e
Ġhigh way
gef allen
Ġanf Ã¤ngt
Ġhar te
Ã¤lt ig
Ġnet s
Ġneur al
Ġpsych opath
ĠÃ¼ ben
Ġsor gf
Ġinsp ire
Ġdich ter
Ġorganis iert
Ġober flÃ¤chen
Ġverbess erung
Ġterror isten
Ġdark ness
Ġbor row
letz t
Ġhung ry
wa ffen
Ġinf iziert
kn all
Ġverletz t
Ġposit iven
Ġmethod s
Ġkulture llen
Ġorigin ally
Ġrepor ted
fun ktion
Ġunderg round
Ġbefre ien
Ġschick te
Ġgrie chen
Ġded icated
Ġresc ue
ĠkÃ¼mmer t
Ġpion e
Ġingred ients
ĠgewÃ¶ hnt
Ġdow nt
Ġng os
Ġangem essen
Ġtib et
ĠÃ¤rm sten
Ġtraged y
Ġmumb ai
1 2
h ah
k Ã¶n
k ord
p ie
p ath
w achsen
Ġt ub
Ġa esth
Ġd ent
Ġd ichte
Ġw und
Ġs ier
Ġb un
Ġthe orien
Ġg ate
Ġu h
st il
Ġf ulf
Ġn Ã¤h
Ġl en
Ġc ass
ed a
Ã¤ her
Ġha are
em e
Ġdi ent
Ġse ktor
Ġse attle
hr ten
ke ep
im me
Ġge fe
Ġle ber
Ġpro of
ill ance
Ġsp ur
ist ed
Ġaus gehen
Ġfr ucht
Ġfr uit
Ġde bt
ĠÃ¼ber s
Ġsa cr
Ġher ab
ein s
Ġget es
Ġcomp os
Ġkon st
Ġper pet
me id
sp ect
sp anne
ĠfÃ¼ llen
Ġspe icher
Ġpre v
stell ten
cent ury
Ġbi ologen
Ġdec ke
Ġwr ight
Ġbelie fs
Ġser ie
Ġimag in
Ġfil men
Ġphys ischen
wir ken
Ġkre iert
Ġbew ahren
Ġatt itude
Ġunivers itÃ¤ten
Ġoffen e
Ġoffen sicht
Ġvo y
Ġnu cle
wor th
ĠbÃ¼ chern
ĠÃ¤hn lichen
hand el
Ġkil ogram
ĠkÃ¼nst liche
Ġlog o
Ġemp ire
Ġintelligen te
Ġstrateg ies
Ġmuseum s
Ġphotograph y
Ġpull ing
Ġschwe ine
ĠfrÃ¼her en
Ġhell o
Ġdemonstr ate
Ġvoraus s
Ġdramat isch
Ġvert ical
Ġcitiz en
Ġconflict s
Ġschreck liche
Ġafford able
Ġeffort s
Ġcolleag ue
Ġbeweg ungs
Ġepidem ie
Ġcru cial
Ġhang ing
Ġatl anta
Ġhinge hen
Ġgig ant
Ġtreib haus
Ġwheel ch
Ġdepress ed
Ġpyram id
Ġrechn er
Ġwurz eln
Ġstere ot
Ġchimpanze es
Ġuncom fortable
Ġpolic ies
Ġhawa ii
Ġgip fel
Ġabente uer
Ġcontempor ary
Ġ.. ."
Ġbiod ivers
a ktivitÃ¤t
l or
Ġt ang
re icht
Ġp ace
ou ver
Ġl Ã¤rm
Ġc raft
Ġein be
Ġz oo
Ġz Ã¤hlt
Ġder er
Ġan spr
Ġdi stra
Ġst ages
Ġre ly
Ġver mÃ¶gen
de cken
Ġal bert
Ġal koh
Ġle x
Ġar ctic
Ġar thur
Ġaus macht
Ġges unden
Ġges Ã¼nd
Ġwer det
Ġte ars
qu is
Ġpe in
Ġvor gestellt
Ġwo hlt
ap or
Ġgen ere
Ġup set
Ġke vin
Ġind us
Ġbu ff
Ġpre ise
?" ,
Ġac cepted
Ġhel ic
Ġbef est
Ġ19 3
Ġ19 30
Ġentw urf
Ġteil nehmen
Ġmin or
Ġrem ix
zie ht
Ġla gen
Ġverste cken
Ġpolit isch
att ung
Ġsen ior
amm eln
Ġdra wn
Ġsmall pox
Ġold est
Ġpop ul
Ġfood s
vie le
Ġcur ric
gh ters
Ġbiolog ists
Ġsah ara
Ġflie ÃŁen
Ġvar ian
Ġspeak ers
Ġerl angen
Ġneu lich
Ġ199 5
Ġview s
kon stru
Ġredu ced
Ġkap az
Ġvirt uellen
Ġrele v
Ġbrit ischen
Ġbom ben
Ġzerst Ã¶r
ĠbÃ¼rger meister
Ġintegr ated
Ġinstitution al
Ġjen em
ĠÃ¼b ung
Ġachie v
Ġevol ve
Ġregel mÃ¤ÃŁig
Ġfunction al
Ġsus pend
Ġattra ct
Ġreser v
Ġagric ultural
Ġdisapp o
ĠerfÃ¼ llt
Ġren der
ĠreprÃ¤sent iert
Ġbeit ragen
Ġcro ps
Ġenter pr
ĠÃ¤nder te
Ġverkehr s
Ġkatastrop hen
Ġtrib es
schre iten
Ġcontra ct
Ġgeg essen
Ġbare ly
Ġnachden kt
Ġhers elf
ĠgeÃ¶ff net
' .
b ro
c ity
d lichen
g ungen
s or
u bs
z o
er kennen
Ġt alen
Ġa ward
Ġs anta
Ġb Ã¶sen
Ġg onna
it is
it ungen
Ġc ute
is y
Ã¤ sth
Ã¤ udes
ut an
Ġst ores
Ġver we
Ġge pr
Ġge fl
Ġle op
ber ry
Ġsp agh
hen s
Ġaus gesch
Ġaus drÃ¼cken
Ġex cell
Ġmy st
ien te
Ġkn opf
Ġact ors
Ġgesch e
Ġbet rÃ¤gt
Ġcl ients
Ġfind s
Ġger ed
Ġhin sichtlich
Ġselbst mord
ha fen
igh ted
Ġpos itions
Ġtag s
Ġdan iel
Ġter rain
Ġvis uellen
Ġprob ieren
Ġprob ability
Ġglobal isierung
Ġwa ffe
Ġche ese
Ġchem otherap
Ġpriv aten
Ġschwer er
Ġcontrol s
Ġfle derm
Ġgeschichten er
Ġmob ility
Ġeth an
Ġmechan ismus
Ġtru cks
Ġentste hung
ĠmÃ¤nn chen
ĠhÃ¼ b
Ġarr ive
ĠfuÃŁ ball
Ġtum ors
Ġleist ungs
Ġdeliver ed
kom m
Ġreturn ed
Ġteen agers
Ġpush ed
Ġdepend ent
Ġbehaup te
Ġaussch lieÃŁlich
taus end
Ġentwicklungsl Ã¤nder
Ġunsicht bar
Ġshr imp
Ġdozen s
Ġpfer d
Ġbeeindruck end
Ġsow j
Ġtrig ger
Ġjew ish
Ġinkl usive
Ġemph as
Ġreh abil
e ffekt
g ert
o hlen
w ol
y an
Ġa gencies
Ġi bm
Ġb ind
Ġn adel
Ġp ier
ar ium
Ġk uchen
Ġwe h
un en
Ġwh is
el tern
Ġst ich
Ġver teilung
Ġun schuld
Ġal as
men schen
ul um
Ġaus fÃ¼hren
Ġum zusetzen
Ġup d
Ġste ven
eren z
olog isch
Ġbl ase
Ġfl ach
chn itten
Ġwirk lichen
Ġmill imeter
Ġshe et
Ġad ap
iger weise
Ġreg ret
Ġmon ster
Ġfre ie
ha ppy
Ġdan ken
Ġbede ckt
Ġbesch Ã¤d
Ġglob ally
Ġirgend was
Ġlebens qualitÃ¤t
Ġglobal ization
Ġacc idents
Ġmot ors
Ġstop s
Ġru anda
ift y
Ġmusic ians
Ġbewusst seins
Ġvol can
Ġfocus ing
bre ch
Ġvirt uelle
Ġdom ain
Ġcirc les
sto ÃŁ
Ġop ens
Ġding er
Ġecht es
Ġinclud es
Ġkan al
kam pf
Ġsepar ated
ĠwÃ¼n schen
Ġimprov ement
ĠwÃ¼ tend
Ġteles kop
Ġkonsum enten
Ġbenutz te
Ġremind ed
Ġsurve illance
Ġtarget s
Ġjer usalem
ĠgewÃ¶hn lich
Ġbran ch
Ġallt ag
Ġfo ie
Ġberechn ungen
Ġrepe ated
ĠzukÃ¼nft igen
Ġehem ann
Ġgewisser maÃŁen
ĠÃ¼berprÃ¼ fen
Ġvort rÃ¤ge
Ġvideosp iele
Ġadminist ration
Ġmosk it
Ġjose ph
Ġaston ishing
Ġbeij ing
Ġsier ra
Ġalkoh ol
b orn
f old
k urs
k Ã¤m
l ies
z ure
Ġ Ã¤nderung
Ġd ns
Ġw ats
st Ã¤d
Ġf ischer
Ġf athers
Ġp ent
Ġl k
Ġl ions
Ġl uther
Ġc ot
Ġv ene
Ġk alten
te am
ir a
Ġwe tte
ig nen
ig sten
ra h
ra ben
Ġse ats
Ġst ammen
ach tet
lich em
Ġwas ch
Ġal umin
Ġme ere
Ġr aten
Ġne at
au bt
ag os
Ġsp inal
id i
Ġaus rÃ¼stung
Ġda umen
iv a
qu ellen
ure au
Ġcomp rom
Ġste ts
Ġro d
zu gehen
Ġkon vention
Ã¤ch er
Ġbl asen
Ġra keten
Ġmir acle
sel y
ac ular
Ġmar ath
Ġimp uls
Ġhand els
ves ted
Ġland ed
Ġwieder ver
Ġmay or
Ġschw estern
ri an
Ġmet ern
teil s
Ġverl or
Ġsk al
Ġfu hren
Ġcr iminal
Ġlebens raum
Ã¼nd et
Ã¼nd ung
Ġinternet s
Ġcap s
Ġbed auern
Ġbre akt
Ġerinn erte
Ġamerik as
Ġunivers ities
Ġfig uring
Ġbesond eres
unter richt
Ġequ ality
Ġverd ammt
Ġcra ig
Ġspr ich
Ġsozial er
Ġhold s
Ġemp fe
bre ite
Ġfert il
Ġpal est
Ġstatist ik
Ġjournal isten
Ġfro g
Ġlay ers
Ġlif es
Ġanw esen
Ġport ion
Ġsymbol s
Ġsymmet rie
Ġvict or
Ġintens ive
Ġbedro ht
Ġfac ility
grÃ¶ÃŁ e
Ġeinkommen s
Ġinj ury
Ġschrift steller
ĠbedÃ¼rf nis
Ġehem al
Ġrepor ter
Ġverlie bt
Ġshel ter
sph Ã¤re
Ġverlang sam
Ġanget rieben
Ġsovie t
Ġdv d
Ġallgem eine
Ġrecommen d
Ġintr ins
Ġentspre chend
Ġgetes tet
Ġbreakt hrough
h aut
o en
Ġt icket
Ġt Ã¤uschung
Ġs Ã¤tze
es ted
Ġo el
st ock
Ġc able
Ġz ip
em bly
Ġan weis
Ġj ar
Ġst y
Ġre is
icht ung
Ġer richten
Ġer setzt
ke ley
Ġr Ã¼ber
um mer
Ġpro ph
ann y
Ġsp itzen
Ġmo z
Ġaus sterben
Ġwer ten
Ġwo durch
olog ien
Ġunter halten
Ġsu ck
Ġfl asche
Ġdurch einander
Ġsy lv
Ġart istic
Ġgeb ildet
Ġgeb Ã¤udes
Ġbef assen
Ġprodu ktivitÃ¤t
Ġschw anz
Ġinc ident
Ġ4 3
ĠzurÃ¼ck kommen
Ġgleich ung
Ġrel ation
Ġrel ax
Ġgegen stand
wh o
gel aden
Ġmor ality
Ġstand punkt
Ġber keley
str Ã¶
Ġlar ry
Ġje ans
Ġcap ability
Ġcap ita
Ġunder lying
Ġmann es
Ġtrain ieren
zeich nung
li est
less ly
Ġcons ult
Ġwert sch
Ġange kommen
Ġsuccess fully
Ġeinge baut
Ġsum me
Ġinspir ing
Ġach se
Ġrobot ics
Ġprim arily
Ġstrateg ien
ex per
ĠmaÃŁ nahmen
ĠÃ¼berw ach
Ġlief ert
Ġdruck er
Ġprec ise
Ġreport s
Ġine quality
Ġcrow ds
Ġisol ated
sta aten
Ġshap ed
spra ch
Ġbub bles
Ġrecy c
Ġeinzigart ig
Ġnahrungs mittel
Ġrare ly
ĠschÃ¤d el
Ġsar ah
Ġlock ed
Ġdialog ue
Ġlawy ers
Ġphosphor us
Ġproport ion
Ġanerk ennung
Ġforgot ten
Ġhun ting
Ġresil ience
Ġschrei be
Ġwohlbe finden
Ġsill y
Ġkohl end
gebÃ¤u de
Ġverpf lich
Ġgraff iti
Ġassoz i
Ġdownt own
Ġexcell ent
c s
f our
k i
l iste
u ff
w ed
Ġ ]
Ġt ong
Ġw ise
Ġw are
Ġm att
Ġn aked
ou st
Ġbe wohner
Ã¼ hren
ra nd
Ġzu letzt
Ġj ag
Ġer krankungen
Ġsch ieÃŁen
ver kehr
ck ets
Ġdo od
Ġmit glied
Ġch op
Ġma hl
qu ent
Ġvor kommen
ap ed
ack t
Ġbr Ã¤
Ġfa kt
wo hnt
Ġbet reten
Ġfl our
Ġob dach
Ġtra ject
Ġpo inted
Ġmar sch
Ġdam n
Ġdis ag
Ġ3 8
Ġac id
Ġhin weise
Ġwieder auf
igkeit s
Ġsur faces
Ġwr iters
Ġnum er
Ġbeh Ã¶r
Ġans ichten
Ġmat he
mo le
Ġged uld
Ġur an
Ġgest altet
Ġsuper markt
Ġwohl haben
Ġpain ted
Ġdiscover ies
Ġdau ghters
Ġerh ielten
Ġmechan isms
amer ican
ĠÃ¤r ger
Ġentscheiden de
Ġpal Ã¤st
Ġentdeck ten
jen ige
Ġgele hrt
Ġempf ind
ĠschÃ¼ lern
Ġauszu drÃ¼cken
Ġprotect ing
Ġsuggest ing
Ġrepresent ation
Ġignor ance
gleich en
imin als
Ġlehr ern
Ġtherap ie
Ġspect acular
Ġsubst ant
Ġchair s
Ġconcl ude
proble me
Ġreligi Ã¶sen
wissenschaft ler
Ġarchitect ural
Ġkompliz ierter
Ġstift ung
Ġradik al
ĠjÃ¤hr lich
Ġannoun ced
ĠzusÃ¤tz liche
Ġverring ern
Ġspeich ern
ĠerwÃ¤r mung
Ġsupern ov
Ġkompr om
Ġmcdon ald
Ġprax is
Ġwohlt Ã¤t
c ause
d auer
f ield
k il
m ungen
w an
en hagen
in kt
Ġi g
Ġb anken
Ġthe ories
re in
Ġf esth
Ġn ap
Ġin ches
or ing
Ġl ord
Ġc iv
Ġv Ã¤ter
Ġk ugel
Ġy e
Ġj up
Ġre iste
ot ion
ge gangen
ke te
Ġsch ad
ver l
Ġle er
th iop
ill en
ag n
Ġwer ke
Ġtr ennen
Ġpl ain
etz ten
Ġbr ie
sp unkt
Ġind o
Ġzwe ites
ak ul
ges und
ges ted
Ġdr ast
erst er
Ġmal es
Ġele gant
Ġstr ip
Ġfre ud
Ġpar li
Ġfun ktions
Ġhim m
Ġla id
pf ten
Ġber gen
Ġbill iger
ĠÃ¤ sth
ĠÃ¤ thiop
Ġur he
Ġschnell e
Ġpra g
Ġinno cent
Ġsex uelle
tem per
Ġsou p
Ġdel iber
Ġbel oh
Ġalt ru
Ġsens ory
Ġed ges
Ġexc use
Ġrich ter
wor ld
Ġange passt
Ġverm ute
Ġball on
Ġpick ing
Ġfahr zeuge
Ġemer ge
Ã¤uf ig
Ġwild life
Ġverbra ucht
Ġmeth ane
Ġruss ian
Ġumf ang
Ġcharacter istics
abet h
Ġimmed iate
Ġnachhalt ige
Ġheut ige
Ġelektron ik
Ġmont ana
Ġuntersche idet
ĠkÃ¤ fer
Ġfrustr ation
Ġamazon as
Ġdopp el
Ġsurprising ly
Ġchromos ome
ĠkÃ¶ pfen
Ġeleph ants
ĠzukÃ¼nft ige
Ġdrag on
Ġkombin ieren
ĠeuropÃ¤ ischen
Ġausgeb ildet
Ġerled igt
Ġungleich heit
Ġlawy er
Ġkooper ation
Ġirr ational
Ġbesche id
Ġstro ke
Ġaustaus ch
fle isch
Ġbonob os
Ġcolumb ia
Ġuncertain ty
Ġtriv ial
Ġausein anders
Ġgenoc ide
Ġspagh etti
Ġsylv ia
Ġjup iter
b ow
b art
c ond
f am
f ische
k ter
l Ã¤sst
r Ã¼ckt
u ens
v y
w hen
Ġt ied
Ġd utzen
Ġth un
Ġth umb
Ġm ate
Ġf ifty
Ġn az
Ġin ne
Ġin halte
Ġp est
Ġk iste
Ġto llen
un ft
Ã¤ lle
ro tt
Ġan kommen
Ġdi ve
Ã¶ tt
Ġver tre
Ġver teilen
Ġver sprechen
Ġab gest
Ġab ilities
ach se
Ġsch lieÃŁt
Ġge wohn
Ġle b
Ġauf trag
ff in
Ġwar te
Ġwhat so
enn ess
Ġex ter
Ġex tended
ik ely
Ġsh ir
Ġwo hnen
ap es
Ġnach frage
Ġnur ses
Ġro ss
Ġro yal
Ġbl ah
Ġwelt weite
Ã¤n zen
Ġtra d
Ġtra ge
Ġpo cken
Ġcl ust
Ġneed le
able d
Ġlie bes
Ġgel angt
Ġbest ra
Ġbek annte
Ġcomm ission
Ġben zin
igh ter
Ġpat ri
Ġenerg ien
zent ren
Ġko ch
ĠÃ¶ fter
Ġsl um
Ġvis ited
Ġur knall
Ġcam er
kun st
Ġenergie verbrauch
Ġgest altung
Ã¤us cht
Ġoper ationen
Ġschwier igen
Ġstim ulation
Ġdev il
Ġexperiment al
Ġerk unden
Ġarg ent
ĠfrÃ¼ hl
Ġdist inct
Ġwest liche
Ġflug zeuge
Ġverein f
Ġtext book
Ġbedeut end
Ġ198 4
Ġsil ent
Ġterror ists
Ġgewor fen
Ġakt uellen
Ġeffe kte
Ġschwe igen
Ġbur st
Ġpun kten
Ġblut gef
Ġdynam ik
Ġnutz er
Ġroll ing
Ġfab ulous
rel ated
Ġpredict ions
Ġsele ct
Ġauswirk ung
Ġafrikan ische
Ġprofit ieren
Ġassoc iation
Ġweib chen
Ġexpand ing
esth es
Ġsenten ces
Ġkapital ismus
Ġbeit rag
bur ger
Ġgentle man
Ġecosystem s
ĠÃ¼berle bt
Ġtreib stoff
Ġfrequen cy
Ġphysic ist
Ġautonom ous
Ġstoff wechsel
Ġobserv ation
ĠungewÃ¶hn lich
Ġerled igen
Ġstrang ers
Ġangesch aut
Ġperce ive
Ġentschuld igung
Ġunl ikely
Ġdetermin ed
Ġgewin nt
Ġinstru ctions
Ġastron aut
Ġorchest ra
Ġabsur d
Ġwats on
oen ix
Ġwhatso ever
c ular
c ement
f ang
g elt
i hood
k al
n ik
o sten
p rechen
z ne
Ġs ab
Ġth rew
Ġb other
Ġb Ã¤umen
Ġh ass
re ise
Ġg ur
st op
st age
Ġf ought
it u
it udes
Ġp unch
Ġl ith
Ġl Ã¤ng
Ġk ok
Ġto te
le ger
le ep
Ġbe ars
ig an
ed ay
ut ical
Ġha ust
el and
Ġse il
Ġj ug
Ġj Ã¼d
Ġre ject
Ġun e
Ġun pre
Ġun angene
Ġer krank
ge kommen
Ġsch all
Ġsch ief
Ġr Ã¤um
Ġauf einander
men gen
ul are
Ġor b
Ġtr ink
Ġmensch lichkeit
âĢ ¹
ĠâĢ º
Ã¤nd ler
Ġunter halb
Ã¶r tern
Ġwork sh
Ġbl ame
Ġbl icken
chn et
ip end
ip her
Ġbeg un
Ġzwe ie
rei ze
lie be
Ġpart ly
Ġvers orgung
Ġdr innen
Ġ3 4
Ġhin weis
Ġgeb lieben
Ġreg ist
Ġaut ob
Ġplan ung
ren z
Ġenerg ies
Ã¤u b
ĠÃ¶ st
Ġrec ru
ock en
reich end
Ġtre ibt
Ġhund erten
Ġsen ken
Ġlab s
Ġfriend ly
ĠschÃ¶n er
Ġfort gesch
Ġtem pt
Ġoper a
Ġhor ror
bed ingungen
Ġflug hafen
Ġgrand children
go ing
Ġprop osed
Ġoptim ism
Ġbur den
Ġnord amerika
Ġnutz ten
Ġtoll es
Ġblick winkel
Ġband breite
Ġport ug
Ġcross ing
Ġvac uum
Ġindustrie lle
Ġtoile tten
Ġelektron en
Ġunf air
Ġmix ed
Ġstrug gling
Ġfrem de
Ġschlag ze
ĠkÃ¶ pfe
gro ÃŁ
Ġnutr ition
Ġnutr ients
Ġtedtalk s
Ġoct ober
Ġinevit able
Ġokt ober
Ġinvolv iert
Ġcorresp ond
ĠstÃ¤m me
Ġpaz ifik
Ġunbelie vable
Ġgebur ts
Ġrefr iger
ĠzwÃ¶l f
Ġwheelch air
Ġkohlend ioxid
f tet
i essen
k inder
l ah
u erung
Ġd Ã¼
Ġw aters
Ġth ail
Ġb h
Ġb ureau
st at
Ġp ic
or al
ar zt
Ġv in
al ay
Ġbe inen
Ġwe inen
ent h
ro g
Ġzu geben
Ġver pack
Ġon kel
Ġr atten
Ġle it
Ġim pression
sen d
sen se
Ġar row
Ġar ray
Ġwer be
Ġsom eday
ĠÃ¼ber setzt
Ġcon front
Ġkn oten
Ġbes ides
Ġnoch mals
Ġsc iences
Ġlie bt
Ġdr Ã¼ber
Ġgel Ã¤h
Ġaut oren
ri ffe
Ġbi otechn
Ġeinz iger
Ġko st
Ġgegen stÃ¤nde
Ġhim alay
Ġfall e
Ġverl angt
Ġrec ip
oren en
Ġfound ed
Ġerz ielen
bo le
mit ten
Ġdre imal
Ġbed ienen
Ġmot to
ĠhÃ¶ hle
Ġbew und
Ġhar bor
legen en
Ġcur ren
Ġphot ographer
Ġeduc ated
Ġident ified
Ġeing ang
Ġeg g
Ġbevor zu
Ġtreat ments
Ġconf ident
Ġpred icted
Ġerstaun lichen
Ġoptim istisch
Ġce iling
Ġsal z
Ġaltern ativen
Ġexcept ion
Ġfail ing
uell es
Ġgrad ually
Ġparticip ants
Ġcollabor ative
Ġaffect s
Ġdescri ption
Ġisol ation
Ġabsch lieÃŁen
Ġshar p
ĠauÃŁergewÃ¶hn liche
Ġberuf s
Ġschm utz
Ġdur fte
Ġprivat sphÃ¤re
Ġirgendein er
Ġgather ing
Ġdefinit iv
Ġprep are
Ġdienst leistungen
Ġbow l
Ġabgesch lossen
Ġauftau chen
Ġkenn edy
Ġlou is
Ġalb um
Ġjosh ua
Ġthir ty
metho de
Ġbemerkens werte
Ġeval u
Ġparaly zed
Ġeinzus etzen
Ġdurchzu fÃ¼hren
erster blichkeit
Ġtrad itions
g Ã¼lt
k lichen
m akers
o vo
r Ã¶
w ellen
Ġ Ã¤ngste
Ġd y
Ġw i
ch a
Ġs isters
Ġm isst
Ġh itting
Ġe uer
st el
st ad
Ġf i
Ġf et
Ġn imm
Ġin mitten
ar an
Ġl ak
Ġl enken
Ġto oth
Ġz ogen
Ã¼ cht
Ġwe lle
Ġder art
Ġzu hÃ¶r
Ġer fordert
ct us
Ġdo ors
Ġauf stieg
Ġar du
Ġbut ter
ell ed
Ġcan yon
we hr
Ġor th
Ġor ang
ad ays
Ġsom al
ĠÃ¼ber fl
ik ationen
Ġma ÃŁe
Ġtr ash
Ġcon vert
ne ur
Ġen ables
Ġkind ersterblichkeit
Ġro ver
Ġfa vel
Ġper mission
Ġgesch lagen
ĠgroÃŁ vater
Ġbeg rÃ¼
form t
ace utical
Ġbu cks
Ġland ete
Ġpass age
Ġmed it
ord ination
Ġerf uhr
Ġpa v
Ġsec rets
Ġverw und
Ġbesch Ã¼tzen
sum men
Ġsicher stellen
Ġdat ens
rat or
Ġsuch ten
Ġhar ry
Ġna ir
vie wer
Ġkop ieren
Ġfund ed
lichkeit en
Ġjun k
Ġrich er
Ġdist anz
Ġner ve
Ġmeas ures
Ġsold ier
Ġexplain ing
Ġfern seher
Ġexpect ancy
Ġsamm lung
Ġstrong ly
Ġphotograph ed
Ġop enness
Ġflow s
Ġreich er
Ġbur ied
Ġemer ged
Ġrefle x
Ġfinanz ieren
ĠÃ¼berw Ã¤lt
Ġsleep ing
tr ans
Ġvert ik
Ġparticip ation
Ġep is
Ġdoc uments
Ġbegri ffen
ĠerhÃ¶ h
Ġclim bing
Ġbenutz er
ffic ient
Ġdiagn osed
ĠerfÃ¼ ll
Ġkontin u
Ġvulner ability
Ġbudd ha
Ġunw ahrscheinlich
Ġumge kehrt
Ġcateg ory
Ġdolph in
Ġfebru ary
Ġeink auf
Ġaggress ive
Ġeb ay
ĠlÃ¤cher lich
Ġdatab ase
Ġglet scher
gewe be
ĠglÃ¼h bir
Ġneoc ortex
Ġcurric ulum
Ġcot ton
Ġparli ament
Ġurhe ber
Ġfortgesch ritten
a ders
b ungen
c am
d liche
g on
k Ã¤
l ar
l isten
s he
Ġs its
Ġb ored
as on
as ien
as ha
an or
Ġf id
Ġf da
it as
Ġl h
Ġl ingu
ing ung
Ġk auft
Ġein stellen
Ġz y
et ik
ro ad
Ġan pass
Ġdi kt
Ġst ones
Ġre chnen
Ġver mittelt
Ġun em
gen den
sch ir
Ġsch ichten
Ġsch rieben
Ġr ank
ver hÃ¤lt
Ġall zu
ck end
Ġle ather
Ġle verage
Ġauf geben
au ert
ess el
Ġli by
Ã¶n e
Ġma i
her z
Ġpeop les
Ġnow adays
Ġgen en
Ġcomp r
Ġnur se
ia c
Ġind ire
Ġph oenix
Ġmill ise
ĠwÃ¼r dest
Ġdu b
Ġgra ben
Ġbef ried
Ġcar l
Ġok lah
Ġerf re
Ġgef r
Ġko ordin
Ġspiel ten
gel d
Ġpower point
Ġexp os
co hol
Ġstra hlung
Ġlab el
ĠauÃŁer ird
Ġsta ke
Ġret ina
Ġbar bar
Ġass emble
Ġsix th
cl a
Ġkurz er
Ġanswer ed
Ġfrag ile
Ġstatt finden
Ġlau g
Ġgenet ically
Ġverein ten
Ġsum mar
Ġeth ical
Ġsil ver
Ġmain stream
Ġarbeits platz
Ġverwand ten
Ġsmart phone
Ġwebs ites
Ġimpact s
ierend es
Ġqual ities
Ġec ological
ĠhÃ¼ gel
Ġroll stuhl
Ġann Ã¤her
Ġgraph ic
Ġgeheim nisse
ĠgefÃ¼ llt
Ġtransl ation
Ġanaly ze
Ġabend essen
ĠwÃ¼ sten
Ġham mer
ĠursprÃ¼n gliche
Ġkore an
Ġmyster ious
Ġwundersch Ã¶nen
Ġkreis lauf
sichtig t
Ġverwir r
Ġfo ster
Ġbewir kt
Ġfabrik en
Ġkompliz ierte
Ġneut r
Ġbeschre ibung
Ġcateg ories
Ġcolon ies
Ġsubt le
Ġbeet ho
Ġlegit im
Ġkorre kt
Ġoccasion ally
Ġbanglades h
Ġanzusch auen
Ġsynd rome
Ġweihnacht s
Ġalas ka
b elt
f a
i ess
i ance
k asten
m Ã¤r
Ġa pfel
ch anging
Ġs ib
on ing
re volution
as ters
Ġu e
Ġe ll
an as
st Ã¼r
st one
Ġf ib
it ous
Ġn ike
Ġc ake
Ġk alk
Ġbe endet
Ã¼ re
Ã¼ hrt
ed es
et ics
Ġj ay
Ġst unt
Ġun n
Ġab zusch
sch le
Ġal cohol
Ġsch ienen
Ġle e
Ġle wis
be weg
Ġmit teilen
Ġli est
ag ue
Ġmo chte
uch te
Ġfr isch
Ġfr essen
Ġde cent
end ed
Ġma is
Ġen h
for dern
Ġco ordin
Ġnur t
Ġbr uch
Ġkom isch
Ġag greg
Ġcl ot
Ġart icles
Ġzeit ungen
fl ies
Ġstud ium
ingen ommen
Ġele cted
Ġ5 2
Ġwen de
Ġapp s
Ġmin ing
Ġmom a
Ġweiter machen
Ġdec ember
zent en
Ġgenau e
con t
pf ern
ma ils
bo y
Ġnam ib
ĠlÃ¶ st
Ġsym path
Ġfest ge
Ġverk le
Ġschwer kraft
ĠgroÃŁart iger
Ġobject ive
Ġ199 7
Ġbeob acht
Ġsozial es
iol ogen
Ġconnect ome
Ġsau ce
Ġ16 0
Ġap oll
Ġneg ativ
Ġ14 0
Ġet abl
Ġfolgen der
Ġoptim ismus
Ġanzu gehen
Ġpan els
Ġersch ien
Ġintegr ation
Ġsonnen system
ko lle
Ġcapt ain
Ġinfe ction
Ġriver s
Ġwol ke
Ġanaly t
Ġassum ption
Ġassum ptions
Ġconstru cted
Ġimm igr
Ġangeb ot
Ġfrieden s
Ġreser ve
Ġhack ing
Ġempath ie
minister ium
Ġgall ery
Ġinsel n
Ġhoriz on
Ġpig s
Ġexpon ential
Ġexpon entiell
Ġcondu cted
Ġbull et
Ġbetre ffen
Ġprem ier
Ġreve al
ĠgÃ¼ te
Ġfebru ar
Ġsper m
kat astrop
Ġwhist le
Ġhilf reich
Ġtack le
Ġvit amin
Ġpharm aceutical
Ġanx iety
Ġstorytell ing
Ġkos ovo
Ġdez ember
Ġital ian
ĠtragÃ¶ die
Ġzweie inhalb
d ad
f abrik
g y
g reif
j ahre
k amp
r ick
v iol
z a
Ġw k
Ġm ud
Ġb end
at em
at iver
on sten
Ġh ors
Ġg ad
it ious
Ġl ion
Ġc ert
Ġein wohner
Ġbe ating
Ã¼ ten
ed s
Ġwir ft
Ġan stellen
Ġan zeichen
ow ing
Ġre ducing
Ġun cle
Ġun heim
Ġer satz
ge ist
sch ul
Ġge org
se ll
Ġpro l
Ġwie viele
Ġsp uren
Ġch at
ad or
pp ich
Ġma ker
Ġtr om
Ġtr ium
Ġsh irt
Ġgl or
Ġste al
Ġdann y
Ġmich igan
Ġfra ction
Ġgesch Ã¼tzt
Ġfl ut
if iziert
Ġob jekten
sp ir
Ġpo esie
ph ys
ĠfÃ¼ ÃŁen
Ġkle ider
Ġreg ister
Ġland s
Ġpass ive
ord nen
Ġhal ben
ren ce
isten z
Ġschl ange
Ġend ing
Ġgleich heit
Ġown er
Ġsl aver
Ġser ved
Ġans onsten
Ġcomple ted
Ġcre w
Ġcap abilities
Ġrest ore
Ġmil o
Ġmut ation
Ġgar bage
ĠhÃ¶ lle
Ġcam ps
Ġhome work
Ġhead ed
Ġfort unate
Ġass ess
Ġint rig
hol z
Ġclass ical
app ing
Ġdist ingu
Ġmer ely
aur us
Ġdifficult y
Ġbedeut sam
Ġanfang s
Ġindividu um
Ġindividu ellen
Ġfahr er
Ġterror ist
Ġhom eless
Ġprop os
Ġkat zen
Ġprodukt ions
Ġsug gested
Ġpan el
la w
plan es
kam en
Ġzeich nungen
Ġniger ian
Ġjud gment
Ġtur key
Ġauthor ities
Ġvict im
ĠÃ¤u ÃŁer
col a
Ġgrav it
Ġwid men
Ġchir urgen
ĠabhÃ¤ng igkeit
Ġven us
Ġautor itÃ¤t
ĠverrÃ¼ck ten
Ġprost ate
Ġschaff te
Ġschaff ten
Ġsto ÃŁen
fir men
Ġfel sen
Ġpurs ue
Ġschreibt isch
Ġimpf stoff
esch Ã¶n
Ġminim um
Ġermut igen
Ġdop amine
Ġverdopp elt
Ġrenew able
Ġreven ue
Ġschauspiel er
Ġmisch ung
behÃ¶r de
Ġbene ath
Ġhemisph ere
Ġcoo le
Ġhybr id
Ġethiop ia
Ġbiodivers ity
Ġgered et
Ġethan ol
Ġciv ic
Ġthail and
Ġoklah oma
Ġslaver y
b inden
c ript
g ur
l on
p age
p assung
p iegel
r ang
v io
z ell
Ġt one
in arily
Ġw inning
Ġs her
Ġb ats
Ġh arn
as hing
Ġe chter
it ative
Ġn ich
Ġn Ã¶r
ich erung
Ġl Ã¤nge
Ġv ia
Ġk rab
et tel
ic ial
Ġan zug
Ġdi l
il der
Ġre cept
Ġer den
Ġer mÃ¶glich
Ġer forschung
Ġer ziehung
Ġme al
Ġr h
Ġge ar
ver schm
se ction
be h
Ġdo s
Ġauf fassung
Ġar ter
Ġar zne
ib ri
Ġda wn
Ġher kunft
Ġget re
Ġinter ven
Ġco ckt
Ġpr ies
Ġunter wasser
Ġviel mals
Ġwelt bank
ph an
wer ks
Ġvers ions
Ġtun a
Ġdis ability
Ġstar tete
Ġreal izing
Ġcont rad
Ġthr esh
Ġbest Ã¤u
Ġcar ing
Ġplan kton
Ġinform ed
Ġmet ric
Ġend et
tra gen
Ġcomput ation
Ġinst antly
Ġform ing
Ġown ed
Ġimag ery
az a
Ġted x
ĠerzÃ¤ hlten
Ġ9 8
Ġprof ile
Ġgre if
Ġgest alt
Ġwunder vollen
Ġinvest ors
Ġsub way
Ġsuper market
Ġresearch er
Ġmusic ian
erein ander
yn th
ĠgroÃŁart iges
hand lung
Ġauss ah
Ġocc urs
Ġbreak s
Ġvertra uens
Ġwider spruch
wirk ungen
Ġreich e
Ġprom ote
Ġclos ing
Ġnord kore
Ġpan ik
Ġsuff ered
fre quen
Ġarab ic
ĠwÃ¶rter buch
ĠprÃ¤sent ieren
Ġangeb oten
Ġod ds
Ġmig ration
Ġame ise
Ġunver meid
Ġuntersuch ungen
Ġemiss ionen
Ġhypoth esis
Ġeinzigart ige
Ġreicht um
Ġmerk wÃ¼rd
spre cher
Ġappl aus
Ġeinsch lieÃŁlich
Ġwinz ige
Ġtrop fen
Ġphysic ian
Ġmagn ific
Ġinit ially
Ġjeff erson
ĠberÃ¼hm te
Ġstad ium
ĠbrÃ¼ der
Ġautomob ile
Ġpandem ic
Ġens ure
Ġdeta ill
Ġstattf indet
Ġdut ch
Ġangestell ten
lad ung
zum achen
4 7
? Â«
n ie
s al
s ol
u lly
w achstum
Ġt Ã¤n
Ġt ends
Ġd Ã¤m
Ġw ale
Ġth or
Ġm es
Ġm auer
Ġg a
Ġf ault
it iv
Ġn y
Ġl ud
Ġc ere
Ġc ree
le itung
al ore
Ġbe werten
Ġy emen
Ġan ze
Ġan kl
Ġj ill
Ġst Ã¶rungen
Ġre ale
Ġre cess
ot te
Ġer b
ier bar
ke i
ol ic
op ic
ber gen
Ġauf stehen
Ġauf lÃ¶sung
Ġwar ning
Ġcan opy
uch sen
ĠfÃ¼r chte
qu ot
Ġsh or
Ġsh ore
Ġent r
Ġout er
Ġkann ten
Ġro pe
Ġbr ennen
Ġviel zahl
Ġdurch messer
Ġbra d
Ġind ians
Ġcl uster
ple x
ĠfÃ¼ n
Ġlie der
Ġdr one
Ġac cent
Ġstr ike
Ġsm arter
Ġbest re
act ive
Ġerf asst
iss ance
Ġzw ingen
Ġschl Ã¤gt
Ġ4 50
Ã¤u le
Ġfar ms
Ġbewe gte
Ġsk etch
Ġser ving
Ġerst mal
Ġber ichtet
Ġmag ical
bo gen
ĠÃ¤ qu
Ġstre iten
Ġfast est
Ġbegin ne
schl Ã¼ssel
Ġnormal es
Ġrad ically
Ġinvest ing
Ġru in
Ġkomple tte
Ġchem ischen
Ġremember ed
Ġarchite kt
Ġherz lichen
min ute
Ġkill s
Ġed itor
Ġconf used
Ġbezie hen
Ġmittel punkt
Ã¤cht igen
Ġkomplex er
Ġaktiv ieren
Ġprogramm ing
gra ben
ĠverfÃ¼ gen
Ġverh indert
ĠrÃ¼ck wÃ¤rts
Ġdeut schen
Ġhon ig
Ġther m
Ġapproach es
Ġinse ct
ĠgrÃ¶ÃŁer es
Ġsimilar ly
Ġhine inge
Ġherr scht
Ġaufre gende
gemein schaft
Ġfinanz iert
ĠÃ¼berw achen
Ġdete ction
Ġbang alore
Ġdepression en
Ġluck ily
Ġglass es
ĠunabhÃ¤ng igkeit
Ġmobil itÃ¤t
Ġausl Ã¤nd
Ġeffekt iver
Ġdemand s
Ġfrem d
Ġausw Ã¤hlen
Ġjul ian
Ġunc ons
Ġrhyth mus
Ġshock ed
Ġklass ische
Ġchann els
Ġut op
ĠunglÃ¼ck licherweise
ĠÃ¼berzeug ung
ĠÃ¼berqu eren
Ġausgew Ã¤hlt
Ġdemograph ic
Ġextens ion
Ġverur teilt
engine ering
urop a
Ġdiszipl in
Ġherange hen
Ġimpul se
Ġnirgend wo
Ġzehntaus ende
sah aran
Ġsimult aneously
temper atur
ĠfrÃ¼hl ing
Ġlaug hing
b ia
f as
r iers
r Ã¤umen
y our
Ġd j
Ġi q
Ġm Ã¤use
Ġh an
Ġg Ã¶tt
as te
Ġp ens
Ġc ats
Ġein heiten
Ġein richtung
Ġbe Ã¤ngst
ig ent
Ġy og
Ã¤ ften
Ġwir es
em iss
Ġan kommt
Ġan reize
Ġse qu
Ġst ach
Ġst au
Ġst Ã¤nd
Ġre per
Ġab sen
Ġab stand
Ġal an
Ġge ko
Ġle eren
op ol
Ġne ck
Ġmit hilfe
ess or
Ġuns icherheit
Ġch ances
we ge
out s
Ġdes kt
qu al
Ġvor les
Ġvor bild
Ġcon vey
Ġsh it
Ġsh ots
Ġwo ke
Ġent ering
Ġget ragen
Ġco ke
Ġbr ig
Ġbr id
wo llen
Ġta kt
Ġsc ot
Ġsc ores
Ġtra cks
ob s
Ġwirk sam
Ġtechn isch
hn te
ĠfÃ¼ hlten
ac ement
Ġmar ry
ger ung
Ġdr ivers
ingen ie
Ġhand lung
ody nam
Ġselbst ver
Ġstr at
Ġteil t
Ġfact ories
Ġrem aining
Ġkr imine
Ġform ation
Ġspiel s
zie lt
Ġsicher er
Ġsicher zustellen
Ġeig entlichen
Ġson nt
Ġ9 00
Ġsupp orted
Ġbre ite
Ġhar mon
Ġant rieb
Ġtest oster
Ġengl ische
Ġsub mit
Ġ18 5
Ġwind s
Ġpap a
Ġred et
anc ing
cl ock
Ġlea f
Ġappro xim
Ġmult ip
neh mern
Ġkreat uren
Ġindividu elle
Ġstay ing
ĠtÃ¶ chter
Ġhervor ra
Ġrespons es
Ġflow ing
wirk ung
Ġpath ogen
Ġmeth an
Ġerfolgreich e
Ġvern unft
Ġkal orien
Ġtransl ated
Ġfoss ilen
Ġamb ig
Ġattra ctive
rÃ¤n kt
Ġheil igen
ĠtÃ¤ glichen
Ġext inction
Ġthrow ing
Ġmel od
Ġmig r
Ġoffic er
Ġadop ted
ky o
Ġgather ed
Ġacadem y
Ġfreiwill igen
Ġbeschleun igen
gener ation
Ġgee ignet
Ġcontr ary
Ġgeschlecht s
Ġunend lich
Ġvieler lei
Ġtenden z
Ġtenden cy
Ġnegot i
ĠvergrÃ¶ÃŁ ern
Ġkonkur renz
ĠnÃ¤hr stoffe
Ġadvent ure
Ġdeta iled
Ġultra vio
Ġbrow ser
Ġmittag essen
Ġskulpt ur
Ġenthus ias
Ġelder ly
ĠerwÃ¤hn te
ĠauÃŁerord entlich
Ġasth ma
Ġtraject ory
Ġprag mat
1 5
3 00
a issance
f ly
g ott
l ime
o ying
r ent
t op
u x
en kt
Ġa ven
Ġa ims
Ġd umb
Ġw ut
Ġm ild
Ġb att
at tet
Ġh ud
Ġh als
Ġh ills
Ġe i
Ġf uss
Ġin ch
Ġin vested
ar in
Ġl Ã¼cke
Ġc n
Ġc ad
Ġc ows
Ġk in
Ġk iss
Ġk ansas
Ġein nehmen
al ie
al tete
Ã¤ le
et on
et ragen
em an
Ġan liegen
Ġre bell
sch mer
Ġsch er
Ġsch olar
Ġr ats
ver lÃ¤ss
se ktor
Ġdo se
Ġauf klÃ¤r
Ġhe ft
Ġsp ain
Ġaus land
Ġum setzen
ad ing
ĠÃ¼ber setz
ĠÃ¼ber lassen
qu ar
her es
Ġsh ips
Ġsh ipping
ste te
ste ht
ast roph
Ġhier fÃ¼r
Ġinter viewer
tw o
Ġcomp ete
Ġste am
Ġste ine
Ġbl ink
Ġbet onen
sp iele
mal en
ĠgroÃŁ em
Ġverb oten
Ġdis rupt
Ġgew inner
Ġreg ional
Ġgra uen
Ġerf and
Ġerf indungen
Ġschl icht
tra um
Ġinst inct
ĠmÃ¶glich st
Ġdan eben
Ġhelp ful
co st
Ġnam ely
Ġplace bo
Ġchar ges
ced ented
Ġwissenschaft lich
Ġeng ines
Ġdre w
cy cl
Ġspra y
Ġarch iv
Ġair planes
Ġfig uren
Ġpsych o
Ã¤um t
Ġprin ted
ho le
Ġperfe kten
Ġinstit ut
Ġdel ph
Ġloc ated
Ġsens ation
hau st
Ġ199 6
Ġster blichkeit
Ġnon profit
Ġinde pendence
Ġgenet ics
Ġimpro ved
Ġfantast ischen
Ġmechan ics
Ġzent imeter
Ġwider sp
Ġexpect ing
ĠÃ¤r zten
Ġgol iath
Ġumgeb ungen
ban on
Ġkranken schw
Ġreich weite
Ġvortra gs
Ġregen wald
Ġske leton
Ġgraph ics
Ġsus p
Ġindustrie llen
Ġfeuer wehr
Ġspre cher
ĠhÃ¤uf iger
Ġham burger
Ġfac ilities
Ġsubst ance
Ġbudget s
ĠursprÃ¼n glichen
Ġliebl ing
Ġemail s
entwick lung
Ġschwarz es
Ġglam orous
Ġren aissance
Ġspekt akul
Ġanalog y
Ġgun s
Ġeingesch lossen
Ġreligi Ã¶se
Ġstor m
Ġkombin iert
ĠtÃ¤t igkeit
zÃ¤ hler
Ġportra its
Ġmagn itude
Ġfinanzie llen
ĠberÃ¼hm ten
Ġpreser ve
Ġverzweif lung
Ġbesche iden
Ġhilfs mittel
Ġscen ario
Ġcompar ison
ĠwÃ¼s sten
Ġbeiz u
Ġprepar ing
Ġfokuss ieren
Ġmush room
ĠstÃ¤dt ischen
hum an
Ġbasket ball
Ġpitt s
Ġgenere ll
Ġrehabil itation
gesund heit
Ġdutzen de
Ġunpre cedented
Ġardu ino
Ġnair obi
Ġclot hing
Ġuncons cious
? '
b at
h Ã¼
k ern
n ull
q a
y ard
Ġw inkel
ch ungen
Ġth us
Ġm Ã¼n
on to
re aktion
Ġg aps
an ch
Ġf ang
Ġn ico
ar ma
Ġl amp
Ġl ama
Ġk as
te ms
Ġto kyo
Ġbe ck
un ion
ut nik
Ġso le
Ġan nahmen
Ġzu einander
Ġj enn
ot on
Ġun aus
Ġun able
am as
Ġer t
Ġal ice
ct ica
Ġr Ã¤umen
Ġge gl
Ġle one
Ġne pal
Ġgo ds
Ġuns icher
Ġaus re
ad ed
Ġte ure
Ġpe ers
Ġsh ine
Ġpl Ã¤ne
Ġwo hnung
Ġher it
Ġhier bei
Ġdar zustellen
Ġmein ungen
Ġam pl
ah me
Ġfe ucht
Ġper cept
if ice
Ġpo nd
Ġzwe iter
Ġzeit gen
Ġverb orgen
Ġkle tter
bl asen
Ġac oust
gr at
gr iffe
Ġgel ingt
Ġglau b
Ġinc or
Ġ4 7
Ġgleich er
Ġkam er
Ġklein eren
Ġsoc ially
Ġsk iz
Ġser ver
Ġpoint ing
Ġstra f
imm ern
Ġdra ussen
Ġged e
Ġ8 6
Ġprof its
Ġdank eschÃ¶n
ĠglÃ¼ck liche
par ents
Ġbiolog isch
Ġinvest oren
Ġoffen heit
Ġ18 0
Ġval id
Ġkop ie
com mun
Ġcho osing
Ġdist ur
Ġverr aten
fÃ¤ llt
Ġgenet isch
Ġschre ib
bere iten
Ġcy cles
Ġemp ir
Ġgewalt ige
Ġexplain s
Ġlehrer in
Ġ201 5
Ġstrateg ic
Ġfarm ing
Ġarbeits plÃ¤tze
Ġmanag ers
Ġcomb at
Ġcover ing
Ġanw Ã¤lte
Ġlaut er
Ġkan ad
Ġspan ish
krie gs
Ġtraum a
Ġignor anz
Ġtur k
Ġminds et
Ġverletz ungen
Ġtrag ic
Ġvari able
techn ik
Ġstraight forward
Ġmedikam enten
program me
Ġprinc eton
Ġjump ed
Ġfotograf iert
Ġremind s
inter est
Ġmanip ulation
ieÃŁ t
Ġfrustr ated
ĠkÃ¶nig reich
Ġwealth y
Ġbomb ard
Ġwid ely
Ġsnow den
Ġconserv ative
look ing
Ġveget ables
Ġanru fen
Ġbrenn stoff
Ġpair s
Ġinsight s
Ġinteraktion en
Ġgree k
Ġmak ers
Ġantar ctica
Ġregard less
Ġerlaub nis
Ġhindern isse
Ġcous ins
bom ben
Ġlieb sten
Ġoverwhel ming
mom ent
Ġhaw king
Ġproced ure
Ġdring end
Ġub iqu
bab we
Ġguarante e
Ġpropag anda
Ġschokol ade
Ġvene zu
Ġtong ue
esthes ia
Ġunem ploy
. -
: "
c ut
f ot
g ood
k no
l Ã¶sen
m ag
m eld
n isses
t ake
u cken
Ġt ipp
Ġd ala
Ġi tems
Ġm m
Ġm ol
Ġb Ã¼nd
Ġb oun
Ġf its
Ġn sa
or ig
Ġc red
Ġto de
le iter
om ed
Ã¤ ÃŁe
ion ale
Ġan ziehen
Ġj ord
Ġj ihad
il ty
il itÃ¤t
Ġre ass
Ġal ign
ct u
Ġsch Ã¤tze
Ġle v
Ġle an
op us
Ġpro ven
Ġman us
Ġmit gebracht
au d
au ch
au chen
ag ent
ÃŁ ig
Ġwar ren
Ġar ro
Ġbut t
kt ive
ist et
aus chen
Ġaus reichend
he a
Ġor chester
ab druck
Ġum frage
Ġges pe
Ġma pping
Ġpl atten
ne ys
Ġen for
Ġher be
Ġkn ife
Ġgen ie
Ġgen ial
Ġup side
Ġste wart
ide e
Ġqu it
Ġbet r
Ġdurch aus
Ġdurch laufen
ĠmÃ¶ bel
Ġlo ves
fl os
Ġdr ones
Ġgew achsen
bl icken
Ġger Ã¼st
Ġgra ve
Ġbef ol
Ġmed itation
Ġfre ue
br Ã¼che
Ġfun k
Ġzusammen fassen
Ġmin imal
Ġrel iable
Ġgef il
sy lv
Ġerst mals
Ġjeder mann
ider s
Ġstu fen
Ġ6 4
Ġdre ck
Ġcap e
Ġstre cke
Ġ9 6
Ġhealth ier
Ġbew ert
ĠheiÃŁ e
Ġarm ed
Ġabsol v
Ġbad ly
Ġprin ter
Ġaller er
Ġmess er
Ġcons istent
Ġries iger
fol g
Ġphil ip
Ġphil adel
Ġ199 1
Ġkap it
Ġak ust
gra ph
Ġsolar energie
Ġprozess es
Ġsurv iv
Ġrepl icate
ĠtÃ¶ tet
Ġdraw ings
Ġtransport ieren
Ġec ology
Ġjournal ists
Ġinclud ed
ieg eln
Ġprofession als
Ġleist ungen
ĠtÃ¼r kei
ĠmÃ¼ he
Ġdeliver y
Ġrat io
Ġrain forest
Ġmagaz in
Ġaccount s
Ġthreat s
Ġappear ance
gere cht
Ġwhe at
Ġsignific antly
Ġamb ul
Ġinfluen ced
Ġprison ers
Ġles er
Ġcha ot
Ġkol onie
Ġkonsum ieren
Ġauft ritt
Ġhonest ly
uls ion
Ġvent il
Ġprofound ly
Ġorg as
Ġappar at
ĠerÃ¶ff nen
Ġpuzz les
Ġaddition al
Ġbeeind rucken
ĠÃ¤lt esten
Ġberechn ung
Ġerr ors
Ġfreiwill ige
Ġstor age
Ġanh Ã¤nger
Ġschick ten
Ġrub ber
Ġdop amin
Ġrout ine
Ġverzweif elt
Ġintuit iv
Ġimpress ive
frei heit
Ġdiscipl ine
Ġspann ung
Ġdeser ve
bewusst sein
Ġenl ighten
Ġgefol gt
Ġreihen folge
Ġneander th
Ġjelly fish
Ġfesth alten
Ġbeetho ven
quar ters
cycl op
Ġdala i
sylv ania
Ġphiladel ph
a hen
g Ã¼nst
j ac
m ines
p sych
s rate
t ail
z el
z Ã¤hlen
in ational
Ġa ur
ch all
Ġs ank
Ġs na
Ġb ert
Ġb Ã¶r
Ġb alk
Ġh unt
re y
Ġo m
Ġf ass
Ġf ile
Ġf assen
Ġf ancy
it Ã¤re
Ġin tel
Ġp end
Ġc odes
Ġto ss
le ans
le itet
Ġy r
ro llen
Ġsie b
Ġan zunehmen
Ġse iden
Ã¶ kon
Ġun in
Ġun he
am ed
ach es
Ġge o
Ġle ere
th a
Ġas ian
Ġaus probieren
Ġor leans
os ion
Ġex em
Ġex cess
Ġinter ior
ain t
Ġbl ess
ĠmÃ¶ cht
Ġzur zeit
Ġtra ins
Ġpo ckets
Ġmar vel
ungs weise
Ġbef Ã¶r
Ġfre it
auf nahmen
ichte ten
Ġsm oking
Ġcar pet
Ġmet rop
Ġgu id
Ġsim on
Ġend es
Ġgrund lagen
Ġwel fare
Ġsl ime
Ġbesch affen
Ġrec all
ock s
pf te
Ġber at
gef asst
att oo
Ġged reht
Ġmark er
Ġur ge
Ġur laub
Ġglobal er
Ġmot oren
Ã¼t te
ĠhÃ¶ hen
Ġbew Ã¤ltigen
Ġlu c
Ġbuch es
Ġid iot
ane ous
Ġbar rier
Ġ12 5
Ġtrain iert
Ġlicht s
Ġcal m
Ġflie ÃŁ
Ġwicht igkeit
ĠkÃ¼ sten
Ġed in
Ġed ward
Ġzer brech
Ġmult inational
Ġbeob achtung
Ġwand ert
Ġbott les
Ġconnect s
Ġaktiv iert
Ġsqu ee
Ġlog isch
fra uen
Ġsud an
Ġjohn ny
Ġprim aten
Ġrepl aced
Ġansch au
Ġschwe fel
Ġeinges tellt
Ġclos est
ieg elt
Ġann ual
Ġfaszin ierende
Ġinfe ct
Ġelement ary
Ġprec ious
Ġnan otechn
Ġnotwend igkeit
Ġbeobach tete
Ġtes la
Ġ194 5
Ġkonstru ktion
Ġstabil itÃ¤t
Ġcustom er
Ġshr ink
Ġethn ic
Ġdiskuss ionen
Ġprevious ly
Ġsurge ons
Ġerweit ert
ĠprÃ¼ fen
Ġwra p
Ġfiber s
Ġpenn sylvania
Ġcosm ic
Ġcous in
Ġobst acles
Ġunmittel bar
Ġverhe iratet
Ġcer em
Ġkrankenh Ã¤user
Ġowners hip
Ġunterr ichtet
Ġwirtschaftsw achstum
vielf alt
Ġcab in
Ġsund ay
Ġachiev ement
mole kÃ¼
Ġhimm els
Ġcurren cy
emiss ionen
Ġnico le
/ &
c ra
d el
f erence
h ier
h all
h eld
i hr
k ward
m ap
n ed
p es
r ien
r ische
t ag
v ity
Ġt attoo
Ġw ag
ch ed
Ġs ach
Ġi re
Ġb old
Ġh ired
Ġh mm
Ġg ases
Ġo ecd
Ġf ischen
it ute
Ġp uls
ar fen
Ġk ult
Ġk ram
Ġk ognitive
le id
le iten
Ġz ens
Ġbe qu
Ġdie go
et ischen
Ġst om
il ie
Ġver dr
Ġver pfl
ot ten
Ġun recht
sch ten
Ġsch ufen
Ġall m
Ġfor der
op t
Ġauf zunehmen
Ġauf zeichnungen
Ġwar st
ant ik
Ġges ucht
ze ital
Ġvie h
ik eln
Ġsh elf
Ġen gel
Ġen cyclop
Ġget rieben
Ġgen u
Ġup load
Ġdar m
per form
Ġpr ide
Ġunter halt
pl us
pl ess
Ġkon vers
Ġbes itzer
Ġbl ieben
Ġra pe
if izieren
Ġdon or
Ġtra ce
Ġph arma
Ġfir es
Ã¤r ten
ĠfÃ¼ hl
Ġover l
Ġtun e
ungs los
Ġbis lang
iger ung
ĠmÃ¼s st
Ġgeb unden
als o
Ġschw amm
Ġcar ne
Ġoff ices
Ġcomm ons
Ġbas ieren
Ġbit ter
Ġdec or
Ġsl og
Ġjeder zeit
Ġtre as
Ġjo int
Ġanf Ã¤
Ġraum s
Ġbre iten
fr on
Ġcol a
Ġtop ics
kr anken
Ġgest ohlen
Ġsub ur
Ġtyp ische
Ġfest ival
Ġleg ten
Ġself ish
Ã¤l en
Ġdel ight
Ġdiscover ing
Ġmathemat ische
akt ere
Ġschul den
Ġcontin ents
med izin
Ġniemand em
Ġlow est
po st
Ġscre ens
reg ion
Ġprop osition
Ġrein vent
Ġsn ap
Ġapproach ing
Ġunbe w
Ġdurchschnitt s
Ġdurchschnitt lich
ĠmÃ¤nn liche
Ġsche iÃŁ
Ġaw kward
Ġemotion alen
Ġburn ed
Ġconstru ct
Ġstamm es
Ġwhe els
Ġdenk st
Ġphenomen a
Ġdesp air
Ġpassen ger
Ġsubst anz
Ġtanz ania
ĠkÃ¶nig in
Ġtiss ues
Ġakzept iert
Ġtes z
Ġvent ure
Ġbeteil igen
Ġhypoth ese
ĠgewÃ¶hn liche
gren zen
Ġverkauf te
Ġwil der
Ġausgest orben
Ġconcent rated
Ġobser ve
Ġmonitor ing
Ġlux us
Ġestabl ished
ĠzÃ¼ chten
Ġschizophren ie
Ġexec ut
Ġanre iz
ĠverblÃ¼ ffend
Ġskl av
Ġmarsh m
Ġzentr alen
insel n
Ġwed ding
Ġglac ier
mÃ¤n ner
Ġcollaps ed
Ġhighl ight
Ġimmen se
Ġmiser able
Ġtub es
Ġvorauss agen
Ġmoz art
ĠbehÃ¶r den
Ġtrink wasser
Ġhors es
Ġthresh old
Ġmagnific ent
Ġdeskt op
Ġbeizu bringen
Ġphiladelph ia
Ġedin burgh
. ]
2 5
c ore
f it
g ue
k od
r ats
r ina
w all
er kt
in as
Ġw ils
Ġb aten
Ġb inden
Ġb Ã¤ren
Ġb zw
Ġh unter
Ġg ained
Ġe aten
an st
an che
st Ã¤
it ar
Ġp ess
Ġp aten
or te
Ġl ind
al and
Ã¼ ht
Ã¼ sen
Ã¤ ut
ro bo
Ġan lage
Ġan passung
Ġst ability
Ġst ored
Ġver deut
Ġun happy
Ġer nte
Ġal iens
Ġon going
all as
ol er
im er
Ġge ck
Ġle in
op en
ff ung
ag ra
Ġsp ark
Ġar k
Ġcom ments
ab schluss
ĠÃ¼ber nommen
Ġpl ut
Ġpl Ã¤tze
Ġus hah
Ġze hen
iz ers
iz ierten
Ġcomp elling
Ġyour selves
Ġbr Ã¼cken
Ġmus lime
Ġra ub
ment al
sp ace
Ġind ische
Ġsc ans
Ġcl ient
pr Ã¤
Ġdr essed
Ġstud ierte
Ġtechnolog ische
Ġkl op
Ġkl are
Ġkl uft
Ġstr anger
ish a
Ġfre ely
Ġfre uen
get s
Ġpar l
Ġbo gen
Ġend anger
Ġja gen
Ġrem ained
Ġkr ist
Ġform at
Ġear liest
Ġmean while
zie h
Ġgener ous
irn ess
amm ed
Ġphys icians
Ġchar ter
Ġsmall est
Ġmind er
dr Ã¼ckt
Ġvier ten
Ġvir al
Ġbesser er
Ġdaten bank
Ġkre ise
Ġfas ern
Ġcontro vers
Ġamaz ed
Ġpsych ologen
Ġwes entliche
Ġret reat
Ġred esign
Ġterr ibly
Ġunglaub liches
Ġfund s
Ġsat ur
Ġexperiment ieren
Ġspeak s
Ġcontin uing
spr ing
ĠkÃ¼ he
Ġexc it
Ġnetz werken
Ġ199 3
Ġconf ig
Ġwort es
Ġbezie ht
fÃ¤ llen
Ġimpro ving
Ġerstaun t
Ġbreak fast
Ġtief see
Ġfoot age
Ġsupport ing
Ġmeer ess
Ġbeein tr
Ġbom be
wÃ¤r mung
vent ions
ĠbenÃ¶t igte
Ġfem ales
Ġersch wing
Ġ197 5
Ġjen es
Ġest ate
Ġhundert tausende
kam era
Ġstick stoff
Ġconscious ly
Ġalgorith mus
Ġep ile
Ġschreck lichen
Ġbon us
Ġamb ition
Ġbehau pt
bu cks
mode lle
Ġwohn ungen
Ġpurp oses
stud enten
Ġschne iden
Ġfotograf ieren
Ġgras p
Ġwood s
Ġbroad cast
Ġklimawand els
Ġgering er
ĠreprÃ¤sent ieren
Ġbeantwor tet
Ġque ens
Ġunsicht bare
Ġbran ches
Ġzut ief
Ġtu ber
Ġbeschleun igt
Ġbem Ã¼h
Ġpurs uit
Ġempower ed
Ġvacc ines
Ġeffizient er
Ġped est
Ġenable d
Ġirre le
Ġperce ived
Ġwurz el
Ġarist o
ĠwÃ¼s ste
Ġmi xt
Ġentrop y
Ġamate ur
Ġverbrauch er
Ġrett ung
ĠfrÃ¶ h
Ġcolum n
Ġkandid aten
Ġanspr uchs
Ġhelic opter
Ġmarath on
Ġapoll o
verschm utzung
Ġpess im
a way
b oo
c od
e u
e ut
e ur
g ase
k oll
k ennung
l ow
l Ã¤nder
l asst
m aker
n g
r r
s im
t Ã¤t
in ent
Ġw end
Ġb j
Ġb ah
Ġg Ã¶t
Ġu v
Ġo z
st Ã¶
Ġf ate
Ġf ool
ar ians
Ġl unge
Ġc rop
is ons
Ġk od
le gte
Ġz im
Ġha fen
Ġan th
Ġan sprechen
Ġver ge
Ġver teil
Ġver sehen
Ġer be
Ġsch enken
Ġr ings
Ġr na
Ġge formt
ver Ã¤nder
Ġle ver
ag og
ag ram
id em
Ġch or
Ġaus de
Ġfr iday
Ġges etzen
ahr t
Ġpe ar
Ġwo anders
Ġent setz
Ġus eless
Ġinter pre
Ġmein t
Ġste hlen
Ġtim ing
zu halten
Ġbl inden
rei ÃŁen
ph il
Ġnat asha
rie f
rie be
Ġres idents
Ġpre vention
Ġkl at
Ġgel Ã¤nde
Ġele gan
Ġstr ings
get ragen
Ġsm iling
Ġschw eren
ha ber
Ġplan es
Ġinc om
Ġgu atem
Ġschl Ã¤
Ġstat ic
Ġwahr schein
Ġform ula
Ġcour ses
Ġfound ations
Ã¼nd ete
imm el
Ġchar aktere
Ġstru ct
Ġhaus halt
the ast
Ġsign ature
Ġsw iss
Ġtyp ischen
Ġhinter her
Ġvo lle
Ġarchite kton
sicht igen
Ġmathemat icians
Ġtele f
Ġed i
Ġclass rooms
Ġfrei zeit
Ġball s
Ġlog ical
by e
Ġevent uell
Ġwider spr
Ġnear by
Ġplast ics
produ kte
Ġpack age
Ġhung ers
Ġrefle ction
Ġgele gt
Ġanw alt
Ġcompassion ate
Ġpil z
Ġinf ant
Ġreact or
Ġcompet itive
Ġextraord inarily
Ġliber ia
Ġteen age
Ġatom ic
Ġimm ers
Ġweib lichen
Ġschmerz haft
stud ie
ĠkÃ¤ se
Ġjul i
Ġsurround ing
Ġschluss fol
Ġflex ib
Ġjugend lichen
Ġeinzigart igen
Ġanalog ie
Ġjer ry
Ġberechn et
Ġkoll abor
Ġschuld ig
ungsf Ã¤higkeit
Ġbrut al
Ġfel der
Ġverwend eten
Ġvolunte er
Ġnavig ate
ĠbeschrÃ¤n kt
iminal itÃ¤t
ĠgrÃ¶ÃŁen ordnung
Ġbegle itet
Ġreef s
Ġencoura ged
Ġvergewalt igt
Ġkateg orien
Ġentrop ie
Ġvoc al
nor mal
Ġbefe hl
ĠtatsÃ¤ch lichen
Ġultras chall
Ġverschie ben
Ġthreaten ed
Ġdepr im
Ġwolf ram
Ġkarik atur
Ġverzer r
sprogram m
Ġgetre ide
Ġubiqu itous
Ġcarne gie
Ġendanger ed
Ġzutief st
4 00
g Ã¤ng
j an
m ade
n ational
o ÃŁ
p y
Ġt b
in far
Ġw Ã¶rtern
ch le
Ġs endet
Ġb art
Ġb ags
Ġh iding
st ick
ll es
Ġin ex
Ġin hab
Ġp orn
Ġl ester
Ġv aters
le hrer
et own
el en
ic ient
Ġse b
Ã¶ pfe
Ġre z
Ġre think
Ġre konstru
Ġver fl
Ġer wer
Ġer tr
im ag
Ġr ass
ver k
ver fahren
um es
Ã¼r zt
Ġpro ceed
Ġauf sch
Ġhe bt
Ġhe ktar
ine a
ag te
Ġsp ren
Ġwar ri
Ġwor m
Ġat ome
Ġum gew
Ġde als
Ġda ve
Ġsa il
Ġsh red
Ġmensch lich
per rt
Ġam ph
âĢ ĵ
ah ll
Ġste igern
scha fter
olog ically
Ġbr icht
Ġunter drÃ¼ck
Ġta i
ĠgroÃŁ eltern
Ġvers agt
Ġdr itt
Ġstar bucks
bl icke
Ġhin weisen
ok es
oll y
Ġbo ots
Ġoff ers
Ġhal fen
Ġjahre lang
Ġtrans mission
Ġcount ing
Ġsur f
Ġgener ating
Ġwoll t
str ong
Ġbill s
Ġgemein t
the y
na ja
Ġair b
Ġbab bage
Ġsym bole
Ġ18 7
Ġbar ack
Ġcal ories
Ġsei fe
Ġfront al
Ġfing ern
Ġkunst stoff
Ġprojekt s
Ġbeautif ully
Ġaud iences
Ġtradition en
Ġarg uing
Ġdir t
ĠfrÃ¼ he
Ġkor rel
Ġkor tex
wend ig
Ġdist ances
Ġdro hnen
Ġpred iction
Ġindien s
rÃ¤ gen
Ġgrand parents
Ġverein bar
Ġbank ing
Ġsum m
Ġrobo tern
Ġdru cken
Ġpfl anz
Ġsend ung
Ġperform ed
Ġneues ten
Ġ198 9
reg eln
Ġdemokrat ischen
Ġspecial ized
Ġsurv ived
Ġprop ose
Ġanzu wenden
Ġign ored
Ġmotiv ieren
Ġinse kt
schr ank
Ġgele g
Ġgele itet
Ġintegr iert
Ġblind ness
Ġauszu probieren
Ġconst itution
krank heit
Ġpredict able
Ġumf asst
kom mun
Ġsatell ites
Ġcalcul ations
Ġshift ing
Ġelektron ische
Ġsimpl er
Ġworry ing
Ġtor onto
stud ien
Ġbedeuten de
Ġapply ing
Ġfat al
Ġbestand teil
ĠmÃ¤r z
ĠkÃ¶nnt est
Ġverwir klichen
Ġnerven zellen
Ġolymp ic
Ġproto cell
Ġbran che
prob iert
Ġtitan ic
Ġfinanzie lle
Ġq atar
Ġtempor ary
ĠgÃ¼ ter
Ġaqu arium
Ġparte ien
Ġschizophren ia
Ġky oto
Ġencoura ging
ĠvÃ¶lker mord
mot or
Ġerneuer bare
gespr Ã¤ch
Ġbeseit igen
Ġresol ve
Ġdecre ase
Ġhouseh old
analy se
Ġatomen ergie
Ġretire ment
Ġnachmitt ag
Ġkapaz itÃ¤t
Ġanweis ungen
Ġlith ium
Ġaven ue
Ġpitts burgh
Ġgegl aubt
Ġushah idi
Ġexcit ement
Ġguatem ala
b ett
f ache
g reat
g ments
h s
i ast
k ult
l inder
p on
p ot
r iert
r ial
r ise
r hyth
Ã Ń
er krankungen
Ġt orn
in vas
Ġd ough
Ġd ating
Ġs Ã¶
Ġm esh
at Ã¼r
Ġo ak
st Ã¤r
Ġp anz
Ġp ants
Ġl yn
Ġc igare
Ġand auer
le icht
ir ts
Ġbe lt
ed e
un s
Ġan no
Ġan fÃ¼hl
Ġzu dem
Ġis st
Ã¶ glich
il z
Ġver treten
Ġer leich
im ittel
Ġr Ã¤
Ġr ud
Ġge plant
be in
be zogen
au ghter
Ġwie gt
Ġhe h
ill es
Ġsp inning
Ġwar f
Ġwar tete
Ġmo od
Ġar tw
Ġas h
Ġas ks
Ġwor ms
kt ischen
Ġaus gabe
Ġum lauf
ĠfÃ¼r chten
Ġde ce
Ġdem o
Ġmach in
Ġsee king
Ġcomp re
Ġfa irness
are t
Ġper u
Ġwork force
Ġfl aw
Ġdurch gehen
sp art
Ġtra its
Ġcl ubs
ĠwÃ¼r fel
ĠfÃ¼ gen
Ġdr ift
Ġstud ierenden
Ġkl ick
Ġland et
Ġbef and
Ġsol ches
Ġfre quently
Ġbest es
Ġ5 3
Ġaut on
Ġoff ering
Ġcomm itte
ha fter
Ġnor wegen
Ġschl angen
Ġwahr genommen
Ġel f
kl in
Ġplay ful
Ġbelie ving
Ġerst re
ĠnatÃ¼rlich er
stand s
Ġphys isch
Ġ9 7
tre ffen
Ġcou ch
Ġsym bi
Ġseem ingly
Ġass ets
Ġterr ifying
Ġremember ing
Ġtro ops
Ġsor gt
Ġdel icious
bra ch
bra chte
Ġmem es
Ġfrag ment
zus agen
Ġerk annten
schn itte
Ġange legenheit
Ġkor rig
fol gen
Ġdest iny
Ġner ves
Ġlisten ed
ĠfÃ¼hren den
kre isen
Ã¤tz ung
Ġeth ik
Ġshort ly
res ted
Ġneben einander
mar ks
Ġerre ichte
Ġviol in
Ġverbre itete
Ġraus chen
Ġther ape
Ġbrit ische
ĠbeschÃ¤ft igte
Ġrand e
Ġcivil izations
Ġmotiv iert
Ġflu ores
ĠmÃ¤nn lichen
Ġfail ures
Ġca ves
Ġfrank lin
Ġpeace ful
Ġinterview ed
Ġhistor ic
Ġbakter ium
Ġintellig enten
Ġsele ktion
Ġep ip
Ġcalcul ated
Ġheil ung
Ġwohn zimmer
Ġniedr iger
Ġstaat lichen
Ġhotel s
Ġgrav itation
ĠmÃ¤cht ige
Ġwunderbar es
Ġausdruck s
Ġbestand teile
Ġtens ion
Ġpsycholog ists
Ġentfern ten
Ġcorpor ation
Ġcorpor ations
Ġseltsam en
Ġcorrect ly
Ġelektro den
Ġvere int
ĠeuropÃ¤ ische
Ġlimit ations
Ġdiskut iert
olit ik
Ġincent ive
Ġgeomet ry
Ġew ig
Ġlux ury
Ġenem ies
Ġadopt ion
Ġkomment are
Ġillustr ate
Ġtwe et
Ġsow ieso
Ġassign ment
ĠverknÃ¼ pft
Ġestim ates
ĠgÃ¼nst ig
Ġguard ian
Ġabwe ich
Ġbeute l
Ġconstra ints
Ġdsch ihad
Ġphilosop her
Ġstig ma
Ġausged rÃ¼ckt
Ġpresc ri
Ġstereot yp
ĠgesÃ¼nd er
Ġexpos ure
beweg ungen
Ġnamib ia
Ġabsen ce
Ġherit age
Ġtesz ler
. :
1 9
f ahrung
g row
h aufen
i ard
j our
k in
k Ã¼nd
k Ã¼nst
n icht
in te
in ate
Ġd us
Ġw ip
Ġw inn
Ġs ne
Ġs ons
Ġth read
Ġb ust
Ġb ass
Ġg orge
Ġg umm
Ġu k
Ġu fer
Ġo ste
Ġo sc
st heorie
Ġf g
Ġf bi
Ġl ungs
Ġl anes
ing ing
Ġc els
Ġv oting
Ġto es
Ġz ones
Ġz igare
Ġbe ig
un a
ro ck
el ines
Ġdi vor
Ġdi arr
Ġzu verlÃ¤ss
Ġre iz
Ġver ze
Ġver let
Ġer heben
Ġr unde
Ġr idge
Ġall gegen
Ġle gend
be wegen
Ġauf gestellt
ag ert
Ġsp utnik
Ġmo ses
Ġar rested
ist ischer
Ġum ar
Ġum gesetzt
ĠÃ¼ber denken
Ġsa ke
Ġvor ur
Ġvor schlagen
Ġsh y
Ġher stellt
Ġgr ant
Ġout s
Ġinter connected
Ġam ster
iz abeth
ound ing
Ġeiner seits
Ġgl ue
Ġste pped
ert igt
Ġmenschen rechte
Ġke ys
Ġdurch bruch
Ġbra ve
Ġag ieren
Ġob t
Ġsc ra
Ġsc anning
Ġcl ue
Ġtechn ically
Ġproblem at
Ã¤hr ung
Ġdam pf
Ġgew Ã¤hr
bl att
Ġhand elte
Ġdu ck
Ġgra des
Ġgel ben
Ġgel be
Ġmon opol
Ġprodu kten
br icht
Ġschw ellen
Ġbo ats
Ġtell er
Ġnor way
Ġgu ilty
Ġpu pp
Ġlang leb
geb rochen
Ġentwick lungen
Ġbuild s
Ġform el
teil chen
sy nd
Ġsit ze
Ġbesch rieb
Ġrec ipe
Ġchin as
land schaft
Ġcr imes
Ġlebens l
Ã¼nd e
Ġstra hlen
ĠerzÃ¤ hlung
Ġdire kte
Ġdire ktor
aub ere
Ġkre b
Ġbew iesen
Ġmas k
Ġcol ored
Ġhead lines
Ġglauben s
Ġcur t
Ġgest ure
ĠÃ¶ff nete
ift ung
Ġzukunft s
Ġtem ple
Ġexist ierte
sicht s
Ġdel ay
Ġcontin uous
Ġchallen ged
Ġhol y
Ġhol oc
Ġengine ered
Ġcho ir
bes te
ush ed
Ġpred ator
Ġwand ern
Ġbaby lon
Ġpersonal ized
Ġprogramm ierer
Ġled er
Ġneg ativen
Ġhab its
Ġkat rina
spro du
produ kt
Ġkolle ge
Ġmedic ines
Ġspir al
Ġpack en
Ġsky pe
ĠtÃ¼r en
Ġhistor ischen
Ġhistor ically
Ġisrael i
Ġcompet ing
Ġbatter ies
Ġvac ation
Ġerkennt nisse
iber a
Ġress ource
amerik aner
amerik anischen
Ġbaum wo
ĠÃ¶ffentlich er
Ġconcern s
Ġimprov isation
Ġvul kan
Ġgradu ated
Ġinnen stadt
Ġcontrib uted
Ġklin ische
Ġenjoy ed
Ġmanip ulate
bÃ¼ chern
Ġdiagn osis
Ġhalt ung
Ġwal mart
Ġgolden e
Ġaccom pan
gren ze
Ġquadrat meter
Ġwettbewer bs
Ġfrequen z
Ġnewspap ers
Ġfurcht bar
Ġpfer de
Ġdiagnost iziert
Ġkomment ar
Ġgeg ner
Ġantar ktis
Ġerlaub te
Ġhierarch y
Ġmim ic
ĠschÃ¤tz ung
Ġabh Ã¤ngt
ĠsÃ¤uget iere
Ġhallu zin
Ġmillenn ium
Ġobl ig
Ġflick r
verstand en
Ġadap ted
ĠgelÃ¤h mt
Ġue ber
Ġcockt ail
Ġcn n
Ġvenezu ela
Ã¶kon om
Ġexem pl
ĠmÃ¶cht est
Ġmachin ery
Ġcels ius
, '
8 00
b em
g ab
g led
m ans
m ud
m ob
p hen
r ous
er geb
in fe
Ġa o
Ġw inden
Ġw atts
Ġs inken
Ġm ast
Ġm cc
Ġb amb
at oes
as ive
an fall
st or
it Ã¤ren
Ġn ad
Ġin der
Ġin fer
Ġp ills
ar den
Ġl em
Ġein bringen
ir ing
Ã¼ m
Ġwe ite
om in
us ste
us etts
Ġha i
Ġso lle
Ġwir bel
Ġsie hst
el ing
Ġan gest
Ġzu gr
Ġzu stimmen
Ã¶ scht
Ġst urm
Ġre ver
Ġre lief
Ġver arbeitet
Ġun fÃ¤lle
Ġun besch
Ġab len
ach usetts
Ġme als
ol i
Ġsch ed
Ġr ib
Ġr hin
Ġden ial
Ġfor b
Ġfor schen
and ert
be cken
Ġauf ger
ess ions
th ir
Ġli vest
est y
Ġsp at
Ġsp ill
Ġsp ell
Ġch ore
Ġas c
Ġas leep
Ġcan cers
Ġaus schnitt
ab teilung
Ġno des
Ġpe ps
ass o
Ġam t
iz a
iz it
ick ing
Ġbr inge
Ġsu pre
Ġfra mes
ose v
Ġra kete
ud ed
Ġfl ogen
if act
Ġag r
Ġart ifact
Ġzeit ra
Ġhapp ily
ak ten
Ġshe p
chte t
Ġvers orgt
fl u
fl ow
Ġdr Ã¼ckt
Ġhin t
Ġmon ument
wn ing
Ġfre ak
Ġpar ach
ict ions
Ġ5 4
Ġ5 7
Ġmin en
Ġpat ents
Ġhuman itarian
kl ang
Ġmor ph
Ġtre ppe
Ġpolit ischer
bo ards
ogra fen
Ġabs ichten
Ġje gliche
Ġged ruck
Ġrest lichen
Ġsupp lies
Ġraum es
Ġhard est
Ġna ive
Ġhalf way
Ġneur ot
Ġgest iegen
Ġjedes mal
Ġside walk
Ġterr itory
Ġcal tech
Ġamazing ly
Ġgesellschaft lichen
Ġhy g
Ġhor mon
Ġpred ators
Ġmoral isch
Ġav atar
Ġ11 0
Ġtransform ing
Ġprogramm iert
Ġpost ed
bre cher
ĠpersÃ¶n licher
res er
Ġdemoc rat
Ġwerk zeugen
Ġcirc uits
ĠrÃ¼ck seite
Ġaltern atives
Ġtransport iert
Ġmedic ation
Ġbal ken
Ġengag ieren
Ġpur ple
Ġehr ge
Ġnutz te
Ġerd gas
Ġaufge zeichnet
ĠgefÃ¤hr liche
wohn ern
Ġmex ik
Ġpen is
do or
Ġere ctus
Ġbestimmt es
Ġdomin ated
Ġdiv ision
Ġlag os
spe z
feren zen
recht s
Ġexpress ions
Ġfit ness
Ġaffect ing
Ġkrit ik
Ġkrit ische
zul assen
maÃŁ nahmen
ĠmÃ¤r kten
Ġjugend liche
Ġmerk male
Ġwass ers
Ġpip eline
part y
Ġcla ims
Ġtrop ical
Ġstrand s
ĠunglÃ¼ck lich
Ġangew andt
Ġtelesc opes
Ġsucceed ed
ĠfÃ¼hrung spers
Ġfemin ist
Ġanatom y
Ġunbek annte
kreis lauf
Ġrie chen
Ġrie cht
Ġcontain er
ĠverÃ¶ffentlich te
Ġgrie ch
Ġelectro des
Ġvess el
Ġsho e
Ġsho ots
Ġhob by
Ġverdopp eln
Ġinevit ably
Ġpul se
weiÃŁ t
Ġeigent um
ĠtatsÃ¤ch liche
Ġjahrhunder te
Ġhallu cin
Ġkolon ien
Ġunvor stell
strateg ie
Ġcham ber
Ġbm w
Ġindigen ous
contro ll
Ġfettleib igkeit
Ġgepr Ã¤gt
Ġlk w
Ġtrium ph
Ġanze ige
Ġherangehen sweise
Ġreper to
Ġbrid ges
Ġapproxim ately
Ġire land
Ġwils on
Ġparl ament
Ġzim babwe
Ġverlet zen
Ġzugr unde
b ul
b rot
f ive
g od
k ons
k rat
o is
p ool
t al
u ung
u ously
v ors
z ierten
in ely
Ġd allas
Ġs j
Ġm ischen
Ġm ord
re m
Ġg i
Ġg ym
Ġin du
Ġin hib
Ġp ist
Ġp aus
Ġp ige
ar ien
Ġc c
Ġk ibera
te or
Ġein ig
Ġein blick
Ġz ert
Ġbe aten
Ġwe izen
Ġy ards
et or
Ġan lagen
Ġdi ving
Ġse al
Ġj ong
Ġre vel
Ġre aders
de ck
Ġab schnitt
Ġal ga
Ġme ad
Ġsch ie
Ġge halt
Ġge legenheiten
ver tre
Ġfor ty
Ġle hrt
Ġpro ved
Ġdo d
Ġauf stellen
th en
th ree
ill as
Ġsp are
Ġaus probiert
Ġor phan
ab ad
Ġde cken
Ġde ception
Ġte ar
iv ate
Ġsa p
her um
Ġcon qu
Ġher bst
Ġher steller
ap ital
ap agos
ast y
Ġste ad
Ġste uert
Ġco inc
Ġwill kÃ¼r
Ġro y
Ġro sa
pl er
Ã¶r der
Ġbes org
Ã¤ch ter
Ġbl itz
Ġra ped
Ġlo hnt
Ġover head
fÃ¼ llt
ungs vermÃ¶gen
elt a
Ġ3 60
Ġad s
Ġkl Ã¼
Ġkl Ã¤nge
Ġcont amin
Ġbin ary
Ġstr ict
br anche
Ġins ane
ian er
Ġbi osphere
Ġkommen den
Ġcor ners
Ġhaus es
Ġmark ieren
Ġanf ingen
ĠglÃ¼ck lichen
Ġgre y
Ġcur ves
Ġru ft
Ġsub jekt
Ġtyp isch
Ġfest zustellen
Ġreason able
Ġverk Ã¶rper
Ġint act
Ġoft mals
Ġunt ere
Ġloc ally
Ġmarket place
Ġadv ances
ĠkÃ¼ chen
Ġange zogen
Ġcool er
voll er
Ġorig ins
Ġbank er
Ġziel en
Ġap olog
Ġsam uel
Ġsan itation
ĠwÃ¤ hler
Ġju den
Ġju ly
Ġstay s
Ġfahr t
Ġdemokrat ische
Ġhom in
Ġgren z
Ġrequ est
Ġcollect ively
Ġvisual ization
Ġapproach ed
Ġakt uell
Ġausge zeichnet
Ġpack ed
Ġ196 8
Ġinfl ation
Ġislam ischen
Ġdemonstr ated
Ġzeich nung
Ġpen cil
Ġreact ions
Ġinfe ctions
Ġmr t
ĠmÃ¼ de
Ġspan ien
Ġbrand s
Ġanges icht
Ġignor iert
Ġkeiner lei
Ġinstall ed
Ġverletz lichkeit
Ġexpress ed
Ġremark ably
Ġnut s
Ġverst orben
Ġgal apagos
Ġangeb lich
Ġles b
Ġmuslim ischen
Ġinterpret ieren
Ġfotograf ie
Ġelectr ons
ĠauÃŁergewÃ¶hn lichen
Ġbru ce
Ġhinge gen
Ġjul ia
Ġkonstru iert
Ġdouble d
soft ware
Ġharm ony
Ġjer sey
Ġeure m
spre chend
design er
Ġbras il
Ġausgest attet
Ġconcent ration
Ġphysic ists
Ġut il
Ġreprodu ce
ĠeinfÃ¼ hren
Ġpyram ide
Ġunbek annten
olit an
Ġsubs id
ĠÃ¼berzeug ungen
power ed
Ġhorizont al
Ġwilli ams
Ġrab b
cel and
ĠfÃ¼hrungs krÃ¤fte
Ġgewin ne
Ġkollekt iven
ĠschÃ¼t teln
Ġphysikal ischen
Ġskl aven
ĠberÃ¼ck sichtigt
Ġmosquit o
Ġfung i
Ġlegisl ation
ĠdÃ¶r fer
Ġexplo it
bÃ¼r ger
ĠÃ¶rt lichen
Ġrecher ch
Ġchim ps
Ġconven ient
Ġpoliz isten
alys is
Ġverlei hen
Ġsacr ifice
Ġenterpr ise
Ã¤sth esie
Ġsowj et
Ġpent agon
Ġcomprom ise
Ġschlagze ilen
Ġvin ci
Ġultravio let
Ġgespe ichert
Ġmeeress piegel
Ġirrele vant
Ġallgegen wÃ¤rt
Ġehrge iz
6 00
a ves
d og
f an
h ist
k ed
n ut
s ized
s itz
Â »
er ichtet
Ġt sch
Ġt ables
Ġt iles
Ġw ack
Ġs r
Ġg ag
an o
Ġo pfern
Ġf inn
it able
it ely
it uation
ll te
Ġn ud
Ġn ash
Ġin tended
Ġp sy
Ġl Ã¤h
Ġc av
Ġv as
Ġv ice
Ġand ro
Ġk Ã¼n
Ġk elly
Ġbe den
Ġbe geben
ur able
Ġsie d
Ġan ony
Ġan hÃ¶ren
Ã¶ re
Ġst irn
Ġst amp
de ckt
Ġun st
Ġun voll
Ġab u
ach lÃ¤ss
Ġer nten
Ġer lernen
ier st
Ġwas chen
Ġal gen
ol ine
Ġsch uf
Ġr l
Ġfor ts
ld ern
Ġle ise
Ġauf bl
Ġauf halten
Ġauf weisen
Ġeine inhalb
Ġman ner
Ġuns inn
id ungen
Ġar iz
ad ian
ĠÃ¼ber sehen
Ġte ppich
Ġsa le
Ġsa fer
Ġma h
qu ate
Ġcon fron
Ġsh out
Ġher kÃ¶
ap ie
Ġgen annten
Ġinter faces
ieren der
Ġkind ness
our cing
Ġco vers
Ġkon kre
Ġta fel
Ġbra un
me ine
Ġag ents
Ġcl ips
Ġlo ving
ak a
Ġshe ets
Ġvers etzt
Ġimmer hin
Ġdis abled
Ġad vers
Ġho f
Ġac umen
Ġger Ã¤ten
Ġzus ehen
Ġgel aufen
Ġstr assen
Ġstr iking
ok ed
Ġben ch
Ġmin es
Ġgu cken
Ġlang es
Ġtrans it
oc ial
Ġsur g
Ġdec lin
old ing
Ġel ter
pro be
Ġrec re
Ġfu er
Ġbus es
Ġpubl ishing
Ġfol gte
Ġweit aus
los er
sh ow
sh aring
Ġeur er
Ġfilm em
Ġpsych ische
och em
Ġmiss bra
Ġessen s
Ġeduc ate
Ġunt ereinander
Ġanders wo
Ġwohl er
Ġequ ations
Ġherz infar
Ġmass es
Ġmass achusetts
Ġloc ations
spr ingen
Ġnight s
Ġcons ist
wend et
kon ferenz
Ġmer kte
Ġentscheid et
Ġill ust
fÃ¤ ll
zy klus
Ġgewalt ig
Ġgewalt igen
Ġgewalt tÃ¤t
bre ak
bre tt
Ġcommunic ating
Ġju ice
Ġnear est
mas ter
Ġrepl ic
Ġdeut sche
Ġsamm elt
Ġanzu fangen
Ġkonzentr ation
Ġmotiv ated
wa it
schr itten
oun ted
Ġfro sch
Ġdef end
Ġnar rat
Ġattack ed
Ġvern achlÃ¤ss
Ġsus an
Ġsele cted
Ġrat te
Ġactiv ists
Ġnerv ensystem
ĠberÃ¼ hrung
ĠunabhÃ¤ng ige
Ġnut ze
Ġchines isch
Ġban jo
ĠkÃ¤ me
Ġklin ischen
Ġreser ves
Ġleid et
Ġbiom ass
Ġcatch ing
Ġip ad
Ġshock ing
Ġverwir rt
Ġverhaltens weisen
Ġproz ents
Ġveget ation
Ġzut aten
bas ierte
Ġemb od
Ġfreiwill ig
Ġbem Ã¼hen
lu ft
Ġpas te
Ġgam ma
Ġras ch
Ġmam mal
Ġcontem pl
Ġmaxim um
Ġflag ge
Ġwiderstand s
Ġmemor ial
Ġzuzu hÃ¶ren
ĠeinschrÃ¤n kungen
Ġdesper ately
Ġacknow ledge
Ġfrighten ing
Ġkognit iven
Ġsorgf Ã¤ltig
Ġpein lich
kil ometer
Ġerkrank ung
Ġportug al
Ġsomal ia
Ġlh c
Ġharn ess
Ġrh etor
frequen z
Ġrecess ion
Ġhud son
schmer zen
Ġsklav erei
Ġmarshm allow
Ġholoc aust
a ken
e v
f o
h ou
j i
l Ã¶
l ong
m i
n i
n chen
p it
s and
s icherheit
t schaften
u ct
w ord
z zy
Ġt ide
Ġt urt
in ity
Ġd yl
Ġs b
Ġs aubere
Ġi celand
Ġm eld
Ġb ite
Ġh Ã¤usern
Ġg it
Ġo reg
Ġf ans
Ġf ence
Ġf aul
it eten
Ġn ik
Ġp ht
ich tern
Ġv ak
Ġk au
Ġein treten
le hnen
le itungen
al teten
Ġz ers
ent er
Ġwh it
el ihood
Ġzu vers
Ġse gment
Ġst ipend
Ġre iÃŁ
Ġre formen
sch ulen
Ġal f
Ġsch alter
Ġr ome
Ġge zeichnet
ver letz
Ġfor mt
um ber
and al
op le
op Ã¤d
Ġman ual
Ġmit machen
au cht
ann a
sen den
we ight
os kop
os aurus
Ġde gra
ik ro
Ġpe cul
Ġtr ugen
mer k
Ġnach d
Ġgen ital
ast ian
Ġact ively
ah a
Ġco verage
Ġgro cer
Ġwork place
Ġfl aschen
if lu
Ġsy d
sp un
Ġph asen
Ġeinf allen
Ġdis asters
Ġdr ought
Ġlot tery
Ġstar ing
bl ase
Ġhin ab
erg y
Ġgeb il
Ġbef ra
Ġgel ungen
Ġwieder be
ok raten
Ġteil s
Ġteil ten
Ġexper te
Ġhal bes
Ġpu ff
Ġgrund stÃ¼ck
Ġklein sten
Ġmoment um
ĠverÃ¤nd er
Ġbelie ves
Ġverl Ã¤uft
gel Ã¶st
Ġplanet ary
Ġpower ed
ĠnatÃ¼rlich es
Ġcr iter
Ġ6 8
Ġlebens unter
Ġexpl icit
Ġwissenschaft s
ĠlÃ¶ schen
dr iven
Ġhaus aufgaben
Ġ7 8
tro vir
Ġbed room
Ġsing ular
Ġcam el
Ġarch ive
Ġatt itudes
Ã¼h nen
Ġverg leicht
Ġant ik
Ġrecht fert
Ġstop ping
Ġbiolog ist
Ġinvest ments
Ġchr isten
Ġbar riers
Ġsuper computer
Ġkurz es
Ġanders on
Ġperfe ktion
zahl t
af el
Ġgirl friend
Ġklar en
Ġalt itude
Ġforsch ern
Ġforsch ungen
Ġlin ux
Ġfollow s
Ġdro pping
Ġtaus chen
Ġmittel n
sk raft
Ġtransform ative
Ġcut s
Ġrobot ik
res se
Ġconsum ed
Ġtru ppen
Ġlik elihood
Ġprom ised
Ġaren a
Ġwachsen den
Ġempf angen
ĠfuÃŁ gÃ¤nger
Ġlif ted
ĠgefÃ¤hr det
Ġevol utions
Ġzun ge
Ġzeich nete
ĠÂ «
fÃ¼hr ten
Ġbacter ial
Ġcat astroph
Ġactiv ist
Ġactiv ate
Ġep ic
Ġrece iving
Ġsad ly
Ġpet ition
Ġenj oying
Ġvari ations
Ġsecret ary
Ġposit ives
Ġtoile ts
Ġoccur ring
Ġprinc ip
Ġklin iken
Ġimmun system
Ġausl Ã¶sen
Ġlandsc apes
Ġdescrib es
Ġbegeist erung
Ġsympt om
Ġastero ids
Ġunsicht baren
kan al
ĠÃ¶konom ische
Ġunderg ra
Ġanatom ie
Ġagre ement
ĠverÃ¶ffentlich ten
Ġpengu in
Ġhorm ones
Ġautomob il
ĠvergrÃ¶ÃŁ ert
Ġspont an
Ġspezif ischen
Ġlegit imate
Ġsett le
Ġelimin ate
Ġanstren gung
Ġnin ety
Ġlon ely
Ġkateg orie
Ġestim ated
Ġantibiot ics
Ġaccompl ish
Ġerweiter ung
Ġpix el
forest ation
Ġmarg aret
ĠprÃ¤z ise
Ġanticip ate
Ġwoo den
Ġtam iflu
Ġtenn is
Ġprosper ity
Ġwahrhaft ig
cor ps
Ġverscha ffen
Ġaband oned
Ġprosth etic
Ġguer r
Ġaesth etic
Ġsuspend ed
Ġgefl ogen
Ġpalest in
Ġzip car
verl ust
Ġbrie fe
ĠÃ¤thiop ien
Ġclust ers
Ġfavel as
Ġkontinu ier
Ġpremier minister
kamp agne
ĠtÃ¤n zer
Ġzeitgen Ã¶ss
Ġlein wand
Ġstruct ural
Ġumgew andelt
Ġamster dam
Ġariz ona
Ġpecul iar
b one
f ind
h ir
h Ã¤ngen
l ist
l Ã¤nge
m ind
p um
p ubl
r ine
v ada
w Ã¶rter
Â °
Ġt ies
Ġd Ã¤n
Ġw ins
Ġs ri
Ġm un
Ġb ump
Ġh Ã¤
re ffen
st Ã¶rungen
Ġn ieren
Ġin for
Ġl Ã¼cken
Ġv ary
Ġein laden
le bt
Ġbe ans
om y
ig ert
ro se
em pf
Ġit er
Ġan spruch
Ġdi as
Ġun ster
Ġun zÃ¤hl
lich sten
ge zogen
Ġau g
Ġge wohnt
Ġfor um
Ġne use
Ġpro j
Ġhe aling
ith met
Ġwar d
Ġwor in
Ġex haust
ib ati
Ġnot fall
Ġde an
Ġvie wer
Ġsh ining
Ġwo nd
Ġent ry
Ġus age
etz te
Ġze aland
Ġinter ventions
ick ed
Ġcomp osition
Ġfe ier
Ġper io
Ġbl inde
Ġra ffin
Ġbet rug
Ġfl avor
if ahr
schaft s
Ġag nost
Ġag nes
Ġob ese
Ġsel ves
Ġfir ing
Ġart ic
pr esse
Ġeinfach ste
fÃ¼ llen
Ġback yard
Ġtun es
fl asche
Ġmar ia
Ġkle id
Ġland ing
Ġmon arch
gl Ã¼ck
br is
Ġbek annter
Ġheraus stellt
pe ople
Ġmet ast
Ġnor man
Ġnor weg
Ġsim ulieren
Ġend gÃ¼lt
Ġstat istic
Ġkam bod
Ġbi osphÃ¤re
Ġbi ochem
tra uen
Ġel abor
pro ben
Ġorgan izing
Ġwr ist
Ġjem en
pen se
Ġser ge
Ġstory corps
gef ahren
mit glieder
Ġbro ader
Ġcre am
gew orfen
Ġprob anden
Ġang ere
Ġspace craft
Ã¼t ze
Ġcam bod
Ġbre tt
Ġdarauf hin
Ġris d
Ġunder est
Ġarm strong
Ġsw allow
Ã¤us en
Ġfund ra
Ġtem pel
Ġorder s
Ġries ig
Ġgreen land
Ġcool ing
Ġdest ru
kon z
Ġster be
Ġnon verb
Ġmer kt
Ġgenet ik
rÃ¤ der
Ġauss agen
Ġsum mit
bere cht
Ġkomplex es
Ġergeb nissen
Ġprogramm ers
Ġkid ney
Ġvorher r
Ġ198 6
bau er
Ġgene hm
Ġakt iven
Ġschwe ben
Ġkonzentr ierte
Ġoze ans
Ġrefle cted
Ġtom ato
Ġelektr omagnet
ĠgrÃ¶ÃŁten teils
Ġintegr ieren
Ġwachsen de
Ġdurchschnitt lichen
Ġ197 3
Ġjung es
Ġkrankheit s
Ġfinanz ierung
Ġdien ste
Ġpen et
ĠkÃ¤m pfe
Ġirgende inen
fÃ¼hr te
Ġsepar ation
Ġapart ments
ham ed
Ġzivil isationen
Ġclin ics
Ġanalys iert
abl en
Ġhop eless
Ġbedro h
Ġtax i
Ġtax es
Ġsimpl est
Ġcontrib ution
Ġdarf ur
Ġmyster i
Ġelectr omagnet
Ġatl antik
Ġinj uries
Ġ194 0
Ġkir ibati
Ġcyber cr
Ġklass ischen
Ġmerk wÃ¼rdig
Ġaufw uchs
Ġkompon ente
glie dern
Ġchromos om
Ġolymp ischen
Ġol iver
Ġbul b
Ġbul gar
Ġobs ession
best and
Ġvere inen
fun ction
Ġangew endet
ĠeinfÃ¼ hrung
Ġreve aled
Ġdiam eter
Ġobserv ations
Ġradik ale
Ġgeomet rie
Ġgree ce
Ġprototyp es
Ġbeeindruck t
Ġspezif ische
Ġsystemat isch
Ġnukle ar
ĠbestÃ¤t igt
Ġantibiot ika
Ġeinzeln es
Ġhub ble
Ġprepar ation
Ġgarant iert
stechn ologie
Ġenthus iast
flÃ¼ gel
Ġbath room
Ġrepublik aner
Ġindones ia
Ġquanten mechan
Ġcandid ate
Ġjac qu
Ġsingap ore
Ġnit rogen
Ġabund ance
Ġanwesen heit
Ġdisag ree
Ġbh utan
Ġpropos al
Ġarzne imittel
Ġstom ach
Ġencyclop edia
Ġtai wan
Ġgeleg entlich
jour nal
Ġgorge ous
Ġshep her
Ġreperto ire
Ġpsy che
Ġzuvers icht
" :
b ial
c ard
d in
d ose
h mm
l Ã¤ufe
m ates
m asse
m illion
p red
p osition
y o
Ġt ans
Ġt Ã¶ne
in ations
Ġa we
ch ing
Ġb Ã¶s
Ġh uh
Ġg ord
Ġf erne
Ġp estic
ing o
Ġc ube
Ġv iv
Ġk ro
Ġein her
Ġein sam
al in
Ġbe lly
Ã¼ bt
Ġy ale
Ã¤ ug
Ã¤ ser
ur r
Ġha y
ra cies
Ġzu griff
Ġse ide
Ġse hn
Ġj Ã¤ger
Ġre vers
Ġun le
Ġun mÃ¶gliche
Ġab hol
Ġer hol
sch rau
Ġal gebra
all er
ol ith
Ġsch en
Ġsch lieÃŁ
Ġsch ott
Ġge or
Ġge kl
Ġauf bew
Ġmit leid
Ġhe al
Ġwar craft
Ġsich eren
we ich
ust en
Ġges unken
Ġde af
ĠÃ¼ber legt
Ġte urer
iv als
Ġma gen
Ġtr ieb
Ġsh utt
Ġent kommen
Ġgr Ã¶n
Ġgen omes
od ox
Ġdar pa
âĢ Ķ
Ġgl imp
Ġcomp aring
Ġper ipher
Ġbl ume
Ġra c
Ġra uchen
Ġbet riebs
Ġke ith
Ġob ere
Ġtra pped
Ġlo an
Ġbu zz
Ġdis pl
Ġstar r
Ġstar kes
Ġstar teten
Ġreal ization
Ġger ufen
Ġem ily
Ġhel pless
Ġgeh st
Ġsol o
ord nungen
Ġcar es
Ġcar ries
Ġ5 8
Ġheraus gestellt
Ġplan ted
geb ieten
geb ildet
Ġstat ue
Ġweiter zu
Ġklein ste
Ġeinz usch
Ġinst ruction
Ã¤u fen
Ġdrei ÃŁig
Ġla wn
ĠverÃ¤nd erten
Ġgener ieren
Ġbesch uld
Ġsk ala
Ġser oton
Ġstand ort
Ã¤d t
Ġschn ellen
Ġsecond ary
Ġkur se
Ġerw ischt
dr Ã¼sen
Ġcell ular
Ġglobal es
Ġbre eding
Ġhar lem
Ġnet te
Ġsin kt
sc reen
Ġgest oÃŁen
ĠkÃ¶rper liche
ĠÃ¼ bel
Ġopp osition
Ġversch wand
Ġhope ful
Ġred ner
Ġterr ified
Ġtem p
Ġopt ical
Ġmathemat ischen
Ġwom Ã¶glich
Ġsens ing
Ġerk und
Ġtradition ell
Ġcra p
Ġappro ved
Ġverm uten
Ġdist inction
Ġmult im
Ġconnect ivity
Ġschre ien
Ġaktiv isten
kre ise
Ġpick s
Ġprogramm ier
Ġdisc r
Ġve gas
Ġtau ch
Ġverbess erungen
Ġvertra g
Ġju ven
Ġerscha fft
Ġhom etown
Ġplatz ieren
Ġce os
Ġtemper atures
Ġ% .
Ġmeasure ments
Ġschwe iz
Ġschwe izer
Ġverantwort ungs
Ġfavor ites
Ġpf ad
Ġhung rig
Ġwild nis
head s
Ġtoll er
Ġerd Ã¶l
ĠfrÃ¼h stÃ¼ck
Ġtouch ing
Ġdram a
Ġprofess ors
mus ik
Ġhistor ische
itor ium
Ġsuggest ion
Ġemotion ally
Ġbaum kr
Ġswe at
Ġbon o
Ġzivil gesellschaft
Ġhop es
Ġamb itious
Ġattra cted
Ġheil ige
mÃ¤ÃŁ ige
Ġfac ilit
nam en
ĠjÃ¼n ger
Ġbele id
Ġpig ment
Ġswitch ed
Ġauth ors
ĠgewÃ¶hn lichen
Ġkauf ten
Ġkilomet ern
ĠÃ¶kosystem e
Ġidentif iziert
ĠdÃ¼n n
Ġwil de
Ġbound ary
Ġopin ions
struktur en
Ġtheoret ical
kont roll
Ġwra pped
Ġscen es
Ġhierarch ie
Ġfein de
Ġeinzeln er
Ġhipp oc
Ġausbre iten
Ġultras ound
ĠhÃ¼hn chen
Ġmobiltele fone
Ġrett ungs
Ġdeploy ed
Ġacknow led
Ġskelet al
stÃ¤t te
Ġsymph ony
Ġbeherr schen
Ġdevast ating
Ġheter osex
Ġcommod ity
Ġbeur teilen
keep ers
ĠÃ¼berwach ung
Ġgeorg ia
ĠermÃ¶glich te
Ġincor por
Ġfreit ag
Ġcerem ony
robo ter
Ġcontrovers ial
Ġseb astian
thir ds
Ġsyd ney
Ġglimp se
b ud
e gen
e igen
f est
g iving
i ots
k u
l abor
r ischen
w ett
z ierung
Ã ¨
Ã ³
in ens
Ġa de
Ġs ars
Ġi tem
Ġb ent
Ġb ion
on ia
Ġh Ã¤r
Ġh ond
Ġg itter
Ġe k
Ġe kel
Ġo v
Ġf ange
Ġn r
Ġp ille
Ġl ol
Ġc ort
Ġc ia
Ġc attle
Ġv ivid
Ġk ub
Ġein stellungen
Ġein ladung
Ġbe half
Ã¼ ste
ut ter
us el
ro ots
Ġso vere
Ġan kam
Ġan zeigen
Ġdi al
Ġdi Ã¤t
Ġse ctors
Ã¶ pf
Ġst ieÃŁ
Ġre pt
Ġre wards
ge vity
Ġme ile
im pf
Ġge z
se en
um ented
be z
Ġpro g
Ġman kind
Ġman eu
Ġhe ating
Ġli ppen
ill er
Ġar ithmet
Ġch ase
ul u
Ġaus zur
Ġat ra
Ġex tro
Ġex quis
Ġvor kommt
Ġvor lesen
Ġthem es
Ġco at
Ġco chle
Ġbr ush
Ġkom ische
Ġgesch n
Ġind icate
Ġide o
Ġtra uer
Ġzwe ier
Ã¤r er
Ã¤r es
lie gt
Ġover night
Ġvers etzen
Ġmar row
ges tell
Ġdis pos
elt y
Ġreal istic
Ġger ichtet
Ġhel m
Ġlet hal
Ġir ony
auf gabe
Ġaut obi
Ġzusammen gefasst
Ġfam ine
Ġben annt
Ġnor ms
Ġlang zeit
ss inn
Ġja w
Ġdec l
Ġel izabeth
Ġbesch w
Ġbot schaften
Ġpolit ically
Ġbus ch
Ġcr iminals
Ġnatur schutz
Ġscha fe
Ġmark iert
Ġrest r
tre ibt
Ġmut ations
Ġsign ifik
Ã¼t tern
Ġbew aff
sh irt
ĠkÃ¶r pern
Ġmas ters
Ġnormal er
gesch ichten
ograph ic
Ġrad ar
Ġsw itzer
Ġbar ry
Ġvo llen
Ġterr ific
Ġble w
Ġtrain ings
Ġtro st
Ġdel fine
Ġtw in
Ġtw ist
stra hl
Ġarg ued
ash ed
Ġdep os
Ġarten vielfalt
por ted
hand lungen
Ġphil ipp
ĠgefÃ¼hl t
Ġwon ach
Ġmicro bial
fu ÃŁ
Ġnon eth
Ġinvol ve
bere it
Ġsend s
Ġfundament ale
Ġoptim al
Ġhervor bringen
Ġtin te
Ġverwand t
Ġrot ate
Ġvergleich bar
use um
Ġersch ienen
Ġworth y
Ġblog ger
Ġperiod s
Ġsuff icient
plan ung
setz ungen
Ġlist s
Ġtraum at
ĠÃ¶k ologie
ĠgefÃ¼ hlen
amerik anische
Ġgere ist
Ġgal ile
Ġsurger ies
Ġphenomen al
Ġisol iert
Ġniedr igen
Ġniedr ige
Ġnetwor king
Ġod ys
ĠÃ¼bertra gung
Ġexpand ed
Ġinvent or
Ġbiom asse
seh bar
Ġtex te
Ġkonstru ieren
Ġgehir nen
ĠwÃ¤r mer
far be
Ġmur ray
Ġbele uchtung
Ġproto col
wechsel n
sens us
Ġhost ile
Ġeingesch rÃ¤nkt
Ġbildungs system
Ġbul bs
Ġplatform s
Ġmamm ogram
Ġobser ved
Ġheimat stadt
Ġast rol
schlÃ¤ gen
Ġbelo hn
Ġunbek annt
Ġestabl ish
Ġtwe ets
Ġsystemat ically
Ġsatisf action
Ġneurosc ient
Ġofficial s
ĠbestÃ¤t igen
Ġlangfrist ig
Ġlangfrist ige
kap ital
Ġverschm utzung
inst it
Ġembarrass ing
Ġcath olic
Ġaccompl ished
Ġoverwhel med
vier tel
Ġschach tel
Ġphilanthrop y
ĠdÃ¶r fern
Ġindones ien
ĠkÃ¼hl schrank
Ġtort ure
Ġcaf Ã©
Ġstun ts
Ġgy rus
Ġcock ro
prin zip
Ġtreibhaus gase
Ġverpflich tet
Ġunangene hm
Ġlak ota
Ġfolgender maÃŁen
greif end
Ġnich ol
Ġmultip ly
kÃ¼nst ler
Ġpeps i
Ġalga e
Ġsap iens
Ġsowjet union
Ġnarrat ives
Ġlebensunter halt
Ġinfor mal
Ġhond ur
Ġsovere ign
Ġswitzer land
Ġnoneth eless
b Ã¤ren
b itte
f ro
k Ã¶r
k unden
n utzen
s au
Ġ =
Ġd d
Ġd read
Ġs izes
Ġi ke
Ġm au
Ġh orn
Ġg reift
Ġu cla
Ġe ve
Ġe cken
it ary
Ġp Ã¤d
or ten
Ġl oose
Ġk im
le uchten
Ġz ig
Ġz elt
Ġz orn
Ġbe gehen
Ġbe auft
ig ste
Ġy ves
ra ine
Ġst reich
Ġre b
Ġre ct
Ġre ader
ot le
Ġab nehmen
Ġab kommen
Ġsch uh
Ġsch ieben
Ġr iff
Ġr ente
Ã¼r t
be es
be isp
be led
be wohner
Ġne vada
Ġpro gression
Ġpro spect
th eless
sen der
Ġwor tw
Ġaus nahmen
Ġhat ed
ĠÃ¼ber setzung
Ġda re
art ikel
Ġdem Ã¼t
Ġdem okraten
Ġtr ou
Ġtr ennung
Ġpl a
Ġwo re
ass er
ick elt
Ġste ckte
zen s
Ġro les
Ġmich el
Ġunter m
ru he
ru pted
pl Ã¤ne
Ġsu e
hal ter
Ġev apor
Ġta ct
Ġfl esh
Ġide ale
Ġsc aling
Ġsc aff
Ġsomet ime
Ġtechn iker
Ġzeit spanne
Ġshe er
Ġdam aged
Ġhum ank
gr ippe
Ġbef anden
Ġteil nahme
Ġbo ards
Ġheraus kommen
Ġmin istry
Ġcomput ational
pro te
pro zent
Ġbere itet
Ġbild es
Ġfar ther
Ġverl Ã¤sst
no sen
Ġbeh Ã¤lter
Ġbeispiel en
Ġnever theless
Ġunderstand s
Ġtre ffe
Ġvis ually
Ġsen der
arch ite
Ġjo el
Ġson y
Ġje ws
dr ing
Ġander thal
gew inn
Ġsing er
Ġraum schiff
Ġexperim enten
sh ot
ogen e
Ġcol om
Ġhead ing
Ġche at
Ġ18 00
Ġunterschied licher
Ġversch melzen
Ġsex ually
Ġass embly
Ġvo ted
Ġkar l
Ġwirtschaft lich
Ġtrain er
Ġerfol ge
Ġcal end
zeich nete
Ġmathemat ician
Ġcost a
ogn ition
stra fe
Ġsens ible
Ġcond oms
Ġbau er
Ġbau steine
Ġcra w
Ġliter acy
Ġhol te
Ġbehand lungen
Ġmov ember
Ġmicro phone
Ġnon sense
Ġner d
Ġmult iver
Ġdeep est
Ġcy rus
Ġcy linder
Ġkid ding
ĠpersÃ¶n liches
Ġerstaun liches
Ġreach es
Ġpract ically
Ġrisk y
Ġ198 2
Ġcop per
Ġpull s
Ġpun ishment
Ġinse c
Ġnord pol
Ġpan ic
Ġ197 6
Ġexcept ions
ĠÃ¼b licherweise
Ġpil ze
son st
Ġwish es
Ġquad r
bi ologie
spe ed
Ġmagaz ines
Ġaccount ability
Ġassum ed
Ġpet ro
yl ac
Ġvari ationen
ĠprÃ¤sent iert
Ġimm ort
Ġintens ity
Ġangeb racht
Ġrespond ing
Ġkrit iker
Ġassoc iate
ĠfÃ¶r dert
Ġcru el
Ġiron ie
Ġprior itÃ¤ten
Ġmyth os
Ġrandom ly
Ġbiom aterial
Ġdestro ying
Ġresist ant
Ġverf assung
Ġgarden s
Ġprivile ged
Ġpsycholog ist
Ã¤hn liche
Ġrit uals
Ġsaf ely
Ġchromos omes
Ġbrazil ian
Ġdauer haft
Ġreag an
ĠÃ¶konom ischen
hÃ¶ he
ĠtÃ¤t ig
Ġspider s
ĠprÃ¼ f
Ġautonom y
Ġlaugh ed
Ġtheoret isch
Ġtoler ance
Ġzuge geben
Ġbelong s
Ġassist ance
eben e
Ġangesch lossen
Ġwitness ed
ĠjÃ¼ng eren
Ġimper ial
Ġenzy me
Ġintellekt uelle
Ġausgel Ã¶st
Ġbelieb igen
Ġkonflik ten
Ġarist otle
Ġgesichts aus
Ġphysikal ische
ĠberÃ¼ck sichtigen
ĠkrÃ¤ hen
Ġmobiltele fon
ĠstÃ¤rk sten
Ġtransc end
Ġrau bt
Ġtenn esse
Ġsingap ur
Ġrefuge e
geste uer
Ġverwende te
Ġgraus am
Ġsevent h
Ġnathan iel
Ġgriechen land
ĠnÃ¤h ern
Ġcass ini
Ġleop ard
Ġflederm Ã¤use
Ġsupernov a
Ġpest iz
Ġcamer on
Ġautob ahn
Ġepis ode
Ġbeobacht ungen
Ġunheim lich
Ġdistingu ish
Ġgeck o
Ġpear l
ĠanfÃ¼hl t
Ġlivest ock
Ġhyg iene
Ġsurg ical
Ġdyl an
Ġcriter ia
Ġundergra du
Ġanderthal b
d id
d ire
f ass
f ire
h u
h ang
k orn
m l
m ir
n utz
r h
s at
u zen
w al
z iger
z ierte
in come
Ġd ome
Ġw inner
Ġb ade
Ġb bc
on ien
Ġh Ã¼tte
re ck
Ġg n
Ġe ld
an im
st al
Ġp ou
Ġp anc
Ġl ym
Ġk han
Ġk eller
Ġbe ten
Ġbe ds
Ġbe werk
Ġbe ef
Ġwe iten
ur ers
ent um
Ġsie g
ic er
Ġan erkennen
Ġj l
Ġj og
Ġst Ã¶
Ġst reifen
Ġst Ã¶rung
il zt
Ġver fe
Ġer u
Ġsch Ã¤
Ġsch ickt
Ġr us
se he
Ġpro th
Ġhe iz
Ġmo h
Ġch ess
Ġas iat
Ġas ym
Ġsich ere
Ġaus be
os ity
Ġde ines
Ġtr Ã¼
Ġvor Ã¼ber
Ġcon gest
Ġcon sensus
Ġpl anned
ne w
Ġent nehmen
Ġent schlÃ¼ssel
Ġwho ever
Ġby pass
Ġgl ied
Ġcomp ound
Ġpr est
Ã¤t tern
ide press
pl atten
Ġra uf
Ġra cing
Ġfl Ã¼sse
Ġsc al
Ġbeg raben
Ã¤r zte
Ġtun is
Ġmar x
Ġmar ks
Ġlie fen
Ġdis par
Ġho hem
Ġgem Ã¤ÃŁ
Ġreal isieren
Ġhum ble
Ġland schaften
Ġgood bye
Ġpass es
br ush
Ġshow er
Ġaut istic
Ġoff sh
Ġzusammen kommen
Ġpu bert
Ġgleich ungen
Ġrel atives
Ġel end
Ġinst abil
Ġbere iten
.. ."
Ġdenken s
Ġsl ower
alt ungen
Ġimag ining
oren e
Ġtre u
Ġinteress ierte
Ġlebens stil
ween ey
Ġstra hl
Ġstra fe
Ġje an
Ġje wel
Ã¤s se
Ġcor rupt
Ġsupp e
Ġende te
wie gend
Ġnet ze
Ġeur en
Ġricht linien
Ġpres um
Ġair line
Ġant idepress
gesch rieben
Ġinnov ativ
Ġchr onic
Ġvoll zeit
ĠkÃ¶rper lich
Ġdig ging
irl ing
Ġsuper star
Ġkurz frist
Ġfot ografen
Ġcontin uously
Ġpot ter
Ġkne es
Ġkunst werk
met ter
Ġwert volle
air o
gem Ã¤ÃŁ
Ġbehind erung
fu hr
Ġnon viol
Ġeinge b
Ġmittel alter
Ã¤cht igt
ĠkÃ¼nst lern
Ġtext s
Ġtext ing
Ġjapan ischen
Ġpark platz
Ġled s
Ġfeed s
gra nd
Ġdemoc racies
Ġerscha ffung
Ġ198 5
Ġansch lieÃŁend
Ġhit ler
Ġanzu passen
Ġvisual ize
Ġpf legen
ograf ische
Ġspread s
ĠÃ¼berleben s
Ġaufre gung
ĠkÃ¼nstler in
Ġrede te
Ġiran ian
Ġdunk ler
Ġpartner schaft
Ġdemonstr ieren
Ġentwicklungs hilfe
Ġfisch erei
Ġbatter ien
fel der
Ġtend ieren
tter t
Ġcat alog
Ġenth Ã¼
Ġbein halten
Ġdiscuss ions
dig it
ĠernÃ¤hr ungs
Ġintrodu ction
Ġprison er
Ġdeter mines
ĠgeschÃ¤fts modell
Ġprior ity
Ġdescrib ing
pack t
piel en
Ġdur ften
Ġmatch ed
far ben
Ġcooper ate
Ġcooper ative
Ġgeograph y
Ġjack son
Ġpsycholog ische
Ġpleas ant
Ġfold ing
Ġvorhers age
verb indung
Ġconcent rate
Ġtank s
Ġbrenn stoffe
Ġempower ment
Ġangew iesen
Ġglamour Ã¶s
Ġdisappear s
Ġauthent ic
Ġschock iert
Ġfantas y
Ġverteid igung
Ġpoly mer
stu fe
Ġermut igt
ĠgrÃ¶s ser
Ġimple mented
Ġtoy ota
Ġverring ert
Ġacqu ire
mor al
Ġmanifest ation
bom be
Ġrenew ables
Ġstattf and
Ġvorzu bereiten
Ġlon gevity
Ġcoca ine
aby tes
Ġtast atur
Ġkath ol
Ġherausf anden
Ġerwar tete
Ġmembr ane
Ġiv an
Ġkonz ert
Ġicon ic
Ġkrankenh Ã¤usern
Ġverz Ã¶
Ġanten na
Ġumwand eln
rin th
vide o
pflanz t
Ġpau lo
Ġvel oc
Ġrecyc led
Ġbeloh nt
Ġbevorzu gen
mÃ¤r kte
Ġpries ter
Ġmelod ie
Ġslog an
Ġaristo teles
Ġwahrschein licher
Ġrez ession
Ġartw ork
Ġcompre hens
Ġdiarr hea
synd rom
Ġsupre me
Ġprozents atz
Ġoreg on
Ġvak uum
Ġtennesse e
Ġbewerk stell
a id
d ar
f ood
h ire
k ennt
k ugel
m ay
m ess
m ond
m ikro
n as
n ame
n utzung
o e
o ter
r ou
r isch
r ating
v ana
w ahl
Ġt ou
Ġt ues
in tens
Ġa y
Ġw uchsen
es pe
ie fer
Ġb ou
on ac
Ġh ed
re gend
Ġn i
Ġin fra
Ġin tend
ich el
ar ren
Ġl Ã¤
Ġl ank
Ġc t
Ġc age
Ġk ul
Ġk unde
Ã¼ pfen
ent sche
Ġan bie
Ġse gel
ten ance
Ġst agn
ow ers
Ġre jected
Ġver ha
Ġver geben
Ġver spre
Ġab gel
Ġab lÃ¤uft
Ġab normal
ach ing
lich ung
Ġme ll
all s
Ġsch rum
Ġsch melzen
Ġr g
Ġr enn
Ġr ust
Ġr asse
Ġr annte
Ġr aster
Ġr iding
Ġr ng
Ġden ker
ver arbeitung
Ġall ies
Ġfor dern
Ġle itet
and e
Ġne bel
Ġman tra
Ġhe bel
Ġsp art
Ġsp ear
Ġar bit
Ġcan adian
Ġaus zusehen
os ke
Ġum sonst
und erst
pp t
pp el
Ġsa int
Ġtr enn
Ġsh ed
Ġen rich
Ġwo hing
Ġout rage
per t
per cent
Ġste t
Ġwill ens
Ġpr iest
Ġro hr
Ġro ger
Ġro osev
Ġgro b
ans atz
Ġqu ell
ĠâĢĵ ,
Ã¤ch te
Ġbet Ã¤u
Ġfl ucht
if ul
Ġdon ors
Ġke pler
sp aren
sel n
Ġaf ro
Ġtra ff
rei ber
ple ase
Ġzeit schriften
Ġvers ionen
Ġdis hes
Ġkle ink
Ġdr ingen
Ġkl uge
Ġland wir
Ġstr ich
Ġstr asse
Ġoff spring
Ġben ach
Ġinform ieren
Ġapp et
Ġpat ch
ian ces
oc al
Ġcount less
Ġweiter gegeben
Ġko ffer
Ġsoc cer
Ġla beled
Ġverste ckte
Ġsk ate
no te
Ġfound ing
Ġtre k
stand ard
Ġted ster
Ġdra chen
gew iesen
off s
Ġschnell sten
Ġ7 3
Ġcare d
Ġmod est
Ġmas h
Ġbre m
stÃ¤nd igen
Ġarch im
Ġarch ae
Ġmust ern
kr Ã¤ften
Ġstop p
Ġru der
Ġyoun gest
Ġret tet
Ġret ail
Ġdig est
Ġexist ierenden
Ġeing riff
vo ir
Ġed it
Ġern ste
Ġamerikan ischer
Ġlin se
bed ing
Ġange griffen
Ġvol unt
atur al
Ġdro ps
Ġkosten gÃ¼nst
Ġunters uchten
ĠkÃ¼nst lichen
Ġeight y
Ġumwelt schutz
Ġtext ure
pekt iven
Ġtau cht
Ġneben wirkungen
ĠwÃ¤ hlten
Ġpract icing
Ġrei fen
Ġfore cast
Ġsil ber
Ġcop ied
ĠrÃ¼ck gang
ĠbÃ¼r gern
ban isha
Ġakt ive
ĠbeschÃ¤ft igung
Ġice berg
hy dr
ĠerklÃ¤r ungen
pers onen
Ġpan the
Ġpan banisha
Ġersch Ã¼tter
Ġtal ents
Ġsoon er
Ġsequen cing
Ġtruth s
la fen
Ġaufge geben
forsch er
Ġann ivers
Ġnar c
Ġarab ia
Ġscreen ing
Ġcross ed
Ġprakt ische
sa al
Ġdete ctor
Ġdeliver ing
ĠbÃ¼ro s
ĠverstÃ¤nd lich
Ġrepresent ative
Ġswe ep
Ġverletz ung
Ġvielf Ã¤lt
Ġdoc umented
Ġstol en
Ġcalcul us
ĠauÃŁen welt
Ġcrow s
Ġshift s
Ġtherap ies
ĠgeschÃ¤fts fÃ¼hrer
Ġkrit ischen
ĠfÃ¶r der
Ġcru de
org ungs
Ġmanip ulieren
pack en
Ġinj ured
Ġdok umente
Ġbiom im
Ġsmell s
Ġchromos omen
Ġolymp ics
Ġerr ichtet
Ġszen ario
Ġaccur acy
Ġkick ed
Ġgeste uert
Ġexhib it
Ġdocument ary
Ġstimm ung
Ġacceler ating
Ġauthent icity
Ġbron ze
fig ur
Ġverhand eln
kont rolle
Ġnegot iate
Ġblow ing
ĠzÃ¼ ge
Ġentschuld igen
Ġkonkur rieren
Ġconver ted
Ġacqu ired
Ġveranst altung
Ġweihn achten
Ġeu ph
person al
Ġaustaus chen
Ġcompl ain
Ġingred ient
Ġerneuer baren
Ġbetracht ung
Ġvoc ab
Ġcath ed
Ġmelt ing
Ġstap el
metho den
Ġmush rooms
Ġskulpt uren
Ġkond ome
Ġentt Ã¤uscht
Ġunerwar tet
ffiz ienz
Ġcens us
Ġwahnsinn ig
Ġspaz ieren
Ġcorrel ation
Ġtyr ann
Ġhouseh olds
Ġadoles cent
Ġjam ie
Ġtriang le
schu he
Ġmetaph ern
Ġtang ible
Ġlifes pan
Ġkomprom iss
ĠzuhÃ¶r er
Ġfib onac
Ġenfor cement
Ġallm Ã¤h
zeital ter
Ġkonvers ation
ĠbemÃ¼h ungen
Ġcommitte e
Ġbeig etragen
Ġherzinfar kt
Ġgord on
Ġseroton in
Ġgalile o
Ġtues day
Ġroosev elt
b ble
b ane
f lich
h Ã¤user
i form
j ack
k und
l og
m ten
m Ã¤dchen
p hal
w id
w ould
Ã §
â ģ
en ing
Ġa ÃŁ
Ġa tember
Ġd icke
Ġw ies
Ġw alter
Ġw Ã¶rtlich
Ġth ylac
Ġm uh
ie gt
as sten
st art
it ivity
ou nf
Ġc ables
Ġk ino
Ġto ast
Ġto wers
Ġein schl
Ġbe arbeiten
Ã¼ chter
Ġy ard
el ad
Ġan treibt
Ġzu stÃ¤ndig
Ġzu aller
Ġj r
Ġst are
Ġst irling
Ġre ine
Ġver passen
Ġver passt
Ġver arbeitung
ot tet
Ġun gerecht
Ġab w
Ġer bl
ge fÃ¼gt
sch Ã¼
im ore
im ination
Ġr unden
Ġr asen
ver w
Ġle ktionen
Ġle ague
and et
Ġauf zus
ff ect
ag ement
Ġsp ender
Ġwar n
Ġch ord
Ġch unk
Ġcan vas
ist isches
Ġaus gere
Ġaus zut
Ġor angen
Ġex tr
Ġum setzung
Ġde forestation
ĠÃ¼ber fluss
Ġda f
ik on
Ġmy cel
Ġdem ent
Ġdem selben
Ġvor geschlagen
Ġsh a
Ġsh ops
Ġpl ak
Ġpl ates
Ġwo lle
Ġent lassen
ste iger
Ġnach kommen
fe hler
Ġmein ten
Ã¤t t
to os
Ġfra ct
Ġfa ils
Ã¤ch ern
Ġra ins
Ġev an
if ikation
Ġwelt wirtschaft
Ġdurch fall
sp uren
sel be
Ġpart ikel
Ġpers pektiven
rie t
fÃ¼ nf
fl ucht
Ġpre y
Ġkle ttern
Ġstud ierende
Ġhand ful
Ġac ute
Ġac res
Ġkl appt
nte il
Ġreg ulation
Ġmal te
Ġbef Ã¤h
Ġthr illed
Ġprodu ktiv
Ġprodu cers
Ġteil zunehmen
ord nete
br al
Ġschw elle
Ġaut ounf
Ġzusammen bruch
Ġinv asion
Ġapp les
Ġtats achen
Ġgu ards
Ġgu itar
Ġschl age
Ġko ennen
Ġkr iter
Ã¤u ber
Ġshould ers
Ġdan cers
Ġfall schirm
Ġsl ice
Ġcreat or
Ġverl aufen
alt ungs
Ġexam ine
ĠwÃ¤hr ung
Ġgerade zu
Ġje weil
Ġstre cken
Ġstre ams
Ġ9 3
Ġcor als
Ġged auert
Ġ8 2
Ġprof il
Ġmut ig
Ġlab y
sh aped
Ġerinn er
ief ert
Ġgest ures
Ġkop iert
Ġhinter fragen
Ġbar m
Ġhil flos
Ġident isch
Ġsor te
Ġpublic ly
Ġarg umente
Ġbehand lungs
Ġange legenheiten
Ġspr ang
Ġverm Ã¤chtnis
Ġredu ktion
ĠvÃ¶ geln
Ġhoff nungen
Ġblack berry
Ġauss uchen
sk y
Ġsqu id
Ġmechan ismen
Ġtit us
Ġvirt ue
Ġx l
amer as
Ġscre aming
ĠÃ¤r zt
Ġposition en
Ġrecogn izing
Ġcop ies
Ġcop enhagen
Ġplatz iert
Ġmain tenance
Ġenc elad
Ġentscheiden den
Ġpath ways
Ġausge ht
Ġconcept ual
Ġintegr ate
Ġsequen ces
Ġdynam isch
Ġchrist ians
Ġfro gs
Ġdef ault
Ġsche ibe
hÃ¶r igkeit
Ġerschein ung
Ġargument ieren
Ġcoun ted
ĠsÃ¤ ulen
Ġtransl ator
Ġanaly zed
Ġfill ing
Ġreport ing
Ġunfort unate
Ġsignific ance
ĠtÃ¤ gliche
Ġtherap ien
mÃ¤ÃŁ igen
Ġles ters
Ġteles k
Ġelektron ischen
Ġkol umb
uck y
Ġabsch lieÃŁend
Ġcelebr ation
Ġfrustr iert
bÃ¼ ro
Ġrespekt ieren
Ġheav ily
ĠjÃ¼n gere
Ġbesuch er
verstÃ¤nd nis
Ġvorbere iten
Ġcondu ct
Ġpip e
Ġerr ungen
ĠdÃ¼n ne
Ġgeschen kt
Ġembra cing
Ġregular ly
Ġdokument ieren
Ġmac ro
Ġstimm te
Ġacceler ate
Ġpfe il
Ġdiam onds
Ġ195 7
Ġverhand lungen
Ġkart off
Ġparas iten
sl Ã¤ufig
ĠgrÃ¶s se
Ġkonsequen z
Ġproport ional
Ġversich ern
Ġroh stoffe
Ġurs achen
ĠfranzÃ¶s ische
Ġaer odynam
Ġminer al
Ġcas ual
mill ionen
Ġgewiss em
Ġzwang slÃ¤ufig
Ġpum pen
Ġangestell te
rechn er
Ġimit ieren
Ġbonob o
Ġeint ritt
Ġschwanger schaft
ĠerzÃ¤hl ungen
Ġmosquit os
Ġberu ht
fÃ¶rm ige
Ġlatein amerika
Ġausges prochen
Ġcand y
Ġphilosop hen
ĠalltÃ¤ glichen
ĠgÃ¤n z
Ġdiplom acy
Ġangiogen ese
Ġangiogen esis
imet ers
Ġminor ity
Ġdisappo int
Ġtalen ted
Ġwhis per
Ġalumin ium
ĠpalÃ¤st inens
Ġdrast isch
Ġbewund ern
Ġfi ktion
ĠerfÃ¼ll ung
Ġeinkauf s
Ġdub ai
ingenie ur
ĠaufklÃ¤r ung
null summen
Ġsna ke
Ġbert ie
Ġbequ em
Ġunbew usst
Ġsatur day
Ġtherape ut
Ġhalluzin ationen
Ġspat ial
Ġparach ute
Ġneuse eland
Ġkambod scha
Ġwohing egen
Ġfibonac ci
âģ Ħ
Ġatember auben
Ġencelad us
a ÃŁen
a ware
a ired
c re
g ill
h ell
k uchen
p il
r an
r un
r igen
s ive
u an
w omen
z un
er al
Ġt ay
Ġt ahr
Ġa ar
Ġa ÃŁen
Ġa ura
Ġm p
Ġm s
Ġm ere
Ġm ba
ie ber
Ġb Ã¶
Ġh ood
Ġg aza
an zug
st ill
st unde
st Ã¶rung
Ġf esten
Ġc um
Ġv ore
Ġk ug
Ġk anz
Ġto aster
le v
ir y
al i
Ã¼ hr
om an
Ġy or
Ã¤ uren
et ers
Ġha z
Ġha ft
ic ut
Ġan om
Ġan legen
Ġan kunft
Ġan zut
Ġan griffe
Ġdi ale
Ġzu stÃ¤nde
Ġse am
Ġj ury
Ã¶ ch
il i
Ġre kr
Ġver bergen
ter ung
am era
Ġab st
Ġab geben
gen au
Ġer forder
ge ted
Ġwas ted
Ġr sw
ver g
be e
be an
ber to
Ġne ok
Ġne igung
Ġpro je
Ġ-- -
au be
Ġhe ck
ag ern
Ġch ains
Ġwor aus
Ġaus Ã¼ben
ern al
ab a
ab ling
Ġum drehen
Ġnot iz
Ġde kor
Ġde leg
ĠÃ¼ber d
Ġdes ignen
Ġsa ck
Ġma o
Ġma hm
Ġtr ips
Ġvor ant
Ġvor nehmen
Ġsh ack
Ġher kommen
Ġnach her
Ġgen ossen
Ġhier mit
Ġup right
ass es
Ġam put
Ġco in
Ġco ordination
Ġbr iten
Ġunter nommen
pl ing
Ġbl ur
Ġbl own
Ġgesch ossen
if te
Ġob so
sp ot
sp olitik
Ġide ology
Ġtra ding
Ġsag st
ob al
Ġbeg ab
Ġzwe cke
ph ase
stell ungs
Ġdr unk
Ġ3 000
Ġgew Ã¼n
Ġac ids
Ġkl icken
Ġem it
Ġem ma
Ġreg imes
gr as
Ġgel andet
Ġfre is
Ġir rig
Ġir rt
Ġschw imm
act ic
Ġsim ulate
Ġschl imme
ian ische
oc ation
Ġoh io
Ġsec ular
Ã¶ÃŁ t
pro of
Ġlong est
Ġwr est
gel enk
Ġans ah
Ġber ichte
Ġvis iting
Ã¼nd eten
Ġfol ien
Ġbro cc
Ġweit gehend
Ġeconom ically
Ġwa isen
Ġresp ir
Ġnet ten
Ġprocess or
Ġteach es
Ġlos es
Ġlos werden
Ġris es
Ġrecht zeitig
Ġrad ius
Ġunivers es
Ġbetra chter
Ġeins icht
Ġ18 6
Ġ18 8
Ġreason ing
Ġchem iker
unter nehmer
cl ub
Ġextre men
Ġextra h
bra nd
Ġmess y
Ġfront ier
Ġorganis ierte
Ġlaw rence
Ġweb seiten
Ġsinn es
Ġtat toos
cc a
Ġdest ination
Ġbehind erungen
Ġalong side
Ġfree zing
Ġple ased
Ġkosten lose
ĠkÃ¼nst lich
Ġeight h
Ġkreat iver
Ġeth ic
ortra g
Ġsand s
Ġpfl icht
Ġord entlich
Ġansch lieÃŁen
jÃ¤hr iges
Ġgas oline
Ġinfr ar
Ġcolor ado
Ġemer gence
Ġcrit ically
ĠbÃ¼rger krieg
Ġgele istet
Ġherr n
aben d
Ġlif el
Ġachie ving
ĠÃ¼berw Ã¤ltigen
Ġenorm ously
Ġtar geted
mon th
Ġevol ving
Ġmex ican
Ġspeed s
Ġport land
wass erstoff
Ġstick ing
Ġerwachsen er
Ġvoraus setzungen
krie gen
ĠÃ¶k ologischen
ĠmitgefÃ¼hl s
Ġphilosoph ical
Ġenth Ã¼ll
Ġozean en
Ġcook ie
Ġbegri ffe
Ġdiscuss ing
Ġprofit able
bu ilt
Ġrespond ed
Ġod or
Ġgebra uchen
Ġcontrib uting
mat ik
Ġban anen
Ġgesundheits versorgung
Ġuntersuch te
ĠmilitÃ¤r ische
Ġspaces hip
Ġveran schau
Ġcoast al
Ġreform s
Ġvorbere itung
Ġhind u
fil me
Ġmeeres boden
Ġdisplay s
Ġastronom y
Ġverkauf ten
Ġhur ric
Ġpoten zie
netz werk
urf ing
Ġabsicht lich
ĠungewÃ¶hn liche
Ġchirurg ie
Ġverteid igungs
Ġpow der
Ġpandem ie
Ġmolek ulare
Ġbug s
Ġdum me
Ġinher ently
Ġoccup y
Ġanstren gungen
Ġhug ely
Ġsed u
ĠverstÃ¤r ken
Ġembarrass ed
aby te
Ġanx ious
Ġmarsh all
ĠhÃ¼hn er
Ġneurowissenschaft ler
Ġpour ing
Ġvorgehen sweise
Ġcandid ates
Ġhomosex ual
Ġtransist or
Ġrevol utions
Ġoffensicht liche
Ġvarian ten
stÃ¤d te
Ġye ast
Ġbureau c
ĠannÃ¤her nd
katastrop hen
Ġshor ter
Ġentr ance
Ġsonnt ag
Ġkrist all
ĠgÃ¶t ter
ĠherkÃ¶ mm
Ġgrocer y
Ġshepher d
Ġtans ania
Ġike a
Ġlym ph
Ġpubert Ã¤t
Ġverha ftet
Ġannivers ary
Ġzualler erst
Ġlaby rinth
Ġtahr ir
Ġbrocc oli
2 4
d Ã¤m
e conom
f und
f urch
g ay
h orn
i oren
i ju
j etzt
l ink
l Ã¤nd
m assen
r ast
r if
w att
z es
Ġ Ã¤ngst
en a
Ġt ink
in ne
in vest
Ġa ort
Ġa ph
Ġd elta
Ġs erg
Ġb og
Ġb ac
Ġb alt
Ġh os
Ġthe at
Ġg ains
an y
Ġo ven
Ġo tt
Ġf red
Ġn go
Ġin uit
Ġp om
Ġp el
Ġp ound
Ġl ump
Ġc ups
Ġv anc
Ġand y
Ġein heim
Ġz yl
Ã¼ chte
Ã¼ stet
un es
un ting
un ivers
Ã¤ g
Ġha cken
Ġder selbe
Ġj etz
Ã¶ te
Ġre aktor
Ġver bleiben
ot ische
Ġun seen
Ġab bau
Ġer ober
Ġer osion
sch atz
im en
Ġsch ale
Ġr ul
Ġr ug
Ġle ctures
Ġdo do
Ġauf r
Ġauf get
Ġim itation
Ġmit arbeit
au bert
der weise
th ank
ag nen
Ġwar mer
sen z
id met
isch te
Ġch er
ul ary
ist ik
aus ch
we ist
Ġaus gehend
os oph
Ġex agger
ab sichtig
Ġum bringen
ĠÃ¼ber nimmt
ze era
Ġno ble
Ġsh aking
Ġsh ifted
Ġen ge
Ġher d
Ġgr an
Ġgr im
Ġkn all
Ġget rÃ¤n
Ġinter ag
Ġam p
iz ierte
Ġgl enn
Ġcomp ute
our se
for mer
Ġhad ron
Ġunter t
Ġkon s
sp ort
Ġlo yal
ac c
ry pt
Ġpre ced
Ġ3 9
Ġad ds
Ġger ingen
glich er
Ġhel met
Ġgra u
Ġgra ins
Ġbef rei
Ġentw arf
ty p
Ġcar ib
Ġ5 000
ha ve
igh ters
Ġmet als
oc ke
Ġ4 1
Ġkam el
Ġgener ic
Ġgener ates
Ġsl ope
Ġnum mern
Ġser ves
Ġvis ions
Ġvis uell
Ġted dy
ster reich
Ġexpl ored
Ġchar l
Ġchar ism
Ġprob iert
mÃ¶ glichen
Ġant ire
Ġhead quarters
Ġinnov ate
Ġversuch s
ever y
Ġche ating
alen ce
ĠkÃ¶rper lichen
Ġbesond er
Ġgru pp
Ġmiss ions
leben s
Ġred eten
Ġessen z
Ġprin ce
Ġanswer ing
Ġverd amm
Ġref use
spr ung
stra hlen
stra hlung
Ġbau e
Ġcons ent
Ġerfolg reichen
forder ungen
Ġpay s
Ġlin sen
bes itz
ĠgrÃ¼nd er
Ġfreund lich
amp us
Ġball ast
Ġsqu ares
Ġkreat ur
Ġap es
Ġsold at
Ġneg le
Ġ17 0
Ġwochen ende
Ġment ally
Ġindividu ell
Ġmuse en
Ġtief grÃ¼nd
Ġzahl reiche
Ġconv icted
Ġrepl acing
ĠtÃ¶ dlich
Ġhon ored
Ġther mal
Ġtin ten
Ġakt ien
ustain able
Ġmoder ner
Ġmotiv ate
Ġrep et
Ġintegr ity
Ġjung le
Ġerd oberflÃ¤che
Ġflo at
ĠÃ¼b lichen
Ġverbr ingt
Ġtravel s
fre ie
Ġintro vert
Ġtrust ed
Ġlaut sprecher
Ġzeich net
Ġpen al
Ġhinzu gefÃ¼gt
ĠÃ¶k ologische
Ġkomp eten
Ġcoun sel
Ġcat aly
kom me
Ġphilosoph ers
Ġliber ty
Ġcollabor ate
front al
Ġauthor itarian
Ġcalcul ating
Ġsymmet ries
Ġabstra kt
Ġmond ay
Ġclim bed
ĠfÃ¶r derung
Ġmont ag
iat ric
grÃ¶ÃŁ te
Ġphotos ynth
Ġprior ities
Ġprevent ing
Ã¤hn lichen
Ġtemperatur en
Ġtraur ige
Ġveget able
Ġforg ive
Ġprost itution
Ġparadig ma
Ġreligi Ã¶s
ĠÃ¶konom ie
Ġfried man
Ġroof s
ĠeinfÃ¼ hl
Ġsolid ar
Ġkomm and
Ġimpf stoffe
Ġdiam ond
pat ienten
gesell schaften
Ġbefre it
Ġrie fen
Ġzusammenzu arbeiten
ĠjÃ¼ng ste
sec ond
ĠzusÃ¤tz lichen
orient ierte
Ġrab bi
Ġstere o
ĠfranzÃ¶s ischen
Ġdiction aries
Ġteuf els
Ġathe ist
Ġipod s
ĠverstÃ¤r kt
freund lich
Ġmini atur
Ġabh Ã¤ngen
Ġmetabol ism
Ġtermin al
Ġdesper ate
Ġangene hm
ĠgegenwÃ¤rt igen
Ġjahrhunder ten
Ġbeunruh igt
Ġspaz ier
inform ationen
Ġparam eter
Ġreflekt ieren
sproble m
wander ing
ĠgemeinnÃ¼tz ige
Ġadvoc ate
Ġutter ly
Ġgelie bt
Ġech o
Ġdisappo inted
Ġchemotherap y
Ġchemotherap ie
ĠbeschÃ¤d igt
exper iment
Ġwiederauf bau
Ġthun fisch
Ġargent in
Ġtextbook s
Ġworksh ops
Ġurheber recht
Ġjord an
Ġbefol gen
Ġgefil mt
Ġinhab it
rhyth m
ĠsÃ¶ hne
Ġpige on
ĠkÃ¼n ste
Ġwohler gehen
spun kte
Ġquantenmechan ik
ĠgrÃ¶n land
instit ut
Ġcongest ion
ĠallmÃ¤h lich
Ġbalt imore
b liche
b ahnen
f iction
g ingen
m eln
s i
t u
u ckt
v ens
w elle
w ired
y ll
z ettel
er ies
Ġt il
Ġw ink
Ġw age
Ġi cons
Ġm Ã¼cken
Ġm auern
Ġb indung
Ġb iene
Ġb Ã¼hnen
at ories
re al
Ġg il
Ġg Ã¤ng
as y
Ġe h
Ġe llen
Ġe ats
st att
st airs
Ġf ier
Ġf og
Ġf ame
Ġf Ã¤r
Ġf Ã¤l
Ġn asty
Ġin tra
Ġin halts
Ġp iv
ou x
Ġc ope
Ġk t
Ġk Ã¼nd
Ġk ipp
Ġein nahmen
le gten
Ġund ert
al gorith
Ġof en
Ġbe acht
Ã¼ mer
Ġwe ich
Ġwe ist
ig ram
em onie
ra ch
Ġan e
Ġan bauen
Ġan gles
Ġdi ana
Ġj ason
Ġst Ã¶ren
de fin
Ġab spielen
Ġer der
Ġer reich
ind ustr
Ġme ets
Ġr yan
Ġge op
ver bre
se a
um enten
be lle
be ziehen
Ġ" ]
Ġne il
Ġpro ton
Ġauf sp
Ġauf wand
Ġauf zust
Ġauf steigen
Ġauf hÃ¶rt
Ġauf gefallen
Ġmit ch
est one
Ġsp ass
Ġsp itz
id al
kt ure
he x
ern Ã¤hrung
Ġges ten
Ġde zent
ĠÃ¼ber blick
Ġsa ison
Ġma pped
Ġsh atter
ste p
ste igt
ap fen
Ġmach er
fe uer
Ġmein ungs
Ġpr imate
zen e
Ġro cke
Ġbr ibe
Ġqu o
Ġunter drÃ¼cken
Ġunter brochen
ru p
ous es
Ġbes ide
Ġbes aÃŁ
Ġbes iegen
Ġbl Ã¼te
Ġra chel
Ġta le
if ies
Ġke hren
Ġob sc
Ġlo ads
Ġmill er
ĠfÃ¼ lle
ac re
Ġfind ings
pr Ã¤s
Ġres ur
Ġad ren
Ġgew idmet
Ġlot ter
Ġstar ker
Ġhand lungs
Ġgem erkt
Ġsystem atic
Ġpol en
Ġcont ag
Ġpass ions
aut o
Ġfre ier
Ġfre iz
Ġteil te
gl as
gl obal
Ġbest anden
Ġzusammen bringen
Ġzusammen spiel
Ġfam ously
Ġinform iert
Ġbas en
Ġgu inea
iss ipp
Ġschl amm
Ġschl oss
Ġcount s
Ġwahr es
Ġdec ides
Ġgrund schule
Ġgenau igkeit
Ġkr isen
Ġkr iminalitÃ¤t
ĠÃ¶ sterreich
Ġbild schir
kl Ã¤ss
Ġzie he
Ġgener ator
Ġgener osity
Ġverste ckten
Ġbeh old
Ġber aten
str itten
Ġschn app
Ġvis cer
Ġcr ank
Ġfol gten
Ġjo h
Ġje ep
Ġdre if
rat ors
Ġcor rid
Ġur gent
Ġanim ations
Ġproject ion
Ġang reifen
Ġhar ten
Ġlos ses
Ġant reiben
Ġpsych ischen
ime e
Ġversch wendung
Ġsex uell
Ġass et
Ġmiss issipp
unter schiede
Ġsuper her
ho st
Ġdefin ing
Ġequ als
Ġerkl Ã¤re
Ġref erenz
Ġpot entiell
Ġmess ungen
Ġorganis ierten
Ġgesellschaft liche
Ġcra cks
Ġcons ists
bed arf
ĠÃ¤hn elt
ĠgrÃ¼nd eten
Ġspr ingt
Ġnetz haut
Ġ199 2
voll ziehen
Ġverr ichten
Ġfle ck
Ġmult itas
Ġfreund es
Ġaff airs
Ġill usions
fÃ¤ llig
Ġkil ow
Ġball et
Ġeth ics
Ġach illes
mar sch
Ġet ik
Ġsurv iving
ĠrÃ¼ck kehr
Ġrepl acement
Ġanzu bieten
ĠsÃ¼d lich
ĠsÃ¼d lichen
Ġwach te
Ġvisual isierung
Ġblood y
Ġmanag ing
Ġop rah
Ġverwand elte
Ġschwierig sten
Ġprom oting
spro jekt
Ġrom o
Ġdead ly
Ġerle bte
Ġaufzu geben
Ġverbra chten
Ġjournal ism
ĠhÃ¼ lle
Ġarr est
Ġaufge hÃ¶rt
Ġarab ische
Ġconst it
Ġprofession elle
stre cken
Ġbetrachte ten
kn ow
Ġnachhalt igen
Ġsad ness
Ġplat o
Ġgesp annt
Ġentsch loss
Ġabstra kte
Ġingenie urs
Ġingenie uren
Ġcard iac
ĠschÃ¶ pfer
Ġcelebr ity
stud ium
Ġultim ative
Ġhonest y
Ġgering sten
Ġbeteil igung
Ġmaster y
ĠÃ¤uÃŁ eren
Ġadapt ation
prof essor
Ġflight s
Ġaufw achsen
Ġ[" '
dien ste
Ġappl ies
Ġkoll ab
part ner
Ġremote ly
Ġverkauf s
Ġwil den
Ġancest or
Ġtrib al
Ġspezial isten
Ġgam ers
Ġesc al
Ġparent ing
Ġinvestig ation
Ġegypt ian
Ġdiss ol
Ġunend liche
Ġprototyp ing
Ġparas ite
nach richten
Ġskept ical
Ġzusammenzu bringen
Ġplatt formen
Ġvideosp iel
Ġpingu in
Ġintellekt uellen
Ġrechen schaft
Ġminer als
Ġbelieb ige
Ġky ros
Ġresc ued
ĠverblÃ¼ ffen
ĠverknÃ¼ pfen
Ġromant ische
Ġrig id
Ġreven ues
Ġmi ami
Ġbeiz ut
Ġros ling
ele ct
Ġboo st
Ġdiscipl ines
Ġclar ity
Ġmetabol ic
Ġherausf and
Ġcorresp onds
Ġdreie inhalb
Ġfox o
ĠlÃ¼ ge
Ġweigh s
Ġmillenn ia
Ġmolekular en
umble d
Ġdreidimens ionalen
Ġelev ator
Ġweiterentwick elt
Ġoffiz iell
Ġkab ul
Ġrepublic ans
Ġlap ar
Ġdict ators
Ġcalc ium
Ġberuh igen
Ġintent ions
Ġathlet es
Ġbun ker
Ġnucle us
Ġeinbe ziehen
Ġtalen te
Ġupd ate
Ġmahl zeiten
iess lich
Ġbruch teil
phys ik
ĠbeÃ¤ngst igend
Ġgede ihen
Ġmanus cript
Ġmetrop olitan
Ġpaten te
Ġark ansas
Ġwiderspr Ã¼
Ġlester land
Ġpanz er
Ġzigare tten
Ġwinden ergie
Ġrhin o
Ġagr ar
Ġelter nteil
Ġalf red
Ġelabor ate
Ġcambod ia
Ġfundra ising
Ġshutt le
Ġbaumkr onen
Ġmaneu ver
Ġwortw Ã¶rtlich
Ġmoh ammed
Ġarchim edes
Ġvocab ulary
ĠgÃ¤nz lich
Ġrekr ut
Ġmahm oud
Ġinfrar ot
iju ana
Ġvanc ouver
% .
a wa
b in
b anken
b esten
c up
d ichte
h igh
j ahren
k as
k ann
m il
o ffen
p ound
s an
s ign
u den
w itz
Ġa hnen
Ġw itze
Ġw uÃŁ
ch ip
Ġm um
Ġm ister
re bs
re tt
Ġg alt
Ġg ouver
Ġe den
Ġe co
Ġo y
Ġo ma
st chen
st ory
Ġf m
Ġf ired
ll ten
Ġn m
or ger
Ġl ately
Ġv iere
is cover
Ġk ass
Ġk ings
al o
Ġz irk
Ġbe legen
et ing
Ġso y
ra ys
Ġder jenige
Ġder gleichen
Ġan zus
Ġan ecd
Ġse als
Ġse ither
Ġis a
Ã¶ pft
Ġst am
Ġst Ã¼tzen
Ġre he
Ġver se
Ġver Ã¤r
Ġver lieÃŁen
Ġun ber
am ie
Ġab b
Ġer achten
Ġer mord
sch ne
Ġal ab
im ents
Ġge wer
Ġge iger
Ġle ib
Ġle ichte
be at
op ters
Ġim pr
au gen
Ġhe fe
est and
Ġsp am
Ġmo chten
Ġar c
ul ative
Ã¼ber greifen
Ġat ten
Ġfr iction
os se
Ġex otic
ĠÃ¼ber holt
iv ation
Ġma ur
qu ote
her lands
Ġsh am
Ġpl ur
ang le
Ġinter rupt
Ġste ak
Ġste inen
Ġste aling
Ġste igerung
Ġbr ick
Ġfe hlte
Ġfra kt
Ġbl a
Ġra ys
Ġev ident
Ġhas se
Ġfl ock
Ġke en
Ġke hrte
Ġsy rien
sp iegel
Ġide ologie
Ġwirk ungs
ĠfÃ¼ hre
Ġdam al
ges agt
Ġad ul
Ġgew Ã¤sser
Ġhand werk
Ġgem alt
vel ope
Ġhum p
Ġreg al
Ġreg ulieren
Ġhel ik
Ġland karte
tern et
Ġgel der
Ġmon et
Ġmon ats
Ġstr en
Ġentw ir
Ġir land
ord neten
br Ã¼
Ġpar alysis
Ġschw ul
Ġschw achen
Ġschw immt
Ġschw Ã¤chen
Ġcar p
Ġzusammen gestellt
Ġzusammen setzen
Ġben ennen
Ġgreat ly
Ġnor men
Ġend less
Ġweiter geben
Ġdec iding
Ġel ast
Ġtag ged
teil ungen
Ġverw altung
sy m
Ġeigen er
Ġbrain stor
Ġsl aughter
Ġsond e
ock t
str Ã¤ger
Ġhigh school
Ġpolit ician
Ġinteress iere
Ġsen ator
Ġlebens zeit
Ġzwischen zeit
Ġted sters
Ġstra w
Ġabs atz
Ġ9 4
Ġged ichte
Ġmark ers
Ġ7 7
Ġprogram men
Ġmil ky
Ġmut ual
Ġdank barkeit
fin anz
Ã¤ng ern
Ġkre ation
Ġende ffekt
Ġnet ter
Ġnet herlands
Ġwalk er
Ġhoch zeit
Ġhoch wert
Ġschle imp
kr imine
inen te
Ġeas iest
Ġbetra g
Ġabsol uten
Ġhinter kopf
Ġopt ionen
Ã¼tz er
Ġtro ck
Ġoper ator
Ġequ ity
Ġkrie gt
Ġevolution Ã¤re
Ġevolution Ã¤ren
hol ders
Ġerl Ã¤ut
Ġfrag ments
zus ammen
com ing
Ġsens itivity
Ġjun ior
Ġdir ig
ĠÃ¤hn eln
Ġverm ischt
voll es
Ġdist ort
Ġober fl
Ġdro hne
Ġcoll ider
Ġcoll ision
Ã¤cht ig
Ġinvol ving
Ġweek end
ĠverfÃ¼ gt
Ġprim ates
mÃ¶glich keit
Ġ198 3
Ġcop ying
lam pe
ĠtÃ¶ teten
Ġzehn tel
Ġsamm elten
Ġhervor rufen
Ġsea water
Ġpath s
Ġunbe gren
Ġblog ging
Ġ196 5
Ġempf Ã¤nger
Ġaufre chter
Ġroll ed
Ġauszu geben
Ġdien stag
Ġpil ots
Ġinfe ktionen
Ġbacter ium
Ġdiv ine
Ġanges prochen
Ġlag ern
Ġcheck ing
Ġpoll in
Ġpolitik ern
Ġrepresent ing
Ġprec ip
ĠÃ¤lter werden
Ġreturn s
Ġquant itative
Ġlehr te
Ġimm ob
Ġgal ois
Ġcard board
ĠÃ¼bertra g
Ġstaat liche
Ġemploy ment
Ġherunter laden
Ġzustand e
Ġphotos hop
Ġbib l
grÃ¼nd e
Ġprior it
Ġsexual ity
Ġbehaup tet
car bon
Ġvent er
Ġmerk mal
Ġgrab bed
Ġfell ows
Ġallt ags
Ġneugier de
ĠÃ¤lt este
bas is
Ġappreci ation
Ġdauer nd
Ġmamm ographie
Ġbrut to
Ġerwe cken
Ġchap ters
Ġkompliz ierten
ĠprÃ¼ fung
ĠzurÃ¼ckzu kehren
Ġempower ing
pun kten
pos itive
Ġsculpt ures
Ġappe al
Ġinvestig ate
Ġrechn ung
Ġunl ock
Ġskept isch
Ġbeet le
Ġshel ves
cons cious
Ġeink aufen
Ġweak ness
Ġlic ens
Ġentrepreneur ship
Ġindic ates
Ġdut y
Ġchimpanze e
Ġtick ets
Ġintim acy
Ġhemisph Ã¤re
Ġfokuss iert
Ġrating s
Ġerhe blich
Ġschme ckt
Ġjon as
Ġbrun o
Ġreflekt iert
Ġmusikal ische
Ġfrighten ed
su per
vide os
geh irn
Ġstair s
Ġcalc ulation
Ġsulf ide
pie ce
Ġwund ern
Ġfulf ill
zo omen
Ġmoskit on
Ġjag d
Ġsubstant ial
Ġfunktions weise
ĠÃ¤sth etik
Ġvertre ter
ĠlÃ¤ng ere
Ġpic asso
Ġprol ifer
Ġpens ion
Ġpercept ions
Ġdistur bing
Ġneanderth als
ĠfÃ¼hl st
Ġtreas ure
ĠscheiÃŁ e
Ġconfig uration
Ġpedest rian
Ġkorrig ieren
Ġartifact s
Ġhallucin ations
Ġconfron ted
Ġhondur as
espe ech
Ġmycel ium
furch t
Ġserg io
Ġerder wÃ¤rmung
b os
b ad
b Ã¼hne
b atter
e inkommen
f ers
f ound
i pt
j ud
l ingen
m ad
m Ã¼ll
n ob
n Ã¤ck
o chten
p read
p ielt
p asste
t Ã¶
v ortrag
w ichtig
z esse
in ch
in ar
Ġa chte
Ġw uer
Ġw ides
Ġs iber
Ġth um
Ġi kon
es es
es ens
Ġm Ã¼h
Ġm ull
ie u
Ġb p
Ġb onds
at l
at in
at ivity
Ġh p
re ib
Ġg inge
as er
Ġe ames
Ġe ternal
an w
Ġo pec
st Ã¼cken
it ert
Ġp ose
Ġp iss
Ġl ighter
Ġc ul
Ġc ern
Ġc ds
is c
Ġk ent
Ġk ay
Ġein verstanden
ir urg
om er
un ks
ur i
ent ielle
Ġha ken
ion ed
Ġan mer
Ġan bau
Ġan zust
Ġan esthesia
Ġzu lassen
Ġre ed
Ġun ab
Ġun zu
Ġun wohl
Ġab laufen
Ġab road
Ġer holen
ge heim
sch war
Ġsch ar
ver ted
ver teilung
Ġfor ens
um ann
Ġle ar
Ġle ge
and s
Ġdo kt
Ġauf nimmt
ation ally
Ġmit z
Ġhe x
ann ers
ag ten
Ġgo at
Ġgo ss
Ġmo sche
Ġch uck
we ichen
Ġaus sicht
Ġfr uits
ern ob
Ġex x
Ġum sch
ĠÃ¼ber schreiten
Ġte ig
Ġmy zel
Ġno de
Ġno isy
Ġpe an
Ġpe pper
Ġtr iple
Ġvor m
ien ung
ute ilen
ein heit
ang es
ang iogen
Ġnach th
Ġthink ers
Ġam anda
Ġste uerung
scha ffen
Ġpr on
Ġfe uern
Ġsu ey
Ġviel ver
Ġdon n
Ġmir r
Ġmir acles
Ġide alen
Ġcl aw
cht ig
Ġzeit schrift
ak i
ak u
Ġwell s
ĠwÃ¼r d
ĠfÃ¼ ttern
wer f
Ġres ident
iter ate
ges etze
ger ufen
Ġkle ben
Ġgem Ã¼t
Ġkl ische
Ġhum ility
leich en
Ġreg ulations
Ġgra ham
aut or
Ġstr ikes
Ġdesign ern
Ġcar ro
Ġheraus kommt
Ġapp o
Ġbas ement
Ġpu ppen
Ġtrans ported
Ġja zeera
Ġbi ote
Ġganz er
Ġfin ishing
Ġgef iel
Ġko stete
kl ass
con f
ven ted
gar ten
Ġans Ã¤tze
Ġhigh ways
Ġschn urr
Ġdat es
stand ing
Ġexp o
ĠwÃ¤hrend dessen
Ġ6 7
Ġfol ter
Ġfol glich
imm y
mit glied
Ġchar ged
Ġjo ining
man uel
ific ations
Ġhaus halts
Ġrest or
Ġ8 4
the id
Ġ7 4
Ġprogram med
Ġwa ited
Ġbed ient
Ġbre ed
ief el
Ġna iv
Ġlu ke
Ġpres ents
kr imin
ĠfÃ¼nf zig
Ġvoll stÃ¤ndige
Ġsub mers
Ġfort pflanz
Ġred und
Ġscient ifically
Ġsuper ior
Ġsuper mass
Ġoper ates
Ġherz krankheiten
Ġorder ed
Ġprojekt es
Ġed itors
Ġrich est
Ġmodel ing
Ġstatt gefunden
med ien
Ġcir cul
Ġmer it
Ġstunden lang
Ġeinge bet
Ġhaupt stadt
rÃ¤ te
Ġadd iction
ĠfÃ¤ den
Ġfantast isches
Ġinspir ierend
Ġblue print
Ġsimp el
Ġkid na
oph ys
Ġkrebs zellen
Ġpresent ing
haft es
Ġvorher igen
Ġment ale
Ġju an
Ġerre ichten
Ġpress ures
Ġtief sten
Ġscre am
Ġrisk ieren
Ġ198 8
Ġrecogn izes
ĠrÃ¼ck meld
Ġumgeb racht
Ġalter ed
Ġconsider ing
ĠsÃ¼d pol
Ġrock ets
Ġbez ogen
Ġmoder nis
Ġengag iert
Ġ197 4
Ġ197 9
Ġlad ung
Ġsonnen systems
Ġverbr inge
Ġverbr annt
ĠschÃ¼ chtern
Ġbenef icial
Ġverschw enden
Ġverschw anden
Ġmis ser
Ġbrill e
Ġplant ing
Ġstick y
Ġhistor isch
hÃ¶r igen
Ġpredict ing
Ġfunction ing
Ġgraph s
Ġgang s
Ġcheck ed
Ġelement ar
Ġparticip ating
Ġtrick y
Ġjud gments
Ġreturn ing
Ġgesetz es
Ġquant ities
Ġperspect ives
Ġcollabor ators
Ġassum ing
Ġerg reifen
Ġinstall ieren
Ġhop ed
Ġmagic ian
Ġconvin cing
Ġka ffe
Ġimprov ements
Ġah med
techn ologien
Ġintelligent er
dimens ionen
Ġkrit isch
Ġmel den
Ġtour ist
bet rieben
Ġhart nÃ¤ck
Ġeinzu gehen
Ġiron ic
Ġsurve ys
Ġinvent ions
Ġselten en
ĠphÃ¤nomen e
Ġ194 9
ĠverfÃ¼g baren
Ġrecy cle
Ġgig antic
Ġhabit ats
Ġfold ed
Ġexpon entially
Ġgefangen en
Ġexplos ions
Ġsem i
Ġbegeg net
Ġcrash es
bereich e
Ġschaff ung
Ġsto ffe
Ġgrass roots
Ġut ility
Ġgee ks
Ġobser ving
Ġverlust e
Ġprem ise
Ġschnitt stelle
Ġfinanzie ll
Ġorient ierung
Ġattempt s
ĠverÃ¶ffentlich ung
zur ufen
Ġvi able
Ġmicrosc opic
Ġbeet les
Ġpregn ancy
Ġmary land
Ġhindern is
Ġcub a
dies e
Ġentrepreneur ial
Ġlam pen
Ġakadem iker
Ġ191 8
mechan ismus
Ġkollekt ive
Ġencounter ed
Ġinstin ktiv
Ġdeser ves
Ġpix els
Ġsymmetr ical
Ġbanglades ch
Ġastron omen
Ġunerwar tete
Ġbundes staat
Ġdreidimens ionale
Ġattrib ute
Ġschalt kreise
Ġrefuge es
Ġwound ed
Ġturb ul
Ġembry o
pap ier
Ġsi oux
Ġerschre cken
Ġcryst al
Ġvoy ager
Ġgeschichtener zÃ¤hler
Ġassozi iert
cond u
rott ung
stad ium
ĠÃ¼berwÃ¤lt igt
ĠglÃ¼hbir nen
Ġsummar ize
Ġrecept or
Ġharmon ie
Ġbutt ons
Ġambul ance
Ġinfect ious
Ġverpfl ichtung
Ġgenu ine
Ġwarri or
Ġprescri ption
Ġosc ar
Ġstead y
ĠlÃ¤h mung
opÃ¤d ie
Ġantik Ã¶rper
mind ed
ĠunzÃ¤hl ige
pred ict
wett bewer
Ġrus sell
Ġproth esen
Ġasym met
Ġbewerkstell igen
Ġarbit r
Ġbarm herz
Ġantire trovir
Ġmississipp i
Ġwides pread
ernob yl
Ġbiote ch
1 8
b ons
b ird
b ury
d ung
d ala
f eln
g dala
m r
m ate
m ile
m acher
m useum
n ummer
o den
p iele
s uch
u ale
v an
v Ã¶
y ed
z it
Ġt ippen
in chen
in fl
Ġa pe
Ġw ished
Ġw Ã¤nden
Ġw reck
Ġs ush
Ġs weeney
nd es
Ġm Ã¤usen
Ġm Ã¼ttern
ie de
Ġb am
Ġb ast
Ġb ore
on te
Ġh Ã¼r
Ġg ier
Ġg au
Ġo we
st attung
Ġf ahre
Ġf Ã¶t
Ġn ack
Ġin ert
Ġp od
Ġp isa
or ph
ar ith
ar beite
Ġl un
Ġl akes
te f
Ġto ps
Ġein bauen
Ġein hundert
Ġein samkeit
le iden
Ġz Ã¶
Ġz oll
Ġbe ise
ig a
ig el
us sten
us ionen
ent z
Ġan as
Ġdi mit
Ġzu kommen
Ġst ink
Ġst Ã¶rt
Ġre ck
Ġre akt
Ġver ank
ter ror
Ġun sch
Ġun iqu
Ġun predict
am ment
Ġab lauf
lich ten
sch uss
Ġal right
Ġon k
all es
Ġsch alten
Ġsch arf
Ġsch Ã¼tzt
Ġsch Ã¤tzt
Ġsch eme
Ġr ift
Ġr ipp
Ġr ichtet
ung el
Ġden y
Ġge hr
se ller
se bene
Ġle ihen
be cause
ber gs
Ġpro vo
ann ah
ff el
ill in
Ġsp ite
Ġch asing
ul ationen
Ġsich ern
enn ungs
Ġaus gestellt
Ġaus richten
he art
Ġex h
Ġex oske
Ġum r
Ġde ple
ĠÃ¼ber aus
og ether
ne um
Ġen vision
Ġen abling
Ġen velope
Ġent it
Ġout door
Ġze ile
Ġup ward
Ġgl ow
Ġste ep
ĠâĢ Ļ
for ests
pt ic
Ġsu p
Ġkon tra
Ġfa kult
Ġbl ast
Ġbl essed
Ġbl Ã¼ten
Ġgesch Ã¼tz
Ġev angel
sp an
Ġsc roll
Ġtra ces
Ġzwe ig
Ã¤r kt
ac ities
Ġres pected
Ġdis miss
Ġdr Ã¤ngen
Ġtechnolog ischen
Ġkl app
Ġselbst s
Ġland e
Ġcont ained
Ġmon s
Ġele anor
Ġfre iges
Ġir ren
Ġteil haben
Ġmay a
Ġ5 6
ors hip
Ġinc on
ious ly
Ġzw ill
isten ce
Ġschl Ã¤ft
Ġ4 9
Ġstat ements
Ġwahr heiten
Ġwahr zunehmen
Ġgleich berecht
Ġuniver sen
Ġganz heit
ep idem
Ã¼n fte
Ġsoc i
Ġdan cer
Ġverw alten
Ġbede cken
zie le
Ġla va
Ġsl ip
Ġverl Ã¤ss
Ġans ammlung
Ġber ater
ps on
Ġmag ische
Ġfil tern
Ġbill ige
Ġvis ionen
amm ad
Ġkur ven
Ġmat ure
Ġstru kture
Ġlight ning
Ġhaus halte
Ġbed ingung
Ġsupp ress
Ġraum fahrt
Ġpop s
Ġarch a
Ġarch ie
Ġfilm ed
Ġche et
Ġsub tra
Ġass ure
Ġint ric
Ġmusik stÃ¼ck
Ġenvironment ally
Ġexist ential
Ã¶l fe
Ġherz schlag
ron en
Ġmass iven
Ġbel Ã¤st
Ġverd reif
Ġref used
Ġschul tern
Ġtreat y
Ġweb cam
app ro
Ġlau nd
Ġview ed
Ġlabor atories
Ġkil os
Ġconnect icut
Ġluft fahrt
Ġlog ging
Ġpersonal ities
fra me
Ġbedeut ungs
aktion en
Ġsolar zellen
Ġbreak down
Ġwider stehen
Ġju wel
serv ice
Ġtages licht
Ġdream ed
Ġklim ak
Ġdirect ors
Ġoptim ist
Ġrein for
Ġmeer wasser
Ġsn akes
Ġatm osp
Ġschwe iÃŁ
Ġeinges perrt
Ġstatist isch
pers pektive
Ġrefle ctive
Ġflu kt
pre ist
Ġsle pt
Ġsustain ed
Ġherr schen
Ġflo ors
Ġaufge teilt
ĠÃ¼b lich
ĠÃ¼b liche
Ġernst hafte
Ġtum ore
Ġdef icit
ĠmaÃŁ stÃ¤
Ġattack ing
Ġvern etzt
plan et
Ġsymbol ic
Ġbetrachte te
ĠkÃ¤m pft
Ġsob ule
Ġprakt ischen
Ġdete cted
Ġverurs achte
Ġpoll ut
Ġprec ision
Ġschreck liches
Ġerg Ã¤nzen
Ġplat te
ĠkÃ¼r zer
bil dern
ĠmolekÃ¼ len
Ġtown s
Ġintens itÃ¤t
astrop he
Ġepidem i
ĠgeschÃ¤fts welt
ĠprÃ¤ front
ĠschÃ¶ pfung
Ġcelebr ated
Ġmix ing
Ġmanufact ure
Ġren ov
Ġadapt ive
ĠnÃ¶t ige
Ġbeat les
Ġdopp elte
Ġcro cod
Ġaufw achen
Ġrit uale
Ġtodes fÃ¤lle
Ġsem ester
ey ed
Ġaccom mod
Ġastronom ers
Ġsto ÃŁ
Ġtu gend
Ġfrequen cies
Ġsar g
ĠtÃ¤t igkeiten
Ġpfe ifen
Ġq a
Ġorient ation
Ġpure ly
Ġparas it
Ġvi ktor
Ġelef ant
Ġexplan ations
Ġtransplant ation
Ġspont aneously
Ġexplod ed
Ġfif teen
Ġdiplomat ie
Ġinher ent
Ġamy gdala
pra che
Ġverschl Ã¼ssel
Ġpsychiat ric
Ġeigent ums
Ġhipp ie
Ġresil ient
ĠkrÃ¤ ften
Ġeval uation
Ġausgang s
Ġausgang spunkt
ĠgegenwÃ¤rt ige
Ġfisher men
Ġchamp ions
Ġattrib utes
Ġcand le
Ġcaf eter
Ġproced ures
Ġspons or
Ġaccum ulate
Ġnic ely
sproble me
Ġstig mat
ĠhÃ¤ss lich
ĠvernÃ¼nft ig
lan kton
Ġtight ly
Ġvarian te
Ġrepeated ly
Ġmoskit os
Ġalumin um
Ġverlangsam t
fam ilie
Ġsab bat
Ġunn Ã¶t
Ġverkle in
Ġgravit ational
Ġnordkore a
Ġthor ough
Ġhervorra gend
Ġenthusias m
Ġbetr unken
Ġbeeindrucken de
Ġschwefel wasserstoff
boo te
Ġklat schen
Ġspren g
Ġamph ib
Ġwinn ers
ergeb nisse
Ġzeitra ffer
flu id
Ġfilmem acher
Ġcatastroph ic
Ġpalestin ian
Ġgeschn itten
Ġoffsh ore
Ġmuh ammad
ffect ive
Ġkriter ien
Ġtay lor
Ġhurric ane
klÃ¤ss ler
Ġisa ac
Ġmirr ors
Ġuniqu ely
a ire
b aus
b row
b ienen
e ve
f eller
g age
h irn
h arm
i ater
m orgen
n atÃ¼r
s ich
s ize
s ocial
t un
u hren
v erein
y pen
z og
z ungen
z ucht
z Ã¤h
in z
in str
Ġa wa
Ġa imee
Ġd m
Ġd icken
Ġs hen
Ġs ift
es c
Ġm ck
Ġm ong
Ġm inn
Ġb id
on al
Ġh ink
Ġg host
Ġe ingenommen
Ġo t
st ore
st ationen
st iftung
it re
Ġin einander
Ġp s
Ġp am
ou l
ar ab
ar ios
Ġl ane
Ġc in
Ġv ok
Ġand ern
Ġk i
Ġk ant
Ġk ite
Ġk ump
Ġk Ã¤lte
Ġk uba
Ġto ken
le um
le gung
al ts
Ġbe her
Ġy o
un klar
ut ung
Ġan arch
[...]
